db
be
f6
d4
e0
00
17
e8
f5
41
f4
e6
f3
ee
00
06
fa
ed
0b
03
dd
f5
02
db
f1
dd
f8
e8
f0
e8
09
00
0e
18
f1
f3
04
e2
08
f8
f6
ee
e9
fa
f5
02
10
da
18
e1
0f
ff
fa
01
1e
f6
ee
e5
0f
0f
10
f2
20
00
28
12
17
0f
29
e3
36
dd
f7
dc
ff
f7
04
0f
c0
0f
f6
d9
f8
db
f5
11
f5
12
19
fc
22
b4
10
26
f7
08
94
0f
03
e1
00
04
f2
fa
28
f7
00
fb
d7
08
e6
de
10
0b
f4
da
e2
01
e3
06
05
da
e9
f5
e1
08
53
f0
2c
e3
e4
11
f5
22
ad
fa
ee
fb
bf
01
05
07
1d
f5
eb
f1
09
fb
f2
de
1a
eb
14
ea
07
0d
f7
e0
01
1c
eb
e0
26
e3
f2
d7
f5
f6
f9
d2
da
df
ee
d8
04
05
03
f5
12
f0
f7
f4
e6
d9
0a
02
fa
fe
9e
04
ec
13
f2
f0
d0
f7
f1
05
c5
c9
23
b5
fa
e0
ec
ed
00
e6
2c
2d
12
ea
b4
0e
c7
c5
38
09
08
cf
27
fc
13
2b
0c
ef
01
ba
c8
35
f1
fa
0f
fa
05
d6
f8
12
ed
ae
18
39
0a
00
e0
c3
0c
d0
f4
f9
09
1e
0f
13
0d
ec
01
dc
21
c2
dc
2c
c0
cd
1f
c5
0f
e3
11
0f
14
e9
fd
c3
1f
00
d2
03
d8
e3
c9
17
16
e7
11
0f
18
f6
00
f9
f3
f9
e6
3e
03
32
e0
16
0f
f0
d3
0c
12
1c
f4
d3
01
d2
cb
f7
16
ee
ef
fd
f2
2a
10
e5
05
f3
fb
5c
d8
02
de
1d
17
4b
fd
16
02
07
10
ed
08
fd
1c
24
0b
d8
0c
e5
01
1b
f7
fa
eb
04
ff
cf
1f
05
d9
f3
25
fa
ff
28
f8
16
e4
de
01
cc
f6
f3
16
f4
fc
dc
c2
f0
d0
09
92
43
e0
f6
19
1d
2d
27
0f
0f
e1
fe
fc
d3
f5
db
01
1c
00
04
00
13
ce
e1
e4
17
ca
f1
05
e7
0d
02
28
fb
08
e6
fe
b9
f7
08
15
04
3a
d6
00
b8
10
ef
14
db
d9
d1
d6
26
31
f2
0d
f9
0a
24
f0
1f
17
f9
03
ea
10
f5
f2
05
f0
fa
02
0f
f3
11
40
d7
09
0d
1c
e2
d6
e2
09
29
dc
0b
11
e6
d3
fc
da
03
ee
fb
e8
21
d8
1d
0e
19
1a
1b
03
0d
ed
22
05
e4
18
04
05
04
15
23
01
c2
0f
fe
ee
09
13
07
b8
22
10
dd
12
1b
00
dd
f9
0d
dd
de
ef
1e
f8
00
07
b3
21
04
c8
f7
1b
ec
06
ff
da
03
d9
06
2e
ea
05
01
0c
df
18
06
fb
3a
08
0b
ff
1c
f2
c9
e8
f8
16
fd
d9
f8
1b
ce
0f
f0
f8
1a
1a
fb
31
02
23
e2
0a
21
01
13
0d
e1
06
11
00
1b
03
ff
ee
f6
18
00
15
1c
f9
db
f9
f4
ac
ef
eb
19
fe
dc
e2
1f
09
03
f2
1e
e5
2c
07
f1
fa
fd
34
b7
19
10
e3
0c
0a
e5
e2
14
e8
11
0a
e4
c2
0b
de
01
f3
fb
08
0c
f8
e2
13
fb
d6
c2
e5
fb
0a
f4
f7
f7
fd
fa
b8
f2
f6
e4
cc
06
a8
12
f2
0e
10
df
1b
14
de
db
08
01
15
e4
02
00
1f
e7
0c
eb
c0
14
16
e3
08
da
c2
ec
0e
ac
f0
13
c4
fa
f0
02
fb
f9
15
cf
e1
f7
13
f7
f9
05
fb
00
0d
08
1c
dc
0b
ea
b4
cd
d3
f7
09
e5
ed
e0
e4
e5
fa
01
09
d5
f2
e3
12
ef
18
33
32
d5
f6
f0
f1
3e
ed
cf
00
db
16
f6
f1
07
ed
18
2a
12
f3
18
ea
c7
e8
d5
f1
11
0d
d7
12
24
d1
d8
b5
00
f4
e9
d4
dd
17
20
14
d8
b9
e7
fe
fd
fc
23
be
b9
e3
ed
00
a0
06
f3
10
19
19
07
0c
17
f9
df
f1
fd
da
13
aa
f3
1c
ef
91
e2
eb
db
50
08
e7
f0
e8
06
f0
f2
01
fc
e9
db
f9
c7
1f
0b
08
04
f1
b5
d2
e9
1d
ec
2f
d9
1d
33
e1
f5
ee
de
4b
21
05
09
08
ee
f7
26
df
fe
00
e6
e8
19
17
f4
27
fd
e9
08
0f
f6
f2
e5
0d
16
19
3b
0f
f7
f8
f2
2e
dd
34
fa
eb
0d
01
f9
ef
2b
0d
f8
2e
00
24
09
00
f3
c6
2b
00
eb
d4
ff
04
e5
d7
f8
f0
cf
ef
2b
3a
09
40
12
0f
1b
d9
f2
0f
05
f0
fe
25
09
06
fa
01
17
0e
db
f9
e0
13
14
0e
fd
fc
f8
d8
d6
e5
14
0f
d2
3d
14
11
f3
f0
0e
1a
19
0b
ff
46
02
e7
c9
06
f0
29
fc
10
01
ef
d8
d2
ec
ea
fd
c1
1f
ec
01
1e
e9
2c
ff
05
dd
e2
0c
dd
d5
04
f7
34
02
f1
11
ec
10
f4
df
fa
e3
04
06
ee
06
ff
2a
f3
df
d6
f9
04
cf
f1
09
0e
33
fb
27
fe
16
1e
f9
11
f6
f2
1d
c4
13
f1
1d
cf
d3
07
14
fd
00
07
0f
cb
fb
07
f2
0d
cf
bd
37
25
25
f9
f3
1a
f8
07
01
01
05
d3
f7
ee
01
be
de
0d
04
e5
e1
f7
06
18
42
f6
1c
36
fa
ed
1e
03
0f
06
1d
d1
1c
ef
ee
05
19
d3
ff
1c
f5
f6
f7
ed
0d
e3
d5
1f
1a
03
ef
f9
f1
e4
ee
26
e2
fa
bf
16
19
06
ea
12
ef
03
df
03
0c
d8
18
23
f4
bd
01
f1
0d
dd
d0
32
05
04
f1
00
14
f2
ea
38
48
26
33
d9
34
f9
e6
fe
f1
1b
13
f9
2f
b3
f9
52
e6
11
ff
10
d8
00
01
1d
d0
fa
fb
eb
ee
15
01
0f
1c
0c
08
f2
10
0c
f1
f1
fa
b9
f5
bc
0e
05
0f
e4
29
f9
d9
13
e7
f0
0c
06
f0
32
e1
d3
00
10
fd
07
0d
fb
ef
12
06
10
06
ee
02
ea
17
0e
1c
12
13
e2
04
17
1b
f6
1e
fc
ec
20
0d
29
06
00
ea
0d
e9
18
eb
fd
f4
da
13
06
02
e2
38
08
f5
03
07
f2
18
0e
ef
00
1b
28
3a
f0
e6
f9
df
e2
e7
e5
03
ff
2a
fa
a0
fd
f4
00
d4
19
0a
ef
17
e6
f3
08
1c
e5
e0
10
0c
f9
1e
14
ba
00
0f
14
23
1a
10
0e
f9
e5
e8
06
ea
05
cb
fb
0f
e7
19
d8
e0
15
f8
29
e0
eb
0c
0d
2e
f7
05
14
a7
ef
fd
fe
08
b0
e6
10
e5
1e
01
02
fe
f9
e1
f7
00
fa
f9
fd
e2
17
00
15
08
38
1a
0a
f0
fa
1d
e2
1f
f9
1a
20
e1
cc
0c
00
f3
20
f4
e1
3c
ea
1c
08
d1
1f
a4
0b
01
ee
f2
03
21
df
bb
27
e7
05
cb
d8
0f
17
0e
22
56
aa
fe
ea
f6
f5
c8
ff
f8
02
d1
07
eb
0b
c9
15
07
07
07
fe
00
e1
b4
39
da
04
aa
0d
22
15
04
f9
40
e2
13
07
13
19
dc
e4
05
1e
d1
fa
26
07
e9
00
00
1e
12
e8
04
d6
93
1c
c9
f7
0d
33
fb
ec
20
e3
e7
2c
f6
21
fa
0f
0c
d5
25
fc
db
fa
ec
11
9c
d2
f8
1a
03
cc
ef
37
f3
08
25
e1
ed
01
09
f7
15
e3
22
df
00
cf
bf
fc
cf
21
29
f1
00
1c
0b
c5
cc
f8
d5
17
fc
19
2a
f1
ee
01
f5
fc
ee
fe
fd
22
df
00
ff
0f
fe
f7
e5
e3
09
d7
24
ec
f0
10
25
17
27
03
f6
d9
1b
07
d6
10
ef
1d
0d
ca
18
fb
06
fb
14
ec
12
e2
e5
22
ed
1b
d0
e0
f7
e9
26
08
1d
ea
e6
e3
dc
f4
14
eb
fa
ee
f5
d0
c7
23
17
24
05
d5
fe
ea
fd
e8
08
dd
e0
c4
f0
eb
fa
dc
02
ed
f1
4f
20
1b
e8
04
15
fe
dd
05
da
fe
ec
00
0a
f1
03
25
0a
e8
ee
f8
f2
d5
e5
e3
ec
d4
1a
ea
e3
04
f0
08
f3
08
d8
db
e6
19
dc
53
0c
0c
02
d7
dc
0c
d0
21
00
eb
fd
03
cc
f6
db
25
f3
9b
1b
de
fc
ed
26
fd
0d
e2
08
ed
eb
b5
23
15
f3
50
ea
f6
04
f4
10
00
00
d1
23
ee
fc
e9
dd
e2
dc
05
2a
fc
00
fb
df
08
09
fb
d7
00
dc
f0
e8
1a
e8
40
0d
30
05
e5
fa
04
05
1f
f9
03
10
df
2e
e1
f3
ac
0f
e1
33
f9
03
ed
01
e1
09
ba
c0
e3
ec
07
f1
14
21
f9
e8
ef
0e
03
12
10
d4
5d
fa
0b
f6
e2
de
d0
08
f9
09
33
f5
33
f3
fb
0e
d5
00
f1
f6
19
1a
e7
0d
fa
03
0e
f9
ce
0a
ef
e1
ff
07
07
03
1d
e9
26
f2
d9
d5
d5
fc
18
d0
f8
16
f3
0a
e7
e1
04
0e
d8
e8
eb
0b
d5
02
21
e4
d7
ee
e1
f1
fe
fc
c7
c2
fb
e8
e1
02
a7
fb
ef
28
db
0a
c5
c4
13
f9
f7
28
e8
ee
fe
0a
08
0b
d6
f5
eb
15
fd
e6
0e
de
2b
e3
08
de
08
19
e2
e5
e6
01
25
e5
01
0e
01
e3
f7
ea
ee
f5
15
f5
17
05
15
ef
ca
07
10
07
0c
fd
0d
f4
e8
fc
ec
00
1c
0f
00
1f
00
9e
ee
00
f1
db
14
d2
e5
d8
32
e3
f6
29
ec
b9
e3
fd
1c
19
01
d4
1e
d5
0c
13
dd
ec
f5
00
f3
fd
d0
1b
df
13
12
bc
fa
cd
01
d6
de
ce
dd
fd
e1
0c
fb
cd
f3
05
f9
26
0f
00
f4
22
e2
ee
19
1b
be
d8
c8
d3
f5
db
34
08
21
0d
00
13
23
be
08
f7
10
eb
06
01
f2
e9
1e
31
d6
e0
e8
1f
08
1e
08
fa
d8
fe
ea
0c
f4
20
f3
01
d8
e8
1e
d5
ea
e4
12
e1
be
bc
27
0b
ee
bb
2d
da
b6
dc
ef
23
10
11
f2
fc
e4
19
ef
fe
d8
f1
fd
f8
d7
01
f4
07
00
ea
dd
ec
01
f5
f5
e5
03
f6
f5
13
d6
fc
f7
13
fd
fc
0c
0e
f5
e8
02
14
c9
0e
de
d5
29
fa
df
21
f5
d2
00
11
27
24
f1
e4
06
fc
f0
02
ff
e5
d0
06
2d
fa
30
2e
fc
e8
0e
25
ec
51
11
f7
1d
27
ed
03
f3
d5
4f
45
21
08
e9
0b
f1
e1
f1
03
f8
ec
e1
e9
2b
eb
46
0e
0b
fd
de
14
f4
2b
04
02
0c
24
05
02
e5
43
0a
32
f5
ec
04
d4
e4
ed
de
0c
fd
28
04
c0
11
ee
02
02
f1
fa
0d
fb
f7
14
f0
ff
16
0c
11
13
d1
09
19
e9
12
2f
0a
0b
0e
15
08
20
fa
dc
ec
f9
07
c8
da
08
00
02
10
f8
e5
4c
3c
de
f6
13
00
0a
f4
ee
db
e5
fa
2f
c0
fc
e7
1c
18
1a
1a
e6
f6
00
fb
ea
be
06
f4
f1
fd
e0
10
1a
12
f8
10
00
e7
e2
cd
48
0c
14
f7
01
ee
0a
f2
27
06
f0
4d
fd
06
f7
24
14
ed
f1
fa
1e
20
0f
13
f0
fd
25
e8
db
41
f5
ec
0a
c3
15
1b
e2
0b
30
09
36
e7
fa
f0
ee
0f
07
f5
a8
f8
03
f3
dd
05
ec
0d
09
15
fa
f3
e8
3e
e2
fb
ec
f5
01
18
69
e6
29
d8
e1
07
f9
ec
fb
f8
d3
cf
bc
fc
f5
e2
16
ff
df
f9
d5
f0
0f
f7
d4
07
e3
d7
08
21
fd
f6
51
ea
ed
24
0e
00
ff
2d
e5
ad
04
07
fe
da
fa
fa
fd
d6
21
c7
dd
ff
1b
13
ff
d9
ff
cc
c4
21
f3
03
da
dd
e1
0c
17
bb
f8
0d
ec
fb
19
ff
1a
ff
c9
06
03
14
ec
0f
20
d0
13
e8
21
ee
fe
2d
dd
0a
f5
ec
ed
14
f1
06
21
f0
f9
0d
0e
00
1c
08
f1
ef
0e
08
11
f9
08
ec
fd
f0
eb
e0
09
da
e8
f2
15
05
10
ee
0a
ff
09
f6
df
c8
09
fd
17
f1
f0
18
fc
fa
ac
0d
f1
e2
12
ef
f0
cb
ee
0b
04
30
3d
75
00
06
bf
09
14
e3
01
f1
bc
0c
fb
37
00
d7
1d
10
e2
e8
07
d3
16
1a
da
10
27
d3
24
1b
fb
13
e1
37
ea
12
16
e3
0f
f5
df
00
2c
12
13
da
00
11
ce
21
fc
fe
19
13
ea
11
e9
0d
0e
ee
0a
1b
e5
f6
eb
d7
10
05
16
27
e8
0c
f4
15
0c
18
f3
03
e2
c4
c9
f5
17
14
21
f7
e3
0f
ee
ef
cd
dc
0a
ca
18
f2
08
20
c0
11
d6
00
e0
fa
e4
f8
1c
00
1f
eb
16
06
d6
1e
ec
f1
f8
dc
ba
1c
1d
15
22
fd
c9
be
ea
17
fc
16
f6
2d
1a
e4
05
ea
e3
21
f7
19
f4
de
fe
de
fc
0a
ff
cb
d0
07
f9
be
0c
ea
11
e0
c6
06
f4
e3
12
ef
dd
0a
ea
0d
25
04
e1
24
0b
03
f2
ef
dd
c1
0a
15
e2
dc
f8
01
09
f2
0d
fc
00
fe
02
23
02
f5
0c
ea
17
03
20
48
f4
f3
fe
19
f4
b2
e2
04
0b
f1
19
de
fd
d9
44
05
15
ea
0f
f7
ff
13
1c
43
fc
08
18
d2
fa
18
10
e9
d9
43
21
ea
ed
c6
bb
f2
ea
fd
12
ec
04
f6
fa
e2
14
fb
1b
ee
f3
f4
e0
f9
ef
f3
f3
24
15
0a
fb
fc
0d
fa
0e
fd
e7
f0
ec
15
db
e0
0b
11
1e
25
3a
fe
d9
d2
00
03
d7
f1
f8
df
ff
e7
08
0f
15
1a
12
0a
1d
3e
ed
10
25
f2
ee
dd
13
ed
dd
f7
ee
e2
d1
84
29
27
24
f5
23
e3
c4
fc
dd
e7
ed
2f
dc
f7
fe
45
fb
4b
e4
f8
f0
a7
e3
f5
d5
0e
0c
d3
e1
f6
d3
f0
e6
f0
0d
d5
37
05
e9
00
09
e4
24
b2
bb
ef
36
27
fa
df
e8
ee
d6
d4
1e
05
0a
ef
0d
df
21
ff
d2
76
f0
e2
1f
01
f7
1d
14
00
e3
f5
c0
fc
f5
01
43
ed
00
02
00
13
fa
10
02
04
f7
dd
23
ff
17
c1
0d
16
3c
fc
d1
0e
fe
e7
3b
d9
ee
f8
c0
e3
1a
05
f7
4e
f8
e1
f4
3a
f6
f2
d1
11
10
03
f8
9f
09
00
2a
13
2b
f8
20
e0
07
e2
0a
1a
10
db
f6
01
f1
34
11
02
05
d6
0f
20
f3
ff
0f
e6
0c
00
fd
00
0d
e0
2a
2e
c7
37
1a
b4
e4
c5
2d
d7
ff
c3
0f
f5
e2
33
cf
fe
14
fb
eb
fc
f1
f3
08
e5
ca
ee
2c
0b
1f
0b
fb
3c
20
05
1b
e9
ee
a3
03
e8
1f
da
15
ea
07
e6
e9
e5
1e
fa
d1
fb
f8
1b
fc
06
f0
1f
33
e6
cd
eb
17
f5
24
ea
bb
fb
e6
f7
ff
f1
11
fd
ca
09
e6
1a
eb
0b
04
49
df
d5
0f
f2
ff
30
2e
1c
0b
fa
ff
0a
11
de
0f
38
0e
ce
ff
dc
21
05
00
ef
2b
12
ea
23
18
2b
c0
0f
22
f9
2a
0a
ff
0b
c6
fe
f5
00
0b
dc
19
07
ea
04
e7
fb
f3
f8
ee
e6
eb
e4
ff
11
0d
e2
fa
0d
16
d6
d8
04
11
19
25
19
eb
fb
e2
c4
f6
05
2c
00
15
e1
f9
ec
16
27
e5
ce
00
ee
f5
19
37
ef
e4
16
f5
f7
f5
ef
19
ef
f1
08
fd
19
00
ef
32
fd
ec
d4
03
3b
03
c8
08
00
fa
ef
bf
f7
fa
f8
cf
f1
f8
22
ff
14
32
f2
00
ed
15
dc
c2
0b
07
ee
01
f5
2f
d9
04
fa
e4
f7
42
1b
c7
e4
f3
f3
cb
02
d2
0e
e2
28
f2
e5
2b
16
12
37
04
f3
f6
f3
d4
04
1f
e4
00
19
35
e6
14
03
18
12
f1
f7
ec
dd
09
e8
20
f8
ee
16
f6
f1
ee
1e
e2
ff
05
30
e6
0c
0e
c9
2a
bb
e5
f2
f9
c0
06
18
14
d8
13
e8
00
00
06
df
f9
00
14
dc
fd
26
05
18
2b
9d
c3
c6
e8
f7
ea
f7
e8
17
2b
07
21
e9
05
fa
0f
e0
2e
ec
f8
fc
d4
e8
fb
31
16
0c
e9
fc
e4
24
1b
f2
b1
fe
02
f9
1b
ee
06
f3
59
26
f0
1c
12
f8
de
fd
d3
f0
06
2f
0d
fb
00
00
22
03
ef
0c
f6
2b
03
b2
ea
e1
0a
e5
05
01
e7
de
fb
1a
c2
2a
02
d3
f3
f4
c4
fd
f9
ec
eb
d2
08
24
37
07
2d
d2
f7
0e
eb
d7
db
f3
fa
ba
28
b7
1e
1e
22
2e
cd
fd
d5
d5
37
e0
f8
de
f1
e8
05
24
dd
46
1c
2d
e3
21
f6
ee
e0
c9
cd
e1
c9
d9
2f
f0
e5
ec
a4
1d
15
11
e9
d3
f0
c0
ed
dc
df
ec
cd
c6
f2
11
fe
17
f8
14
f1
e2
06
c6
d9
e5
ea
f4
0d
fc
f3
f9
02
ee
06
f4
33
f7
f9
e4
12
d4
03
02
ed
14
02
30
fd
f3
0e
30
ba
30
09
da
0c
f5
cc
e0
07
1c
eb
e8
f3
f7
2c
08
1b
ef
d4
e9
10
f5
f1
c1
eb
cb
ea
f9
f1
08
ee
27
f4
f8
15
fe
1b
16
f3
d8
0e
a7
25
ff
24
fb
e3
c6
f9
f1
01
e8
07
08
1d
fc
f2
00
09
16
eb
46
ee
1f
d4
ca
e9
f3
07
df
00
d7
2b
c5
e8
0e
08
fd
0b
f5
f3
fe
20
1e
e8
0a
ed
f2
ef
f4
22
00
e0
03
04
37
f3
04
d9
ca
b9
0d
07
00
10
db
07
f5
db
1a
15
31
f5
09
03
0f
07
d3
16
21
fa
f1
03
08
15
2b
01
f4
03
0b
e2
c2
c1
ec
f7
10
35
e2
e6
f8
f2
f3
dd
ec
d9
07
1d
c6
ef
05
f5
e0
0a
04
ef
10
11
28
09
f5
fa
23
c2
ef
c8
fb
12
25
dc
ec
0a
05
08
10
31
ce
cf
0e
e5
f9
e8
c9
e2
f0
dd
e4
f4
13
41
26
ee
e5
ee
fd
d0
c8
d5
1b
16
22
1e
f8
f4
e8
0c
51
fa
08
fb
f5
34
c4
e2
f9
f9
fb
06
1a
f1
e9
ea
ee
8b
0c
f3
e5
3c
c8
e4
2b
ed
15
39
cb
1e
e7
32
1d
0a
03
eb
2d
06
c5
f3
df
f4
01
08
c9
11
cc
22
0d
e2
32
ec
17
19
c9
bf
d4
d0
f8
29
f8
fe
fa
40
02
f9
cd
06
fb
f8
fb
fc
04
f6
12
f1
0f
e6
fc
01
01
18
16
0a
43
e4
fd
e6
e6
fc
2a
00
3a
04
2b
14
e5
4d
e0
b4
0f
11
c5
2d
ec
00
00
02
f5
c8
e3
fd
19
d7
28
ea
01
e7
e2
b9
34
09
20
00
ef
13
e2
eb
19
01
f5
16
16
ef
1a
04
e4
dd
dc
f3
00
00
17
1c
22
c6
22
ec
2e
31
0c
29
fc
eb
de
00
e3
25
11
27
24
15
1c
01
f7
f3
df
df
05
37
e8
0a
cb
fa
21
22
21
ea
d9
e9
00
da
e4
05
e2
f2
d5
26
f3
00
12
00
16
f4
f3
24
da
17
e1
f1
0b
39
c0
04
1b
0e
18
04
f6
ec
05
f6
17
3d
0c
09
f8
fa
fb
ea
f5
e4
11
e1
da
f8
fd
e6
e5
0c
e8
12
0f
11
dd
e2
0e
e0
fb
10
01
e1
05
cb
ec
23
e3
ff
01
56
37
09
f4
18
05
e6
ef
f1
0b
03
eb
07
ed
e5
fc
f2
c9
f7
fd
fe
ce
d1
2b
e6
eb
03
19
2a
f2
15
d9
fe
e6
f3
e4
04
dd
fa
01
00
06
19
d1
1f
17
c9
01
f1
0b
00
e2
dd
f8
11
f4
e0
04
fc
cf
de
1a
29
14
09
2e
e0
01
f2
05
e0
1a
3e
e7
0b
27
f4
12
00
ce
df
e2
f1
15
26
ee
00
f7
db
e7
00
fd
ae
fa
36
ff
fd
15
04
f9
2a
c7
ef
f3
21
dd
05
04
21
19
d6
df
f5
ef
ee
ec
f8
bb
eb
ff
e4
f5
2b
e0
f1
f3
1b
ef
eb
0e
05
d4
ff
c0
0f
02
f8
e4
fa
ee
43
0e
e7
f4
fe
fa
f8
ca
e8
da
16
f8
df
0b
11
e5
c0
0a
3e
00
d0
5e
19
0c
d7
d7
f4
0a
bd
00
d6
28
f2
e9
0d
ee
f8
02
f5
06
1a
ff
f1
e0
d3
39
e5
26
dc
03
04
f5
f2
d5
1e
fa
0f
d8
08
ec
d8
00
0b
ce
20
9e
0b
fe
2f
df
15
09
e3
f1
24
f7
05
18
e8
0d
f3
e4
02
19
e0
13
00
d7
da
d9
13
01
01
ee
e6
ca
e1
1c
26
0b
2c
f5
33
13
2b
da
f1
dd
ff
20
cd
fe
f8
0b
fa
1b
07
e8
bb
01
b6
e4
d3
0c
10
eb
21
f7
fb
1a
04
06
fe
f3
f6
ec
08
14
8a
fe
f7
0f
c8
d8
c3
c6
d6
c7
fe
07
de
f3
fb
03
dc
fc
00
02
ea
ff
0c
17
ba
0f
19
eb
2a
13
07
ea
ed
f1
f4
ce
13
d4
fe
0e
e7
0e
e5
1a
dc
05
eb
dc
f9
06
ee
ee
2e
19
0d
0d
e1
28
19
1d
2a
f6
26
c7
e6
bd
f2
fe
17
ff
e8
1b
f9
3b
eb
07
d2
1a
0e
1c
f2
30
1a
23
fd
29
1d
2a
19
00
d7
12
d0
1e
15
c0
f0
e4
f2
12
e5
df
10
1f
09
e6
e2
0f
fb
0a
20
00
18
27
e7
15
07
e8
0f
08
f9
f1
c2
10
29
0a
b0
4b
db
22
db
de
0a
08
e4
13
10
20
10
14
e7
d3
db
f3
da
0f
0a
e5
e8
18
e7
07
02
03
d4
1b
06
07
c5
f6
0b
dd
ec
0d
0a
ec
ec
19
f4
18
fb
00
1c
d8
c3
0d
d8
08
99
fa
ae
46
f2
bc
2f
02
a4
1b
be
fe
28
ff
fd
1e
0c
36
db
07
2d
30
f4
de
e4
f5
05
19
e5
16
f9
ff
d8
ef
3b
05
fc
f2
df
db
0f
fd
fc
f9
01
d4
33
2e
1d
24
d4
01
f2
d0
d7
df
28
08
30
16
e0
08
e6
09
f1
b7
12
e3
1a
00
a6
00
fb
ee
f2
0f
f4
15
27
07
eb
15
ec
08
cb
f8
10
21
f9
14
cd
39
07
1d
f0
29
09
0a
e9
1d
e0
eb
23
ee
ef
1b
bc
cf
08
08
c4
da
ef
d8
da
e6
dd
d7
23
e8
2c
0a
0d
f6
da
00
17
f7
f1
32
da
f6
23
02
e8
e5
0b
0b
0a
f5
21
21
10
c0
11
cb
00
f3
0a
0b
15
da
e5
dd
bc
e7
04
0b
11
02
16
ec
ef
e4
03
1a
13
f9
06
05
28
f9
08
12
fb
19
fd
e9
fa
c3
f4
14
19
f2
ff
02
e8
ff
f7
df
ca
e7
c9
10
f8
26
05
dd
02
23
de
e1
fa
b3
fe
17
0a
fe
ce
e9
fd
01
10
07
f2
f7
f6
fb
0c
1d
fe
0a
13
f2
f8
00
db
f2
08
fc
28
e0
fe
14
05
fa
f8
fd
07
eb
0c
eb
20
3a
10
f6
0e
f8
f6
fd
f9
33
96
28
e6
e6
e2
e6
20
11
dc
10
e8
ec
ee
00
1a
06
fb
fa
0e
bf
f2
ef
1a
c7
0b
2d
13
fe
00
ef
1b
bf
11
be
37
fa
0c
b3
c8
2c
f1
e8
31
ed
c2
fd
b5
cb
fc
1f
9f
ea
38
d7
e7
1c
9b
2e
26
05
0d
00
d3
18
07
27
0d
fc
2d
