2d
16
e8
2d
28
0c
1b
2d
2d
2e
a8
b4
03
aa
14
ea
f8
46
f7
e8
f5
37
f1
d8
dc
38
f8
00
ea
f3
f7
ef
f4
ee
df
00
0e
c2
1a
aa
c9
14
e8
12
19
02
28
3e
f5
20
37
1e
34
25
be
e5
18
11
18
0d
29
16
1e
b9
bb
e3
b8
25
06
2d
0e
e1
