ef
f2
14
eb
1f
f3
2b
12
42
e4
2a
fa
00
fd
11
1b
c6
1c
03
d2
fb
db
0b
3b
36
e2
10
ed
ec
0f
28
ec
f9
64
fd
ff
01
b5
0b
dc
12
34
06
0f
10
2c
28
06
ef
0b
de
2b
33
22
e6
28
04
25
47
f5
db
0c
f0
00
d5
e2
d0
0d
36
0b
d2
5d
f1
ec
0d
06
e1
1c
00
06
0b
08
01
fb
0c
fe
d7
27
20
c2
f3
de
e4
d9
20
ef
33
df
31
ea
0a
ed
e3
f8
00
f0
20
08
c9
d7
25
f5
04
fe
fe
d3
61
43
f5
57
35
00
22
f3
ee
11
01
07
00
e1
f5
eb
0f
1c
f1
33
09
f0
ee
dd
fe
be
1c
25
c8
07
de
d9
ea
14
de
09
eb
16
04
c5
b1
10
0b
fa
30
13
13
04
01
d4
de
e6
dc
c9
14
0d
fa
f4
12
24
fe
1e
18
0c
f3
19
03
c2
c9
12
be
17
c3
1c
16
47
fd
1c
c0
15
20
ae
ec
13
e9
f5
df
db
0a
ea
28
fa
02
06
ce
23
0b
f8
e4
ee
08
2e
0b
24
18
eb
ea
2d
04
e4
fe
14
2b
f2
d2
dd
cd
ea
d0
08
16
f8
f7
c5
23
c3
f7
2b
26
20
29
11
1a
f2
20
fa
a0
1e
1d
1c
14
dd
14
06
0d
0d
08
2d
e8
cf
e2
e1
01
e5
0d
e9
21
21
fd
0a
25
14
ff
09
c8
e4
ee
98
24
f8
0c
ba
e9
e1
1e
1d
0e
d6
f6
20
4f
ed
ea
39
0f
e2
01
07
10
e8
1b
fc
e8
d0
e4
07
f5
07
f2
3f
0f
f2
26
05
07
09
ff
08
10
f1
e9
f4
f6
0a
fb
fc
fa
f1
17
ff
d1
01
16
e8
31
ff
17
19
3e
06
fc
9a
fb
e2
d7
0f
1a
10
c5
f2
14
f2
34
14
17
f8
e8
33
f6
ef
e9
28
f9
20
c4
f4
f4
0e
b4
f9
1a
e8
19
04
ce
e8
06
ce
de
03
0b
e8
23
ef
be
fd
f3
ed
fa
f9
ef
b1
d2
e5
17
34
28
02
1a
00
fe
16
ff
07
21
d4
e6
db
d5
fc
ed
fe
f3
1c
06
00
b9
12
ff
12
d9
05
f1
cc
e8
26
36
39
27
2c
30
02
0a
e6
f9
18
0a
dd
1e
f6
49
ee
ef
2a
36
0b
32
eb
f1
d0
f2
cf
0e
af
dc
01
4c
d3
f2
22
32
17
4c
e3
0c
f0
ff
de
2b
d3
dd
0d
4e
ce
3f
47
0c
52
58
f5
1e
df
e5
09
f0
db
10
fb
30
fd
f9
23
30
26
38
0a
04
f9
01
f1
12
cb
05
f2
41
f5
0d
3a
22
35
58
e1
13
01
04
d0
03
db
df
14
50
c3
22
18
26
22
46
16
04
05
0e
ee
13
cb
0f
f5
50
1c
f8
1b
11
0f
4d
00
f9
fd
2f
bb
21
d6
f0
09
73
fb
05
1b
1a
15
4b
fe
ff
f1
23
bc
14
dd
f2
12
52
ec
e1
f6
ed
0f
ed
1e
fe
f7
3e
ec
0c
0d
07
d3
fb
c0
fd
e4
12
fa
25
db
c0
b9
00
c8
1c
fb
17
01
f5
fa
fa
14
30
f8
08
07
10
1c
02
f4
45
f7
f4
05
1e
0f
c9
ef
16
fc
02
18
1b
eb
d9
ec
07
de
0a
f2
1e
f8
f3
fa
04
00
0f
cc
d4
fd
18
ef
f5
19
de
0f
25
e6
fe
f8
fc
ef
24
d2
e8
44
f5
30
e7
06
c6
1b
02
fd
d4
d6
e6
02
17
11
eb
ff
e3
fd
09
d6
dc
1e
11
17
07
ff
0d
14
e3
08
ec
1d
02
e4
e8
2b
bc
fd
27
48
0b
15
b3
f3
1f
b0
f8
e7
cf
cc
01
f7
e8
2d
23
e4
eb
08
03
ed
09
ee
24
15
0e
d1
58
de
1f
f4
28
17
f5
23
0e
0f
fe
db
e4
10
fa
07
1c
e7
ea
43
27
13
ed
62
f2
27
e3
d0
00
de
fd
ee
ea
2e
0e
58
25
27
07
fd
f3
18
1d
00
0f
ff
11
fb
39
03
e0
1b
f6
11
dd
ea
ea
19
25
00
d5
07
f0
d9
f9
ca
e1
5c
0b
06
27
10
15
17
fc
d9
f2
12
f6
ee
05
fd
ff
14
35
24
14
e9
1f
dd
18
20
f4
25
00
f6
20
16
fc
27
2c
15
f9
e0
ed
f3
2a
1f
f0
0c
11
f6
15
d9
16
44
2e
29
30
1b
f0
1b
02
fe
04
10
10
e6
ea
e1
30
c1
0d
32
f5
12
f1
ed
00
fe
e5
e5
fb
16
0d
ee
20
ee
fd
ec
16
14
0b
04
22
db
d3
e4
0d
22
c6
cd
d2
06
f4
de
13
0d
00
21
fe
d0
fb
d7
1e
e4
00
07
20
15
10
fd
2f
03
e5
53
10
1c
e4
ef
da
34
17
0c
e3
fa
fc
eb
ec
ed
a9
64
17
26
f6
ef
d7
e9
c9
05
df
19
e3
fc
31
1e
e5
51
fb
04
cf
1c
ff
1d
d5
13
21
01
11
00
44
d7
00
09
e2
ea
19
ff
e3
d7
00
1a
12
ea
13
ec
38
ff
13
f7
34
02
0c
e9
0c
2f
dc
11
1e
24
2d
cf
33
20
06
fa
1c
09
18
fb
e8
23
cc
fd
21
cd
e9
1a
f4
11
03
e2
0e
0c
37
f2
f6
08
1a
d8
12
f8
f0
f0
f3
e4
fd
df
01
0d
fb
bc
18
e4
fe
ec
20
07
e0
0d
f7
d1
14
e8
f7
e1
fc
d2
11
fc
f7
0c
ef
e5
14
c3
20
00
e0
e6
0a
16
d6
f7
52
b0
17
f4
d8
1d
13
e4
0c
cf
d7
f4
ff
c4
39
08
ca
e8
01
e6
f5
ff
0e
11
db
d8
30
fa
0d
af
f1
01
fe
d5
ea
f6
d3
ee
15
30
d1
1d
ac
16
20
2c
be
13
e6
1a
ee
e7
11
25
08
0c
e0
17
1f
ff
0a
23
28
28
2a
f1
2e
34
da
01
19
cd
0c
fc
a3
2f
f3
00
09
fa
f4
17
e6
2b
20
f5
00
f2
