07
c6
fe
09
f5
e4
c5
00
03
07
da
00
0a
e2
68
d4
f8
cd
95
d0
fd
19
b8
04
d9
1d
11
d5
10
df
e6
0e
f7
fc
12
0f
e6
e7
f6
df
f1
0d
d0
d8
09
f2
fc
ec
1c
f4
82
ae
d8
04
be
03
01
ee
f5
cc
fa
d8
cb
05
c3
f2
f7
d9
9d
bf
d9
dc
ef
cb
f1
dc
df
e5
b6
d9
02
c1
8e
e9
0d
c2
33
8a
fa
06
e2
e6
d7
d9
fa
a9
d8
00
be
fa
db
fa
d5
ec
a5
f5
c4
d3
c9
fe
e8
07
e5
b8
09
00
d2
d5
d1
00
f1
f4
0f
f1
ce
c2
e2
de
ec
d2
01
e4
c7
db
05
0d
0c
ec
0d
0c
bc
08
db
e1
e4
b4
fb
f1
06
71
ab
fd
22
12
6a
0a
cf
f9
7f
a1
e4
0f
13
22
1b
20
bd
98
d7
ef
1d
ca
db
13
14
10
be
f6
fc
dd
19
fb
09
f5
15
e5
1e
19
be
d3
d2
21
f2
fb
d7
b3
eb
f1
11
00
c3
b8
0a
c1
f3
e6
03
dc
e8
1c
04
10
d0
f4
e4
db
da
ea
11
0b
0e
19
0a
e2
e1
eb
ec
0a
09
0a
a1
f0
0f
c1
bc
11
05
d1
0a
d5
0b
0a
0b
f7
e9
e6
10
f6
08
c2
ec
e6
cf
c9
02
14
eb
7b
53
e9
0d
d6
e1
d6
ad
f6
a2
cd
db
d6
e2
f9
ed
e7
01
e7
d0
e6
d9
10
92
0d
dc
0a
6c
e1
f9
13
fe
12
01
e9
f4
fb
e6
c4
b9
05
15
f4
e9
28
6c
14
0d
df
b1
f8
f9
f6
f1
d1
e3
c5
d3
08
07
df
8c
e6
fb
dd
e3
c9
ba
93
14
17
e0
6d
ba
00
11
d3
de
13
f6
14
47
e2
11
e0
e1
06
fa
fc
08
d9
ef
d5
29
c7
e1
e3
d5
f1
a3
c3
d1
be
ca
d5
18
1c
0f
3a
a8
1a
1b
1a
18
cf
dc
0c
75
f7
c6
da
da
e2
ff
ce
f5
e1
cf
d4
dd
d1
d0
00
02
f9
07
04
fa
bb
c9
e5
0a
dd
09
65
b4
08
dd
d4
e9
14
e9
13
6e
cb
13
14
c0
c5
12
ec
0e
97
ee
e7
e6
f7
ec
10
fd
f2
d9
f7
c4
e6
00
06
c8
b7
f9
8f
ca
c9
e9
ed
0f
ce
ca
f6
ec
b2
26
f6
dc
f1
04
d3
06
0b
ee
ee
c6
0f
cc
eb
b9
0f
0a
c5
12
0d
09
7e
0e
11
df
0c
11
e3
dd
1f
e3
af
dc
fd
6d
71
27
07
c9
ea
0e
03
0f
cc
04
03
ca
b9
c2
f9
20
a7
a5
ca
0a
1f
ee
b5
dc
d6
f5
0e
ba
17
f2
c9
8e
f4
07
d4
a4
b6
d8
32
11
fa
d2
ab
0d
e0
03
01
0b
cb
f6
f7
e4
de
05
10
d1
fc
0c
11
03
db
0c
f5
fe
0a
c7
06
af
ce
c0
bc
e6
6d
f8
03
66
f1
f8
33
23
af
77
09
e8
14
d6
07
d8
f9
1c
20
c5
15
