f9
fb
fa
0e
0a
ee
f1
0d
02
f9
f7
fa
ee
fc
f5
f3
0d
1c
0e
07
f9
02
f7
08
f7
f5
13
f8
fe
ec
ef
15
08
ff
f7
06
05
01
eb
fc
13
07
ec
f1
13
01
0c
0b
f7
03
f0
07
08
08
02
f3
f7
0e
fc
fd
f1
ff
fc
0b
13
0a
fe
fa
06
03
08
0c
11
f7
fe
0d
fe
0f
04
07
fe
01
03
02
0e
04
03
f9
f4
08
fa
09
0b
0b
07
fb
06
fd
07
0e
05
12
09
03
01
18
07
03
f1
01
0e
0e
15
00
0b
04
15
f4
f9
fa
09
fa
00
0d
06
f0
f1
03
f6
fe
ff
e7
0d
fb
f3
fc
f8
f3
e7
f6
fc
f5
fb
fb
04
0d
02
f5
05
00
05
00
ff
f9
08
fd
00
fa
01
02
02
fc
e8
fd
f6
fb
00
fb
ee
fe
01
00
eb
08
03
fa
fe
fc
0b
f5
fd
fd
d7
01
f3
0b
fe
0b
00
00
f6
0b
03
18
09
ee
00
0e
fb
fb
fd
f5
05
05
11
0f
01
0c
ee
f0
0f
03
0c
13
f5
f3
06
08
e1
25
07
13
09
d7
13
04
fd
0c
f9
16
10
04
fa
1e
09
1e
fb
f5
02
11
00
ff
09
ed
10
ff
0c
02
02
f8
da
fe
ff
f4
04
dd
04
fe
07
f6
07
ff
05
fc
01
f6
08
07
fd
fa
01
fc
f4
fd
0a
ed
10
0b
f8
f9
f9
01
01
08
0f
14
02
ea
0c
f2
01
09
ef
0d
10
0a
f1
07
0a
08
df
02
01
09
0f
ff
fe
fd
13
fa
ec
fa
fa
f6
01
0d
08
fe
00
00
fa
03
f9
ff
f8
07
f1
ee
e1
fe
09
ff
02
07
ee
09
ec
05
fb
06
10
03
fd
f9
03
03
fb
00
fa
f7
f9
f5
f7
02
f2
ed
05
09
ec
f0
fb
e7
f4
0c
ff
f1
01
03
f8
f6
08
fa
ff
fb
f9
e8
01
f2
f6
fb
08
f8
fe
02
02
fe
eb
ee
0e
0b
13
13
13
02
eb
13
f4
0b
0b
01
1c
29
14
07
f2
0a
18
0d
09
f1
fb
08
09
11
04
20
0f
01
0b
0a
08
fc
14
08
ff
12
17
f5
fa
04
09
18
1a
e9
07
f8
0f
e8
fc
ff
02
21
0f
10
f8
fc
11
2a
17
0b
10
00
19
13
10
13
1a
1c
00
09
03
05
13
fe
1d
14
14
fa
f3
02
04
05
f9
f8
f6
11
17
14
0c
0d
1d
00
0e
14
0b
f9
16
0c
03
14
10
f6
fd
fc
fc
16
06
05
fe
04
fb
0b
fb
10
0a
1d
06
09
f5
0f
0c
14
f9
f8
ea
f4
08
f3
fe
0a
00
08
ed
08
f9
05
f5
f8
0b
14
04
f9
f1
0b
07
fb
07
fc
03
fe
fa
03
f6
09
04
f7
f2
f4
00
f6
00
03
fe
0e
11
05
f2
01
02
02
f9
09
03
05
01
01
e2
fa
f7
0b
f2
f9
fc
0f
fe
08
12
0d
1a
04
11
11
14
0c
18
25
00
04
06
08
15
fd
1d
0e
10
fc
f7
03
0c
04
ee
f1
f5
1c
0f
0a
0a
05
17
04
0e
0d
0f
fa
19
09
0b
09
0f
f2
f5
fd
f4
12
04
0c
00
06
f7
13
f4
14
07
20
0e
04
f7
10
05
1a
09
fc
02
ff
01
f1
0e
0d
06
fe
f1
e0
e3
f8
01
0d
09
0c
07
ff
f8
fc
07
0d
f9
fd
0a
f5
f2
fc
f8
11
e8
04
fe
f6
07
fe
0b
05
16
f6
f7
00
03
14
ff
08
e2
f9
e4
02
04
f6
04
fd
01
08
fe
f9
f3
ef
f1
06
fd
fc
0a
09
0c
03
00
13
0e
f3
04
10
0f
f9
ff
01
ff
10
17
08
f4
06
00
1c
07
06
0e
01
e5
13
04
30
0b
06
01
05
13
0d
04
14
07
fe
10
fb
01
1c
01
11
03
0a
0c
04
11
0a
06
ea
02
00
f8
fa
14
01
05
fb
d6
03
01
fb
ee
de
e1
f8
f7
f8
fa
ff
ef
01
ef
f2
00
18
10
f4
f9
ff
0d
0e
fd
ff
0a
f2
fd
ef
f8
10
f2
00
f9
ee
09
f9
e7
f6
06
fd
f8
0b
04
16
fc
03
f0
02
0d
05
10
10
fc
e5
f6
ef
05
e1
fa
05
ee
13
ff
01
fb
12
fc
f4
ff
e5
f9
fa
04
f7
00
03
ec
08
ee
f4
f3
e1
fa
ff
fa
ef
fb
f5
07
f2
e6
05
fc
ed
05
0c
10
0c
f2
fe
fe
04
fb
fc
fc
f1
ff
fe
02
f1
0b
04
07
09
ea
e7
08
08
fc
03
ff
ed
f6
f8
19
ee
09
02
fa
f1
08
0b
07
f4
fb
08
03
00
0d
fe
16
09
f8
f3
f6
fb
fe
fe
fb
03
f2
fa
f9
07
03
02
fe
00
f8
10
10
f5
fa
f9
09
11
f3
08
e9
ee
ec
06
f4
fd
e6
0d
0c
ff
07
fc
05
12
fa
15
fe
01
f6
0b
f5
fc
03
f4
e5
f9
07
02
00
03
ff
fc
ee
0d
f2
06
04
01
21
20
11
04
e0
0a
29
1e
0a
e3
09
f9
0b
09
fe
29
05
08
f3
05
ff
01
0b
05
01
04
0c
f9
f0
07
0f
00
12
e6
07
fe
02
df
04
f3
02
27
1b
04
f0
fa
00
29
ff
f9
0d
0a
ee
f8
f4
f4
e2
09
12
fc
fd
f6
fc
0f
fe
f6
ed
08
11
05
fd
00
ec
f0
fe
00
01
07
f8
ee
02
0b
f6
f6
fa
f9
fb
f3
f4
08
f9
fb
ee
f2
ff
f1
0d
ff
07
0f
ee
f2
eb
0f
f5
04
11
1a
fa
ee
08
fb
fb
1e
07
fb
12
04
f6
12
1a
05
ec
13
fe
15
15
e1
11
0c
24
15
05
16
e0
02
ff
f8
0f
ff
03
09
05
0d
18
fb
0d
0d
1e
13
0a
03
04
0a
1e
02
f5
01
0f
13
ef
fe
0a
f0
0e
fd
fe
07
f6
21
ef
16
05
03
fc
0a
f0
03
fc
12
07
fd
f2
f4
f4
12
0a
e8
f3
e3
0c
fd
17
f8
fd
ee
0d
f0
f3
fe
f1
03
09
fa
1a
19
f8
ff
f2
01
ff
fc
fe
ea
01
fa
0c
ee
fe
0a
f7
03
ec
04
ef
f9
04
0f
fe
07
05
01
ef
fb
0b
04
06
fe
12
08
f2
f9
01
fd
fe
f5
04
02
0b
fe
ff
01
f6
0a
f8
05
f5
fc
ef
e2
ff
e7
fb
0b
f4
f8
0d
e9
fe
fc
e8
09
fe
1a
ee
f6
ff
e2
07
fa
01
f7
ff
f4
02
ff
06
f2
e1
f8
f9
08
d4
00
fa
f6
f7
f4
07
04
02
f8
06
ea
01
06
06
f9
07
00
0f
fb
09
0e
fd
09
ff
04
f7
09
06
fc
00
f8
09
0e
f8
05
f6
fa
07
02
f5
ff
01
04
0a
ef
f5
03
f8
ff
0c
0c
03
fb
01
f8
f9
fe
f1
00
e6
07
f3
0b
07
03
01
fc
00
06
0c
06
f8
f9
0b
12
03
07
f7
ff
00
04
f4
06
03
fb
03
f7
0d
f2
0e
00
02
fc
15
03
f2
00
fe
03
f7
14
eb
02
0e
fd
08
e0
01
fb
f0
00
11
fb
0f
12
12
09
13
ff
f2
fc
f7
f5
fd
03
04
e6
ec
f7
d8
ff
fe
11
f6
e9
05
eb
0e
fd
0c
1b
0b
00
11
17
13
11
17
0d
0b
0d
17
0c
17
05
10
21
21
f2
ea
12
09
fe
06
08
01
11
19
14
0e
0c
21
10
03
04
0e
08
0a
12
21
01
14
00
f6
11
f8
12
07
fd
09
09
1b
05
f3
11
04
1c
0b
f1
fe
0c
01
0a
0e
05
0d
fc
10
18
17
11
12
0f
fb
00
0a
01
15
04
13
0f
13
00
f1
09
02
04
f9
fa
f6
11
10
0f
09
0b
17
fe
0d
13
0b
f9
14
08
00
11
10
f6
f6
fd
fc
14
01
03
05
fb
fd
04
fc
10
07
17
fd
05
f6
06
07
12
06
05
01
ed
06
0a
ee
fa
09
fd
ee
ec
14
e8
14
21
e3
f9
16
06
fb
01
0e
02
f1
18
e8
0c
05
23
06
e3
f6
18
02
05
05
fc
0c
0e
f7
ff
1c
12
f5
ea
0a
00
11
df
10
f1
0f
ef
fb
ff
fb
fa
fc
ee
f9
f1
08
ee
f1
f5
fc
12
f5
fb
df
e7
df
0f
fe
f9
00
ea
e7
f4
15
04
07
fa
f6
fe
06
f5
f3
ef
0a
f5
0b
f1
f8
0a
e5
02
e3
f2
09
fc
e8
eb
11
ee
ee
ee
f3
10
fc
f4
07
00
07
18
f1
ff
fb
fa
fa
ff
06
f0
fb
fc
fc
fb
00
02
fd
fb
09
fe
12
0a
11
08
fe
01
ec
10
11
02
1f
fd
0f
f6
0d
15
fe
03
0f
13
fe
0b
f2
15
05
0d
15
02
03
03
fa
0a
14
14
0b
17
0b
f3
14
11
fa
10
f6
03
fc
11
03
0f
02
03
07
13
16
fa
00
fe
0c
12
f2
fa
0e
06
03
f9
f5
04
09
fa
0a
f2
f8
e9
f2
f7
05
00
f4
fc
23
0b
01
00
ef
03
fd
ec
04
07
fe
03
ec
f7
e1
fd
fb
04
f9
f4
fe
e8
02
fa
fe
09
06
f1
02
01
ef
0b
ed
04
ef
fe
fc
fa
11
02
16
ef
ee
e9
ec
fe
00
09
f0
fb
f6
f5
f3
f1
f3
f7
02
e0
f2
09
f6
f9
f8
f3
ff
f2
09
ea
f1
fb
0c
fd
00
f6
ea
04
eb
05
e2
f8
f6
fb
ef
fc
f8
ea
f0
0b
fc
ef
f9
da
0c
fa
f5
f6
00
f7
f9
f8
f8
fa
08
09
07
f5
02
fe
eb
09
f1
f3
f3
f4
ef
ec
ec
f3
ff
f7
fd
f6
f6
04
ee
fe
0f
01
12
ff
ff
f4
04
fd
fd
f2
f2
e2
e9
03
e2
f2
f3
f3
03
08
dc
f5
f7
ed
ed
09
f5
ed
ff
fe
0b
f5
fe
f8
0a
ff
02
ff
fd
fb
fb
ee
04
fb
ee
fa
fe
0d
fe
07
06
f0
ee
e1
f4
0a
0e
0e
0d
fd
03
0a
f1
ec
fe
00
05
09
f0
df
05
14
ed
0d
07
fa
0c
e4
01
f8
0a
02
fb
13
02
03
f3
fa
f4
20
05
fa
06
00
0c
09
f8
00
f9
03
10
04
fa
f7
e7
f6
f6
f5
16
d7
0d
ef
fb
f8
06
f2
12
04
07
f4
05
09
ea
15
10
f2
fd
08
02
09
06
0c
06
12
0d
0f
0a
00
f8
17
1a
0c
0e
11
14
0c
00
1a
f9
04
f8
0b
fd
f5
0a
fa
19
f6
1c
f6
f7
e6
f7
ff
04
04
fc
05
fe
02
09
0a
08
09
f9
02
fe
04
f7
f5
fa
f9
e6
0c
f6
04
fb
02
f8
f6
14
0a
00
f9
f8
08
06
e9
fe
f3
05
eb
fb
f1
ff
16
f7
fd
ed
ff
06
f6
fc
04
00
07
ff
fb
04
0b
fd
fa
05
00
f1
00
ed
01
fd
03
04
0c
0a
0a
fe
06
0d
16
02
e9
0c
08
fd
ff
ee
05
02
0a
fd
f3
01
fd
f9
02
fe
f2
06
fc
f5
f2
f1
f8
ea
f0
ff
fd
0b
f6
10
ee
f2
f3
e9
fa
04
0a
ea
fd
0f
ff
f6
f1
fe
11
e5
e2
e8
05
03
10
03
01
f0
08
05
07
02
fe
f2
0b
f5
06
f2
00
07
fa
f1
f1
00
06
06
00
fd
fa
f4
02
f3
03
f3
ff
00
01
05
eb
f4
09
ec
03
fd
f4
f0
f7
f1
f8
02
ec
e9
02
fa
f3
fc
05
f5
ed
f6
05
eb
f1
fb
fa
f7
f1
07
ea
01
05
fb
03
fc
fd
fb
03
fe
02
f0
fd
fd
03
f6
09
f2
fe
f0
07
eb
f5
fa
08
fc
11
fc
fb
06
08
0a
fe
00
f9
02
f8
09
03
0c
0d
fb
f4
f4
04
fb
00
fe
f0
09
01
ed
02
12
f5
f8
06
09
17
eb
0d
02
e1
0c
0d
06
05
fa
05
f6
05
06
01
f7
03
00
fd
0a
11
05
db
00
01
04
02
f5
eb
e2
00
02
0c
fb
f1
f5
08
13
09
fc
0b
f8
10
00
10
f6
fd
03
ee
f9
fa
f9
08
fa
fb
0a
fb
f4
fc
08
00
01
1c
e1
f0
03
07
ee
f0
0c
df
10
db
d8
00
f8
f9
e2
f6
01
f6
ef
f9
fe
08
f7
fc
03
fc
03
0d
fa
f5
fa
05
03
0f
f6
04
ec
ea
f3
f4
f9
0c
fa
f2
01
03
f4
fd
0d
fd
f8
ea
04
fc
fb
0a
ea
00
e8
14
f3
f7
01
08
1b
e9
f5
f3
05
fd
09
f6
fb
0c
f9
f8
fb
ee
fa
ee
15
f9
ea
ee
08
14
09
eb
fa
17
e3
05
ff
f5
e3
fe
13
f1
00
0b
f0
f9
18
0b
f3
fc
09
0b
ff
ff
ed
01
13
10
f5
07
09
f6
fc
04
24
06
0c
0d
1e
ee
01
19
ef
e1
06
f1
f1
0e
06
f8
14
01
08
04
02
f9
f9
05
fb
f7
e4
fc
01
15
04
f8
07
03
16
1a
16
07
01
f2
03
f0
f8
0a
fc
03
02
ff
ed
fb
13
fe
0a
01
f5
11
1a
fd
01
fd
09
10
0c
02
0d
e6
06
01
09
13
fc
05
fe
f6
11
06
ff
ff
fc
0a
f7
08
f1
fe
00
05
03
fb
f5
09
0d
f3
f0
f1
05
00
05
f8
e9
fb
f6
f0
fe
08
f8
f5
f6
f9
f0
01
f0
ff
03
08
f8
fb
fd
ff
08
fb
f7
f3
f8
02
02
f3
eb
fd
f6
ff
06
fe
f5
f7
03
0a
ed
f7
00
04
ff
10
11
f8
fd
03
d8
f8
fa
ed
fa
03
08
eb
fb
fe
06
ff
0f
06
0a
0a
15
f4
06
06
09
05
04
18
ff
06
fe
0d
fd
04
01
05
fd
02
fd
02
01
05
ff
04
0c
0d
fc
0d
19
02
fb
08
0b
1d
02
0d
02
fc
ed
03
06
19
f6
05
0b
13
f3
0b
00
f5
08
f4
0c
fc
03
0a
0e
06
f8
09
01
fc
f4
e5
fe
02
0c
f5
08
1e
02
fa
04
05
e1
e9
f9
10
20
f1
f3
03
0b
19
fc
00
f8
13
f7
fc
08
08
0e
0e
f9
11
0b
0e
f3
fa
03
13
10
f8
16
07
fb
08
00
ff
0c
01
f8
f3
f6
ee
fb
0b
1c
fc
0f
ec
ef
fd
f6
0b
fc
e3
fa
10
fc
fc
f9
00
f3
04
0e
ea
13
11
07
02
06
ee
0c
06
02
04
08
fb
e6
ea
f7
09
05
00
f3
f9
0e
01
f4
01
01
f9
fe
ff
fb
1b
08
fe
02
fd
f9
fe
00
04
01
f6
03
00
ff
0b
04
06
f4
0d
e5
02
fd
1f
ed
d9
f4
e6
f4
03
06
07
d8
f4
fa
fb
15
0f
ff
f0
ef
04
00
eb
fd
fd
12
f3
f0
fc
03
20
fc
02
f6
f8
0b
f9
f9
0c
03
f7
fe
ea
fa
13
05
fc
00
02
e6
0c
eb
fc
ff
00
01
0e
0a
0e
fa
00
0a
10
f7
fb
f4
f7
f3
ed
f5
f8
ef
0b
ec
f5
02
ff
f2
fc
0b
10
0b
fd
e3
fc
03
00
fe
fd
0a
fc
01
e2
fd
12
e8
f7
f3
ef
1c
f4
e8
fe
17
ef
e8
f7
f4
0e
ff
e5
fa
fd
ee
00
06
fa
f5
01
f5
0c
00
f8
f8
fe
eb
02
0a
f7
f8
f8
12
fd
0f
ff
09
ff
f4
f6
fb
00
02
f4
fb
fd
f2
fd
f5
fd
ef
f2
fe
f5
f8
f6
f1
ff
0c
f5
0c
fb
33
fd
fb
fd
09
12
03
fc
0d
fc
0e
07
06
f8
f7
ed
0d
f8
04
f1
05
fc
0c
fe
00
01
fa
f8
fd
fa
08
fe
0f
1a
07
1b
0a
10
04
0b
18
07
0a
e2
0d
ea
fb
f2
fb
e9
19
f9
0c
e8
ee
f5
fd
00
f2
f8
f4
e0
01
ef
fe
ff
e8
0b
00
e2
f8
11
f9
02
ed
f4
e7
12
04
1b
f1
04
f9
11
fc
fb
0a
f4
fb
04
06
fa
f0
f9
f0
fb
10
00
fc
f1
f9
fd
e8
0a
f2
f0
11
e0
ee
fd
0c
f6
05
f7
04
ff
03
ec
03
ff
f1
e4
16
eb
fe
f1
e1
f2
e8
00
07
fd
de
ed
01
ee
e1
f5
fd
ef
f1
e6
fd
f6
f2
f9
ff
03
09
05
f2
07
f6
09
f8
02
f0
07
e7
04
ff
f4
06
f9
08
11
0b
eb
f9
0e
f8
08
0b
f1
fd
11
0b
0a
f4
05
01
12
0a
02
02
f7
06
fd
08
06
06
0c
fd
f0
fc
15
ff
0d
03
09
11
0d
17
02
0e
15
f5
ed
12
f6
0b
f7
14
f6
00
f2
eb
01
07
f0
01
03
ef
05
09
0e
f4
d5
00
f1
f9
fc
0f
f1
f5
04
00
fa
f1
fa
fc
f6
02
f7
fb
f8
fc
07
09
ed
e6
f7
fe
03
fd
f6
0d
02
fc
09
e7
05
f1
01
e6
f8
03
ff
18
eb
ff
f4
f8
04
f0
0d
fc
ff
f5
f0
04
f4
13
fc
0c
fc
03
0f
f2
13
06
dc
0f
08
00
f3
0a
04
f3
fa
0f
fb
02
fe
01
02
01
f4
fa
12
fd
fc
0b
01
f0
01
05
0c
fe
fb
04
04
ff
e5
06
0b
0b
09
fd
10
fc
10
fc
05
02
00
fa
01
fb
0c
f5
fa
ea
06
08
0d
ec
09
13
fb
f8
f0
08
e7
06
f5
04
08
f6
fd
e3
f4
f7
f5
02
f0
f0
f8
ef
f7
0d
fc
00
08
f8
fd
04
fd
fc
01
01
01
0b
f9
eb
0b
fc
08
04
f3
f9
f6
0a
fc
e7
01
01
08
14
0c
fd
f1
09
f7
eb
07
fb
03
fa
03
0d
fa
fd
12
20
21
fa
f5
06
1f
ec
03
f7
e7
0a
e5
1e
dc
09
12
f9
f9
1c
fe
fc
fd
13
f6
f3
1d
ef
0c
1b
1b
06
f3
fe
0f
e8
fc
10
15
00
fb
06
f7
09
1d
eb
df
fc
f7
f7
03
08
06
0b
06
e6
f0
f9
f9
04
f0
f2
04
0b
fa
f8
ff
0e
02
fd
f7
ff
0c
fd
14
04
ec
0f
f3
0d
fc
0f
ff
0c
e6
0b
fa
f6
ff
fe
fe
00
03
04
ea
f7
f2
04
03
fc
01
02
f4
f5
ea
f4
f5
fd
ee
ee
fa
f9
0a
f7
04
f0
07
f4
0f
eb
fc
f7
fe
13
01
f4
03
06
00
f7
fe
06
fa
10
04
03
0e
1d
f4
12
11
ff
0a
fa
e7
f9
12
fe
09
0f
fd
ea
fb
fd
05
0e
f9
ef
15
12
17
f4
f5
14
ef
00
08
03
18
1e
ff
13
05
03
20
09
18
e0
05
19
f0
13
f5
07
f7
03
f4
ef
16
0c
fa
14
f6
0a
09
0e
0a
fc
0f
05
0d
fe
0a
09
eb
09
f6
01
05
00
f6
fd
fd
ff
08
fe
f9
f7
fa
f9
f5
01
fa
f0
f2
ee
03
f8
0b
f3
fa
f8
04
fa
f6
f1
01
fa
06
f4
fa
09
ec
f8
fe
fa
fa
06
01
ee
02
fd
01
02
01
19
fe
0e
fe
f6
08
10
1c
ee
fb
ee
18
e4
f2
01
ee
05
f4
1d
04
0d
fe
cc
f9
04
00
eb
ef
06
f6
30
02
f7
1c
ed
07
ed
e8
20
e6
0e
de
24
ff
01
e6
f7
10
f6
08
da
0a
00
fa
eb
01
eb
f5
ff
10
02
fa
f4
05
03
0c
07
e9
eb
f5
05
fb
07
0c
ff
ff
e9
08
03
0c
07
e3
05
16
e0
0f
e9
02
01
0a
08
09
ff
02
05
f1
f3
21
0e
e9
f4
05
f8
15
0b
0d
f2
fd
0b
10
10
fc
ea
01
1f
fa
03
d4
00
f8
ea
ef
fd
02
ed
fe
09
ec
f3
f9
f8
14
00
f4
11
dc
02
f0
20
02
00
ed
04
02
fd
0f
0b
13
f5
ef
21
e8
f9
03
09
13
fb
03
15
27
02
06
00
f6
1e
09
02
f8
f6
0d
03
dd
0a
13
04
10
06
eb
fe
08
ec
01
01
00
09
05
09
fe
eb
f4
20
fd
0c
02
0e
fd
f7
f4
13
17
0c
18
25
01
fb
12
19
09
15
06
ff
0e
00
fa
07
0f
fb
01
0e
f7
00
fe
14
0a
0c
08
0e
fa
fe
0a
0e
0c
24
14
01
09
11
fc
06
fe
fb
08
f8
ff
f9
04
06
fe
0c
05
00
01
fa
10
fe
fe
1a
11
fd
00
05
f6
02
03
05
f9
fb
01
f6
fd
f0
08
ef
00
fd
0e
07
09
0d
fa
26
fd
fa
f4
ef
ec
f0
14
fd
07
f8
17
1a
ee
03
f7
02
10
f2
0c
02
f5
f6
fe
14
06
02
e5
06
f9
f1
fd
f4
10
f8
0a
0e
fd
07
00
fc
1b
f4
f3
00
f8
eb
f6
eb
e9
de
01
fe
fd
01
ed
e7
06
01
04
04
fd
fe
f7
03
f5
fb
f2
04
f1
fa
e4
f0
00
e2
f2
e8
ef
05
f1
e4
ef
02
ec
e9
f4
f1
fc
f6
ed
f0
f8
00
01
ff
00
fb
fd
f7
0a
04
fd
f0
fd
eb
01
f4
fd
fb
04
07
03
f4
f5
09
03
ff
f8
04
10
f5
07
fa
f1
fe
ef
08
03
08
ef
09
07
e9
f7
fe
fe
fb
ff
f1
ff
05
f1
ff
13
f7
02
01
f6
f3
05
0f
03
f9
e9
f7
10
e7
0e
0e
fe
17
11
05
00
ef
ec
fd
fb
0f
f5
04
11
0e
06
fb
0e
f9
0c
04
04
06
05
11
16
09
fb
f8
03
fb
f3
0b
0d
10
04
fa
fa
f9
1a
09
e9
10
f2
05
f2
f5
f6
f5
f8
fe
1a
ed
0b
15
00
e9
fa
02
0c
f3
f6
00
0f
1e
1e
05
0e
04
f8
15
20
f5
fa
0b
05
0c
12
0f
ec
f4
01
ef
09
17
10
fd
f2
04
dc
0d
03
0d
06
fb
08
ef
0e
06
14
fd
f9
03
08
10
eb
e0
06
0f
db
f7
f4
f5
f5
15
f6
01
f5
07
02
f9
09
01
04
ec
f8
08
07
00
03
f8
1c
e8
12
fc
19
06
f6
fa
12
ee
01
ff
f5
f4
03
f9
f9
06
f3
fa
f9
00
01
fd
fb
01
00
f5
0f
00
00
f4
11
f1
03
ff
ec
01
03
fe
07
05
f5
fd
00
02
ff
fb
f8
04
05
0a
0b
06
fe
06
f4
f7
f4
0a
f3
0b
02
f6
ea
07
eb
f7
06
fa
f0
fe
02
fc
f4
09
02
f0
f6
04
08
fa
13
0a
f7
0b
fc
f0
fa
0a
07
09
05
ee
11
f9
16
f8
f3
0b
f8
fb
f4
f6
19
ed
ea
f5
ef
00
dc
fb
fe
06
fa
ef
ef
e7
f4
f9
ea
e6
f8
f5
12
03
fb
1a
10
fb
09
02
fa
ee
00
01
06
03
10
e5
ec
f3
fd
f9
14
04
e2
fa
ee
fd
0a
f5
fc
f5
02
0b
0c
f1
01
05
0a
03
f9
03
f9
fc
fe
ed
08
07
f7
fd
f9
02
f9
00
f6
06
f9
0c
0d
fa
fb
06
0c
ee
f7
08
06
07
f7
fd
f4
f7
f6
f7
f7
04
e5
07
0e
fb
08
d6
19
03
fc
f5
00
05
e1
29
0a
07
06
09
fa
0d
05
fe
f4
0a
f4
06
f8
fc
f6
f1
ed
0a
0a
0f
ff
04
03
0a
07
0b
fc
f4
ff
f5
04
ff
f0
fb
f1
ea
09
00
21
fc
0e
03
ff
fb
e2
0b
f8
1e
f5
01
f0
ea
fc
0e
00
f6
01
f7
fc
fe
01
0a
07
03
f2
fe
fe
eb
02
fe
fe
07
02
00
f6
f8
02
01
0b
11
00
ff
e3
f4
fd
10
07
09
f2
07
fe
01
f5
01
fc
fa
ff
fe
04
f2
06
ef
07
02
fa
fd
fc
fa
fe
f5
ff
f7
f8
0c
02
f7
fe
09
19
08
f5
fc
08
fa
10
05
06
f9
f1
06
f3
f9
05
07
fd
0b
08
03
f8
f1
1b
fa
fa
00
08
13
10
fb
ff
fb
10
18
fc
0d
f9
fb
fd
02
f7
05
fe
fd
fc
01
ef
f0
f4
08
f6
02
f9
07
09
eb
fe
fb
fc
05
fd
01
fa
ea
fb
f4
11
ff
fa
f3
ee
00
f8
f8
fb
0d
f8
00
13
f3
ec
de
ef
07
f1
f6
f6
eb
f6
ff
f1
f5
06
fc
e9
03
fd
f9
05
eb
f5
fc
ee
e6
fe
07
ea
ea
f2
0b
f6
05
06
0b
fa
ee
f1
d7
f9
f2
f2
10
fb
03
f4
fd
04
0d
06
01
01
f6
0a
15
05
02
fd
fe
f7
f3
04
06
f8
12
11
07
10
f0
fe
fc
06
18
11
03
03
08
fa
fe
0f
08
f1
06
09
14
1a
07
fa
12
ff
fb
07
07
12
f8
0a
f9
f4
06
fd
0c
f5
0e
00
00
0e
fb
01
07
04
fe
ec
00
0d
06
fa
08
f0
fc
03
04
01
14
06
ec
19
17
f7
fb
0c
09
ed
33
fe
06
f9
fc
0f
02
02
fc
00
06
0d
08
0d
0a
f6
fc
0e
12
07
f7
05
f6
11
08
16
fd
f9
f2
08
02
04
f9
11
04
03
fe
fa
f1
09
10
02
f5
06
0c
0b
f0
fd
f0
0d
17
03
0d
ef
03
ea
08
f7
07
fe
f4
01
02
07
00
ed
f3
09
ef
01
0d
fa
fe
15
08
00
10
00
ff
ec
02
f9
11
f4
ff
06
0e
fe
0c
09
08
07
f1
f8
0e
fe
06
fc
02
f2
06
f4
fd
f3
02
f1
0a
f1
13
04
0d
f6
f7
e8
f0
0c
12
03
ee
f4
01
15
22
ee
f8
0c
14
00
fd
08
fa
fd
f4
f6
ee
f9
01
ec
01
fd
08
e5
f2
f6
18
fe
0d
fc
00
04
00
08
fd
ff
fb
f4
fa
f4
f9
04
fd
0c
e9
08
fe
07
ec
12
fb
f6
fd
ea
0a
fc
fb
08
0e
f5
f2
0a
12
0d
e5
0d
f2
f9
05
f8
07
09
fd
e5
ef
fb
07
e1
0f
f4
fa
fc
08
e2
0e
0f
f9
09
0e
fd
00
0d
ee
fd
0a
0a
ea
04
f7
12
f6
f6
18
16
ec
13
ee
fe
fc
ff
fa
07
07
ff
df
f3
fb
09
27
06
07
14
14
04
f7
0a
0b
fa
04
07
15
15
02
16
f6
f8
0c
1b
fa
04
03
06
06
0d
fd
01
f8
ff
09
ea
ee
05
01
fd
f8
14
fd
00
0e
09
f5
0a
fe
10
fa
02
f6
ff
03
07
01
08
03
06
0d
eb
04
fd
ff
04
f5
e5
17
05
1d
20
01
03
ef
09
04
0f
09
0a
0f
f3
0d
ef
fb
ed
f5
f0
15
fe
e4
e6
11
0f
e9
fd
f5
ef
ff
ee
11
00
10
01
f6
07
05
f5
f4
08
f6
f0
f6
05
ea
00
f4
11
0a
0c
e9
16
06
17
0a
f2
01
f0
07
fd
f9
fc
f5
f3
09
03
f6
04
f9
03
03
ff
f9
f1
0d
0c
fa
f7
fc
05
ff
06
ec
e7
fe
f2
fd
e5
fa
fd
0a
0e
ff
0c
f3
fd
fc
fd
06
0c
ee
ec
00
0a
07
e3
13
01
fa
e3
0c
fc
ef
fb
df
f7
fc
11
fe
08
18
00
e6
f9
f7
14
f6
f2
f1
fe
fb
fa
08
fe
f8
e2
03
04
f2
00
08
fd
f3
f9
05
13
01
07
fc
07
04
08
0b
f8
fa
03
f3
fb
0d
f4
f2
f8
05
0e
fc
ef
07
fc
0c
02
e5
fd
0d
04
01
ef
14
fa
f7
ee
ec
fb
f8
fe
0b
fc
ff
ec
ff
fa
f7
ee
00
04
11
ee
18
f6
ff
f2
f2
02
ee
0a
07
09
03
f1
ff
f9
ee
01
05
ee
fe
f2
fa
fa
f3
0b
0d
f9
11
f3
13
10
0f
07
03
11
0e
0e
08
e9
0a
06
06
17
08
0a
f8
ff
fb
03
04
fb
05
06
01
ea
18
01
0c
db
14
ea
fe
0c
19
03
f5
0e
03
f9
16
fb
0a
f5
07
da
fd
f9
fd
f6
f8
ec
0e
f3
0d
ef
0e
ef
02
f6
03
f9
01
f9
0b
ff
f1
02
24
ff
0b
f4
01
fc
05
13
f9
05
f4
23
fc
0a
07
23
f2
fb
07
fe
fb
0a
f4
fb
fd
00
07
05
f8
eb
f8
fa
09
04
08
e4
04
df
f3
0a
f0
f5
e8
06
0d
04
fc
ff
f0
09
04
0d
06
f2
fd
f5
03
01
ff
00
f7
f9
ff
03
fe
eb
fe
f6
04
0d
01
03
01
fb
fa
02
fa
ee
06
eb
fd
f1
f5
ef
f3
fa
03
fb
f9
fc
14
17
09
fd
fa
15
fc
10
f9
05
10
fc
11
ed
f5
03
fa
04
25
fa
09
01
00
0a
db
04
09
06
05
f4
ee
f5
04
f2
fb
08
15
f1
11
ed
12
10
0f
fe
ec
f6
04
03
f7
f0
f7
09
06
06
f7
e8
f1
ef
ec
df
09
fc
f1
ed
07
e6
f8
0a
f4
ed
f4
0a
00
ff
0b
f3
06
f2
f8
f8
f0
eb
e9
f9
0b
0b
fa
ee
ee
fb
12
03
f9
fd
05
00
f7
16
ec
f9
e6
0a
fc
02
f2
f0
0a
f1
21
17
0a
f9
07
05
01
03
02
07
04
f4
0b
f0
0f
18
fd
f3
02
f5
fe
00
ee
ee
05
fc
00
18
11
f5
f5
ff
e5
0a
0f
f0
05
0c
ff
00
0e
06
ee
10
e9
f9
0c
ff
05
0a
00
09
1d
03
1a
03
0b
13
0d
17
12
0d
15
fa
0c
16
10
ee
00
fa
0a
ef
02
fe
09
e7
10
fc
e8
0e
0c
f5
05
05
f9
05
00
f8
08
0b
01
07
fb
fd
0d
08
fc
f4
fb
00
f9
05
08
fe
f6
12
06
00
0a
fc
00
0a
0e
f1
f7
04
ef
fe
1e
f9
08
01
ff
f2
00
f9
04
09
f6
f5
04
0e
f4
11
07
18
fc
fe
ff
f4
02
fb
02
04
fe
04
18
07
0a
fa
07
ff
12
f7
0f
fa
14
fa
0e
07
12
02
04
0d
ea
fd
f7
06
fb
f6
f9
ef
01
04
f2
22
fb
fd
12
f4
0b
f3
03
06
09
fa
0f
0f
fd
f9
0c
01
08
e7
04
11
fc
f1
ea
f8
0e
00
0e
04
00
f8
f4
00
fc
fd
0c
f7
09
05
02
f3
fd
0c
fe
02
06
02
f6
fa
0a
0f
f9
fc
ed
0d
19
0f
fc
f9
00
16
11
08
03
f8
11
f9
04
0d
fc
00
e5
f4
19
e8
fd
f6
08
05
03
10
09
0e
0e
0b
f8
f8
09
f6
05
02
e5
fe
f7
18
ef
06
ff
fb
f6
05
fa
f8
06
10
f3
f0
f9
fd
0f
00
0a
f4
f4
05
0e
f9
f6
03
f8
06
f4
04
f8
04
08
03
0d
08
d7
fe
05
ff
0b
f5
0e
01
f4
06
00
07
05
05
17
fb
0b
0b
0e
f6
19
f8
e7
13
f7
04
09
fa
fd
f5
04
fd
0c
fd
21
fc
12
f0
dd
06
08
13
ee
ff
1a
fe
f4
ff
0d
fe
0c
10
ff
f3
f8
fc
07
00
f6
00
f6
05
15
02
13
f1
f3
04
11
fe
19
04
08
00
14
07
fc
fd
1c
04
02
dc
03
ef
06
05
f4
fd
03
eb
ee
eb
f6
f9
06
19
07
09
fd
ee
0f
06
f9
fc
0c
05
04
f9
f5
ff
08
fc
22
f5
12
22
df
f5
0c
0f
10
e2
01
05
f3
01
07
0a
0e
0b
08
f3
0d
0c
ff
12
f9
f8
0a
00
f1
fe
f7
f7
f3
ea
f7
e0
05
07
16
f8
2a
01
fc
09
0b
ed
fa
18
fd
f8
f9
f5
fc
f9
08
f7
ff
fd
f5
f3
f2
0a
fb
f6
07
f6
ed
fa
02
02
05
07
f1
f3
00
03
f0
fd
04
eb
01
ec
fc
0e
f0
f4
f3
f4
06
f4
ec
f0
ff
fd
e0
0a
ef
fb
f8
ef
fa
02
fd
f9
0a
f7
e2
0c
f4
10
02
05
f4
01
da
10
07
20
f4
05
06
16
f5
0a
ed
fb
05
f4
11
fd
f4
ff
f9
05
0a
02
11
f4
00
f7
02
15
fb
09
0c
00
01
ed
e1
f4
09
fe
ff
04
ef
02
03
fb
ed
03
df
fb
13
e7
05
03
ef
0b
08
05
f7
f8
0a
ee
06
fe
05
f9
1f
f0
01
e9
0d
0b
10
11
07
14
0b
01
1c
09
05
fa
ff
f9
00
fc
ee
f8
1c
0b
f4
f3
f0
fb
04
05
fc
0e
f5
e7
0b
f8
ea
02
f2
f2
17
f7
f4
ff
12
ec
f5
f8
01
08
f8
0d
07
10
f4
0f
05
06
11
fd
0b
f1
11
fa
fd
04
09
0e
04
f6
ed
ff
ee
15
fa
fa
fe
0b
f9
0e
fc
f3
f0
ff
0a
fb
17
08
0a
fe
e7
f1
fc
09
f5
ea
10
09
f9
17
0a
f2
fa
0b
04
0e
f8
ef
f9
fa
11
12
ff
08
05
00
f0
07
0a
fb
ff
12
fe
fc
0c
0f
02
eb
07
fe
f7
ec
07
f5
00
f6
fb
fe
fb
ed
ea
f0
e6
01
fe
f8
06
0d
ff
16
02
ee
f2
14
f8
ff
0b
f9
fc
fb
0a
14
fd
e4
f1
00
fc
f2
f3
00
fe
e8
ec
fe
11
fd
08
08
f2
f1
08
fc
01
04
0b
f6
0d
f4
dc
0c
0d
f1
fe
0e
f9
20
11
04
05
f9
17
03
ee
0d
f7
06
15
0a
01
08
f1
12
0b
04
f2
0f
01
0d
fe
11
00
f6
0a
f6
02
00
08
13
15
05
f1
1f
01
f0
ed
f8
f9
02
ff
fe
ff
04
02
03
f4
01
1d
08
fc
07
04
08
fb
13
0c
f4
ef
06
f9
07
f2
13
fb
eb
06
09
0f
02
fa
06
fd
07
03
02
01
00
01
f8
15
fb
01
ff
01
06
0d
fc
f8
0a
07
f8
01
05
01
0f
02
11
03
00
f7
0c
0f
fd
0b
11
14
15
e9
07
16
1e
f7
06
f4
f8
f4
ff
0b
09
0b
f8
25
14
07
ff
05
02
fd
0f
fa
03
fc
07
08
08
11
ff
fc
07
0b
e6
f2
e4
0e
f6
0b
eb
e5
f0
fd
0e
07
fb
fb
e9
f7
f4
f3
16
ec
f3
fa
10
f5
f9
fc
f3
f2
f7
db
0e
ec
0e
e4
02
f5
fe
04
0e
fc
0b
08
f3
05
f6
06
00
00
07
0b
ea
fc
fd
09
03
0c
08
f9
ed
ff
fb
01
f3
ef
fb
03
07
f1
f8
eb
0e
02
06
fb
06
fe
d4
f5
fe
09
fe
0a
f2
ff
fe
fe
08
09
f5
f5
fb
07
f8
fe
0d
ef
09
05
f9
fc
f8
05
03
fc
fa
f7
06
00
f7
e8
fc
13
01
0b
f1
f3
fe
f8
04
02
00
f6
f0
fa
ea
f4
fb
09
09
11
07
fa
f6
f2
14
e5
fa
0e
0c
08
02
05
00
12
04
1b
07
0c
f9
08
08
0d
00
0a
f7
0a
01
08
fd
f3
fb
02
f4
fe
fb
db
02
fa
0c
ea
f1
01
f6
f8
16
e9
fe
f3
fe
fd
ee
06
ef
f2
f2
02
f7
00
0f
fd
08
fc
f7
e8
f6
f9
01
01
07
fe
f5
fa
ea
eb
fe
01
04
02
fb
f3
02
f0
e5
00
ff
fa
08
f6
f9
f4
fc
08
fa
02
03
f9
f7
f6
f9
ed
f7
f1
f4
03
ff
fb
fd
f8
02
02
f7
f6
fb
ee
f7
00
0b
0e
0c
05
f7
07
00
f4
e9
07
0d
f8
0a
00
08
f2
18
f9
0e
06
07
fa
0d
03
0f
12
08
0a
00
f5
f2
05
15
f1
03
18
04
04
16
14
fc
03
00
09
fe
01
fe
f8
f9
f8
fe
ff
ff
07
05
10
07
10
14
f9
f3
0d
13
0c
12
12
e4
ec
fd
0d
0a
25
0c
f4
04
08
ff
12
f3
00
01
f7
0d
fb
14
19
24
05
02
10
fc
05
fb
02
14
23
fe
e8
1b
28
0c
0a
ef
ff
05
19
06
01
f1
0f
11
fa
ee
ff
fb
00
0f
ff
fe
fa
fa
06
08
08
fd
f3
08
f5
0a
05
f8
f4
f6
02
f1
f4
01
f1
f9
02
1e
00
fb
f2
11
ef
0a
fc
fb
01
04
08
00
06
ed
f3
fc
ff
f6
fb
05
f4
f4
f5
05
0f
00
0d
00
f6
f5
f6
f8
06
e9
0c
13
fd
f5
e4
1d
03
ee
05
ff
05
ea
00
f9
f9
ff
f2
e5
f6
f4
f4
0a
d3
04
fd
e9
06
0c
f9
e5
02
14
09
e9
f1
ff
0f
09
f3
fc
fe
08
ec
04
0e
f0
f8
06
fb
04
f6
f2
0c
f0
fd
12
fa
ea
ff
f9
03
06
f1
12
0f
fd
f5
f8
07
06
f7
fe
05
fa
0b
1f
02
00
fa
1a
f5
f4
0a
0a
f9
04
f8
fb
1b
0a
0e
fc
12
f5
0a
ed
ff
ed
fa
00
f8
f6
13
de
ff
05
ee
00
32
04
06
fc
01
03
02
07
e8
fb
00
f6
f8
d3
16
fb
e7
fc
fc
e8
f2
f8
eb
09
02
0c
09
05
f2
fc
0d
0d
fc
fa
23
f7
f1
12
f7
fb
05
03
f6
0f
fc
fd
f5
12
fd
f8
fe
1b
03
f7
0a
fb
04
07
00
04
f8
09
fd
0e
0f
05
ee
01
0e
ff
f7
21
14
01
03
05
ee
fd
f1
06
13
05
ef
15
f8
f8
07
f2
0c
eb
fd
0e
05
f4
11
ff
2b
02
08
f3
e8
fc
f6
12
1e
f6
f7
fa
00
e3
f6
f3
fe
ed
ff
f9
fa
f6
f3
0a
ec
fb
fd
f0
09
ef
01
e4
00
fa
02
f4
fc
e8
fe
03
0f
03
04
01
f3
fd
04
19
01
1e
11
2a
fa
11
fb
f8
05
ef
fb
ff
0c
fd
fc
04
09
14
07
f8
f5
07
fd
04
21
16
fd
fc
fd
fb
09
e9
ef
f6
09
e8
f7
f2
02
02
fd
f6
16
09
f5
f3
e6
03
0d
fb
ef
0e
04
fe
fb
fb
ed
f4
f3
19
f2
05
f2
fc
09
11
e6
0b
14
ff
ff
f0
03
f1
0e
f3
ff
e4
f5
01
f4
08
05
fc
fc
ec
fc
eb
fb
03
06
02
f0
12
02
04
f5
05
01
06
01
0a
06
02
fb
f6
ef
06
06
ed
03
eb
09
ff
ec
fa
f7
ee
fa
f4
12
09
fa
ec
18
ff
00
f0
0b
f6
f8
0c
ea
ee
02
f0
09
fe
0c
ee
07
f7
e8
f7
fb
fe
ff
f2
f8
06
03
01
0e
0e
d3
0b
05
f9
14
06
0b
f1
0d
fb
17
ee
08
fb
02
00
fe
f6
f5
0c
fa
04
fe
00
fe
05
ff
1d
fd
0c
07
0c
04
0a
06
11
ff
00
0f
00
f5
f6
fc
f7
00
00
03
fc
0a
06
fd
02
03
01
ff
0a
0c
f9
e6
f6
01
fe
04
fd
00
fb
0a
0d
e4
ef
0c
e5
fd
09
f3
f1
01
01
fa
18
f0
13
ec
01
f0
00
ff
05
f7
08
08
18
ff
1b
22
04
0d
f2
f3
f8
f7
13
05
f2
e3
fb
16
fa
00
fa
ef
fc
e2
f1
14
fe
01
03
e9
ea
fa
f9
02
03
03
dd
0b
f5
f4
00
fe
ee
f1
fc
0e
0e
f4
f6
f0
00
0e
08
fc
fc
fb
e8
00
02
07
fa
f3
fa
0b
07
fd
fa
07
ff
f7
0d
15
f9
07
0e
00
f9
fd
f9
06
f4
09
e9
f5
eb
ee
08
fa
ef
ea
02
0a
fc
02
0c
f4
04
0a
02
f9
eb
08
fa
01
fe
fc
fe
fd
05
fc
07
e7
f3
09
0c
fd
13
13
04
e6
e7
01
fc
0c
fe
0e
fd
f8
12
01
fc
04
fd
08
05
14
00
0b
0f
f1
01
06
11
03
ff
fe
ec
02
e4
17
ed
fd
ef
ed
e7
f5
f8
12
f4
0d
fa
ff
fe
12
00
f7
ee
e7
0d
fd
e1
0d
fe
ed
02
fb
03
02
0e
1f
0c
f2
e7
e7
f6
09
05
04
fa
f1
00
f1
ff
f9
f2
02
f4
fb
04
fd
1a
01
08
01
fb
13
11
ff
0c
fc
08
fe
01
fd
fd
0b
fe
0d
f7
00
21
fa
f3
fb
00
09
07
05
05
01
00
03
fe
0b
02
ff
f0
04
06
16
f9
fa
11
06
fc
09
0a
f6
02
0b
0b
16
0f
05
03
fa
14
0c
11
f8
1a
01
11
14
13
f9
00
fd
fe
07
f8
ff
0e
1b
02
09
f8
05
06
09
03
13
f6
06
0e
13
12
07
06
04
0b
f8
02
22
0b
10
05
00
fc
f5
ec
f4
f7
12
f1
eb
03
03
1a
f3
fc
0a
eb
04
f6
0a
12
06
09
ea
19
09
f4
fe
f9
0d
14
21
14
e8
fc
dc
21
e7
21
f5
1f
01
f1
18
f5
fd
ff
06
fd
0c
f3
fe
f2
f0
f9
f9
fd
03
13
00
04
05
13
0a
1c
08
0a
01
12
fa
07
f8
fd
06
01
fd
fa
fd
02
0d
11
f0
14
01
03
ea
f4
02
07
08
14
0a
25
14
f9
f6
0f
01
0c
fa
0b
07
fc
09
fc
ee
f2
f8
f9
f8
e7
fa
03
fb
06
05
02
08
f9
fd
fd
11
05
fb
fa
05
0a
f9
0f
fd
f7
fa
0a
f9
0b
ed
fc
fc
0c
11
09
03
05
f9
e5
fc
09
02
eb
f3
ff
ff
05
ff
fb
02
f8
ea
01
08
fc
fb
0d
f4
f0
14
ff
f5
f3
08
fe
f9
fe
ec
ff
0a
ec
e6
fd
07
f4
03
ee
08
0d
0a
0e
0f
0b
fd
f4
02
05
16
ef
0e
f8
09
01
05
1c
fc
fb
f7
00
f3
10
0e
0b
01
01
06
09
06
ff
0d
ee
16
0a
ff
fd
13
06
10
f3
f8
15
f5
07
fd
ec
f8
fc
08
fd
09
0d
ec
f5
fd
01
f1
02
09
0e
fd
ff
0d
08
ee
0a
0c
ff
f0
f9
f8
ff
07
0b
fc
ea
03
04
05
f8
fb
03
fe
0d
ff
16
01
f3
f9
fc
05
05
20
f5
fa
18
0a
f8
fc
08
0c
07
00
ef
13
f1
11
08
f4
fe
0a
03
07
f0
f6
fc
04
ff
09
f3
f8
ed
10
05
fa
fe
15
14
00
20
00
fd
01
fa
0f
0f
06
fc
01
16
02
02
07
0d
f1
1d
04
15
00
fa
23
df
ef
01
f2
fb
07
0a
15
f9
fa
0b
14
1a
03
19
fc
0c
00
ff
e9
ff
fc
04
14
ef
06
f4
0b
00
0a
fd
00
01
f3
02
fe
02
fb
f7
ee
0a
f6
01
f5
00
01
fd
0e
0b
f6
0b
09
fa
04
01
ed
ee
05
12
f0
02
09
e8
0e
f2
f3
0f
ef
f9
e8
f7
0a
df
f4
f8
10
ed
e9
03
f2
f1
05
ea
06
f1
f6
f8
14
f5
ea
00
f9
fb
0a
04
fc
01
e9
0a
fe
06
09
0c
11
24
fd
11
0b
09
0b
0a
10
fd
f5
16
f7
ec
fd
f9
02
fa
09
07
1f
09
01
05
06
fd
f1
f3
fb
0f
12
f9
0b
03
12
fe
05
26
17
fb
03
00
f7
08
0e
1c
fe
04
f4
f8
f7
03
08
f0
03
fe
0f
f4
13
ea
de
df
f9
fc
f5
ff
f9
12
21
fb
00
ea
fa
ff
e7
05
fe
02
fb
f0
ec
0e
06
04
e2
fb
0b
df
06
f6
00
fe
01
fc
f3
0e
02
ef
e6
f4
ff
fd
11
ec
ec
06
1d
02
11
eb
0b
09
f4
f9
f6
09
08
03
01
f4
f5
06
00
0f
03
fe
01
fc
14
c0
ec
04
fc
ef
f5
1c
da
fa
00
f1
f8
18
04
16
12
15
10
06
ea
0d
0e
fe
d1
07
ef
1d
07
f7
17
0c
fd
23
fe
08
f1
e2
07
02
0c
05
04
eb
20
06
0f
04
10
f9
04
fb
0c
00
03
18
0d
01
0a
0c
05
f5
fc
fc
fe
fa
09
02
09
04
fb
13
eb
03
fe
f1
0a
18
06
04
0d
fd
f7
09
e7
f3
07
00
e0
06
03
18
fd
ed
fd
01
0b
09
03
fc
11
03
11
02
12
07
04
ec
f1
01
03
ee
f1
04
02
00
05
0a
04
18
21
ff
ff
06
f4
0a
f0
eb
fb
17
f3
06
05
f8
f9
f6
09
0e
f4
fd
fe
fc
f1
fd
04
0e
eb
18
f9
20
e5
03
fe
e4
0c
01
04
15
f9
fc
ee
f9
ef
07
e9
f7
f2
16
10
f3
11
19
ff
f7
0d
e9
12
fc
0c
f9
15
f8
e6
02
09
f4
08
f4
19
07
0f
18
11
1a
f1
1f
08
18
fe
0d
f9
12
0e
02
11
01
0f
14
0c
01
0b
02
f5
f9
fd
12
08
12
fa
16
0f
11
08
0d
f9
fb
10
1d
01
05
10
03
01
04
07
1e
fc
06
06
08
15
08
fa
12
03
16
f7
1d
02
11
ff
10
08
07
ff
0d
15
e4
0a
ff
03
04
19
15
04
02
fe
06
f5
06
02
16
11
04
f1
fb
0d
ee
1a
ff
e2
fe
f6
fd
fd
f8
1d
00
f9
f2
04
fc
02
0f
0f
ec
0c
24
1a
03
fa
00
0f
07
ff
00
fd
00
0c
f7
fa
05
f9
f8
f1
f3
0c
00
fb
f3
00
08
0c
00
15
fc
09
e7
12
ec
ff
0e
f4
e3
09
fe
f8
09
f9
f0
f3
03
ed
02
10
fd
fb
f7
12
07
14
f0
1a
f7
04
0a
0c
07
ef
06
05
e3
f2
f5
f6
02
d6
f6
04
f8
11
fb
fc
fd
fe
ee
03
f7
ed
eb
09
e8
f7
07
f8
06
0a
1d
11
12
ea
0c
ef
09
ff
e3
09
08
04
10
eb
0c
fd
1e
f7
f6
1d
07
f5
03
06
1d
01
f9
ff
ff
08
09
11
ff
21
fe
ff
ea
12
21
06
0e
03
f6
ff
02
08
00
00
fc
fd
12
0b
0e
fe
ff
f8
0d
fe
f5
0d
fe
f7
03
ff
00
ed
f7
fe
f0
0a
09
fa
fd
f4
e8
f3
04
fd
f1
ff
fc
f3
01
f9
02
06
05
f5
fa
ef
07
f0
fc
f3
e6
f2
08
f0
ef
e8
02
04
fd
ee
ee
ea
0d
f5
fa
05
f7
04
07
f6
ee
fe
03
f9
f8
fa
fc
ff
02
00
ec
f5
ff
03
07
06
f2
e5
01
f4
17
08
e1
0b
03
07
0e
e3
05
f1
10
12
0b
0c
f9
f5
ee
fd
0d
0d
fa
f4
06
09
01
f4
04
00
ff
f3
13
09
0a
15
04
ff
04
08
f6
0d
07
fc
fd
fd
0f
f1
06
08
fe
ff
f5
10
d4
f4
01
13
0c
07
f2
1b
1d
fa
f9
02
ea
11
f8
0f
06
fd
fa
e6
f9
0b
f5
e7
c1
0e
05
25
fc
00
fe
f5
ea
04
f1
07
e5
02
f9
21
07
fc
d9
de
13
f2
12
f2
ff
ff
0d
df
f6
df
09
fa
12
13
08
cb
12
e8
fc
07
fa
fb
02
03
f6
1b
04
01
12
04
18
f2
1d
14
fa
08
1d
14
03
04
fd
fb
04
fc
09
04
fc
f4
0b
02
1c
05
04
11
0a
14
02
0d
11
03
f8
07
00
08
1c
09
f3
00
fe
fb
ff
04
03
07
0b
04
11
fd
13
16
04
f7
19
f3
13
fe
0a
fb
f5
ed
eb
f9
f5
fe
06
0a
f7
f0
16
f7
f3
fe
fe
f9
f5
fe
e8
01
09
01
f2
fa
e8
ee
f1
f4
f6
ef
f2
f3
fc
ee
f3
fc
f8
f2
12
f9
f7
fa
f4
fd
ff
06
04
fe
01
f9
f3
eb
f5
03
f0
04
ff
05
f2
1d
fc
f9
ee
10
27
17
07
0d
0e
ec
ff
0e
05
06
04
12
16
21
f8
fd
1a
15
e4
fe
fb
ee
0a
21
f6
f0
08
f4
f8
01
fd
14
ff
01
fc
14
07
f7
02
f9
f5
f1
0a
02
f6
f5
08
15
f2
f8
0d
01
0e
06
ef
e7
08
f2
0c
e9
e7
fa
0e
05
04
fb
ff
fe
0b
06
fe
15
01
f4
0c
08
00
00
04
ee
f2
05
10
02
ff
11
f6
f9
f1
04
fe
f2
f0
fa
ee
f9
fc
f2
01
0e
f6
e9
fa
0a
0e
06
fe
f9
04
f0
0b
fe
00
0b
06
04
0c
00
fe
f2
07
07
05
09
01
06
00
01
01
06
02
f9
ff
02
04
05
fc
f8
fc
fb
07
00
04
06
f6
fb
ff
fe
ff
fe
04
0f
ec
fb
01
f3
01
fa
f1
00
f7
f7
ed
fe
fe
f6
ff
02
fe
ed
f7
00
00
fe
fe
05
f5
fe
00
fd
09
f9
fb
fb
fd
fb
07
fe
0b
03
08
24
01
08
f3
fd
0d
07
09
0a
fc
00
08
00
f3
fb
06
fc
f7
ff
e5
fe
fc
fd
13
10
f9
ed
ee
f8
e9
14
06
00
07
fe
fe
fd
04
13
09
01
f8
ee
06
03
10
fa
f6
01
00
0d
f1
fe
fd
02
0e
fb
08
0c
fb
f6
03
f7
05
00
fc
fa
06
f7
01
f2
e6
eb
0b
00
11
05
fb
ff
02
f9
f1
0d
0a
06
fc
fb
ff
ff
17
07
fd
fa
0b
ff
07
f6
00
fe
07
f3
f7
f6
fb
fc
fb
0b
08
04
f9
05
08
fa
f0
01
f6
f6
01
f6
ec
06
f3
15
f4
f6
fe
f7
f8
0a
f0
f2
fd
0c
0c
fa
fb
ef
fe
06
f7
14
09
10
fd
01
03
0b
f3
04
de
fb
00
04
fd
0e
0f
04
ff
0f
eb
ff
f7
ed
ee
02
fb
09
ef
f0
fa
fd
14
05
01
19
03
f0
fb
00
0f
f6
0e
0f
e9
08
05
e6
07
18
ed
03
f4
17
23
17
0e
0b
0e
dd
fe
06
0f
05
fb
13
18
09
05
ee
fa
0f
05
f0
e9
03
f3
27
f2
f9
1f
03
ed
03
0c
15
ed
08
ed
19
06
1d
fa
ea
10
f6
16
03
f1
0a
0a
11
fa
ea
0e
06
0a
16
0f
dc
ff
f5
17
f6
f8
01
ea
fa
f2
ff
f2
08
0a
fe
08
fb
f4
fe
05
0a
f0
ff
0d
15
fe
ec
fe
f7
f9
fb
08
03
f8
fb
f9
10
0c
ef
02
05
ec
09
04
fe
f8
ef
fa
f1
02
0c
0e
06
02
f0
fb
11
f6
11
09
fa
09
f9
fd
f9
e9
f6
04
01
07
ff
0a
ff
05
f2
f8
fd
02
14
ff
06
00
09
0b
f9
f3
f3
fb
0f
f0
f8
04
dd
07
01
0e
0b
06
f6
f1
0b
09
f8
fa
f4
0d
fd
08
f2
f2
f4
0c
06
fa
00
e3
f3
02
04
fb
f3
fe
05
03
06
fa
f7
08
fe
f6
1e
f1
fb
09
03
f7
f9
0b
00
04
f1
f8
ed
ef
fb
fa
fb
f6
11
fa
f6
06
f5
f7
ec
04
fb
00
02
fe
05
f4
fe
01
0a
f6
e6
00
13
f5
fb
03
fe
f4
e9
0b
01
fb
fb
fd
f3
09
e9
f2
15
06
06
fd
f6
07
f9
0a
ff
05
ef
06
11
01
fe
14
03
17
10
0c
0e
07
fc
02
1f
fa
0f
12
0e
fa
06
fd
05
01
0c
fe
07
fb
f8
13
2b
16
ff
f4
08
06
0d
fe
07
f1
11
13
02
11
02
0e
f7
f4
00
0d
0d
00
f5
09
ee
02
fd
0c
02
16
0a
12
f2
11
20
08
13
12
09
00
08
15
06
16
09
ff
fd
05
09
06
10
00
ee
ef
00
04
18
07
f0
16
01
17
f5
0c
fb
04
08
ea
1e
0f
0c
0f
0c
0a
0d
02
f6
13
18
11
0a
ee
07
13
08
08
11
f6
10
0a
09
06
09
fd
f5
14
09
f9
f7
f1
06
05
fc
07
03
f2
ed
f7
f0
f7
0b
0b
f9
fa
ed
07
e6
08
06
0c
f0
ff
04
fc
f3
fb
0a
fb
fb
e2
00
05
eb
f6
f0
ec
f4
fd
f2
ef
fc
ec
0d
fb
f8
08
02
f6
09
14
f3
f8
08
09
fe
fa
01
00
12
eb
0a
fd
e7
0b
02
13
f2
e6
02
19
06
fd
fc
06
f3
03
0d
ff
02
0d
08
eb
19
11
ee
f7
f4
04
f5
fd
fc
0c
13
e5
f5
f6
08
fc
f3
f5
16
da
fc
05
10
ed
eb
0a
f4
f0
dc
fd
ef
f4
eb
db
17
ed
09
f3
fd
09
f8
16
de
f7
fa
f9
f9
04
04
fb
0c
f2
12
10
14
eb
ea
f8
f1
f0
09
00
f7
09
10
09
f2
0e
f7
ff
08
f0
10
07
ed
15
f6
0d
0a
01
0d
fe
fb
0a
18
03
f5
0f
2f
f7
fd
fc
fb
0a
0d
fb
10
f1
f9
02
0d
06
fa
09
f8
f1
fd
00
f7
17
05
17
12
f3
00
2e
f9
17
fd
ff
fb
0b
27
f3
1f
25
01
ef
07
07
f7
f4
07
07
09
12
f1
0f
0b
0a
f6
f4
fa
e3
07
f2
05
03
02
10
0e
0e
05
0f
fc
e5
02
f5
05
05
f1
ea
21
ee
04
0d
e2
fb
f8
f7
fc
fa
f9
fc
fa
fd
04
fc
f5
f3
f4
f9
07
00
08
0c
00
18
f8
0b
ee
f9
00
e9
e8
02
04
fe
f4
07
19
07
e5
e0
00
0d
e6
13
0e
f4
1e
03
f7
f3
11
fe
e7
fb
0b
03
03
f0
fb
03
08
03
f6
ef
01
03
f7
f7
00
e8
f6
fc
05
ee
02
f0
f3
f7
00
15
16
10
f3
11
f2
eb
22
fe
f4
0a
15
02
0a
ed
e3
0e
fb
09
e4
f1
ee
f9
2c
e3
ec
f5
f0
00
ec
fb
0c
f5
ea
f6
10
f0
c4
fd
fb
fb
ed
f3
ee
ea
db
03
00
fa
f3
ed
07
0c
eb
fc
e4
03
f2
0a
03
f4
f7
f2
0b
eb
00
0d
20
fb
04
03
eb
01
09
da
f9
1d
11
04
01
08
f9
f2
03
ef
fc
f4
ea
f5
0a
09
0c
11
07
f0
fb
05
08
f7
f9
f9
17
ef
f3
f3
08
fd
08
0f
09
0a
ef
0b
09
00
0a
05
fd
ff
02
0b
fc
0f
eb
fb
01
fb
f7
f2
04
f2
f0
05
07
fa
08
fb
ef
05
f7
fd
fd
05
01
f3
05
04
f6
fc
fe
05
f5
f3
db
f9
fa
f1
fb
fd
00
f4
fd
e8
01
04
f5
0a
f9
fb
ff
f3
fd
fb
0a
00
fa
fc
03
08
f0
04
02
07
05
08
ef
00
08
02
fa
0b
09
00
07
01
f7
00
12
0a
15
fb
04
fe
f2
f0
f5
f1
0a
13
fe
f5
02
05
14
fc
fd
04
ff
08
11
06
eb
09
ee
00
02
13
ff
e7
00
05
00
0e
ff
fe
00
f6
01
f3
f7
02
06
f5
0e
fc
02
13
0b
fb
10
fc
0f
09
0f
0e
0d
0c
09
0b
18
29
00
fb
fc
01
1c
fb
31
22
19
ef
ef
03
14
fd
ec
e9
01
0b
14
15
0a
16
10
f8
04
0f
12
ef
0a
06
0a
0c
13
e7
f3
09
fd
0f
07
04
ff
12
fa
05
ec
14
0d
25
1b
0c
ec
14
12
26
ff
16
02
f1
04
05
0c
10
17
03
0d
01
1d
1b
fe
28
ed
04
f8
0e
1b
ff
f2
13
f9
02
f8
15
f9
0f
e8
0a
1d
08
03
01
04
ff
24
11
ef
10
07
15
05
f9
15
01
f5
11
1c
f4
0b
03
05
0a
fa
f3
0e
1c
08
01
04
f5
14
03
12
00
13
0e
1a
0f
14
16
02
0e
fe
fc
19
fd
14
09
0f
04
f4
04
fb
07
fb
f3
f7
13
11
04
06
04
17
05
09
0f
06
fd
13
0c
08
0a
0f
fa
fe
f7
05
0d
fe
09
05
fc
09
02
ee
0c
07
12
06
0b
ef
08
07
10
11
04
f2
f6
0a
07
0e
0c
17
0e
f3
02
fc
03
00
fe
11
0a
02
ed
f7
04
ff
fd
f3
ed
02
f7
18
f1
fb
08
07
ef
0f
ef
0c
f2
03
fe
17
13
fa
f0
dd
10
da
0c
00
fa
fe
fc
fa
03
fc
08
06
07
f6
f0
f7
f9
f7
0f
04
f2
03
07
17
06
32
18
0f
fe
f8
11
01
09
08
0e
05
14
00
01
f6
07
15
0d
03
ef
01
09
05
0d
06
02
03
07
09
0b
f6
f6
0c
11
fd
fd
0f
ee
de
fc
f9
15
15
ff
fd
0a
f9
ff
f4
14
02
10
12
12
ed
01
fb
11
11
ff
19
0f
0c
1b
11
0f
0c
17
f5
0b
ff
01
10
fe
14
11
0d
04
f3
06
03
0c
ff
e3
02
05
0b
15
09
02
14
f9
0c
0e
08
e9
1a
08
fd
13
0b
f1
f6
00
f8
11
0b
ff
08
00
01
08
ec
14
05
18
06
00
e9
0b
08
18
fe
fd
00
f4
f6
fe
05
fc
f4
f6
fa
f7
fd
0b
ed
fd
03
0b
07
f7
f8
ec
fe
01
00
f9
ff
02
01
04
f6
0a
03
f9
f7
ed
03
f3
fc
fb
fb
fa
01
ff
02
12
fd
02
fa
0c
f4
03
f0
f3
01
fa
e3
f8
04
fc
02
f9
f6
12
fb
f6
ff
e5
f7
05
0e
02
06
0c
fe
09
fe
0a
fc
01
02
f8
15
fd
dc
f4
ec
07
0d
fc
f2
fa
00
ec
f6
fa
0f
f1
fb
fd
13
cf
fa
f7
05
ea
f2
09
f1
fd
f2
0c
f0
f5
04
f9
01
06
08
06
fb
ff
10
fc
f0
f4
f3
fa
f6
fa
02
08
f4
e0
ec
ee
f1
01
03
fe
f0
f8
ee
fb
fe
06
01
f9
f6
f5
02
fd
ff
f4
0c
fd
f4
f8
f0
0e
e8
f8
f8
eb
07
fc
ef
fa
04
ed
f3
f7
f8
01
fc
ed
01
fc
fb
07
f8
ff
fc
f4
f7
fd
08
f2
fa
fc
fc
04
0b
fe
00
15
02
f2
07
07
fb
06
ee
07
06
07
08
ec
07
0c
fe
fd
ee
15
18
f8
05
f1
16
fe
e8
fd
02
16
1d
fd
0e
0b
fd
fc
08
0c
0d
09
13
fb
ef
0d
fa
f5
15
00
f1
1f
ff
03
ef
05
0d
fd
1c
e2
fd
0b
f3
17
fb
07
0d
01
f7
00
fe
e8
eb
08
f7
f8
14
f4
f5
0c
fe
f7
02
06
f3
ef
ed
fe
f4
05
fb
04
0e
e0
ed
00
fd
e8
f9
07
05
ee
f2
f0
fb
f6
f0
14
fd
ec
f9
e2
03
04
fe
f2
04
fc
02
05
e9
01
00
05
f4
f6
00
fc
e9
0e
f8
e9
f6
e9
fb
ef
f6
f3
0d
01
04
fd
00
12
ec
05
01
0f
08
f5
03
00
0e
05
f5
fa
ea
04
ee
11
03
f3
05
ff
01
07
01
ff
f2
e5
01
12
0f
fd
17
13
fd
02
fa
0a
09
15
07
f9
f5
f4
07
f7
09
f2
11
00
e9
0d
fa
fb
f2
00
fd
fe
fa
f1
0d
06
fa
fe
f7
0e
e5
f5
fa
15
32
fd
f8
09
1e
1a
f1
0e
fc
00
ed
d7
fa
1b
f9
fa
f3
19
fe
08
fd
fd
ec
17
14
f8
00
06
f4
f9
0c
fe
f6
fb
09
04
00
e8
f4
01
1b
f1
fa
e8
06
06
0e
02
06
03
00
f0
f0
ff
09
e6
07
01
f5
0e
05
f6
fa
f9
f9
f3
08
f5
0d
07
f2
fd
0c
09
f3
fc
13
0b
fc
fd
fe
ee
f8
f3
fa
08
06
0b
f6
fd
00
ef
14
f7
fb
0d
04
04
01
05
03
04
ff
05
ed
ff
0d
fc
04
0b
fb
0b
f0
f9
f8
0a
f5
09
0e
15
f3
ff
f9
ff
fd
fc
03
ed
19
07
f3
03
02
0b
0e
f4
f8
fd
0f
08
f4
0e
fb
f2
02
09
fc
0b
fa
ed
05
08
1c
13
ff
0b
f3
fc
fb
fb
09
00
0f
f3
0f
fe
03
0f
16
fc
06
11
f7
fc
01
f4
f9
f8
0a
f7
03
f1
02
f6
f9
0e
f5
f9
ef
f1
01
0e
05
f1
f8
09
fd
05
fe
00
ea
05
02
fe
07
fe
f8
f4
fa
f2
01
fc
fb
f6
02
00
07
02
ff
ff
ed
fb
07
fe
00
05
04
f7
f0
f2
06
fe
fc
e4
00
01
f7
06
08
02
fe
08
ff
08
e8
09
0d
14
f3
06
fe
f6
10
15
fe
f8
eb
01
09
f3
0c
f0
fd
ff
08
08
fc
19
e8
ea
08
f8
08
03
e9
0c
0d
fa
01
01
fc
11
f3
02
0a
00
07
15
e8
02
06
fe
f7
00
00
ea
eb
03
0c
01
fa
07
0b
08
f5
fc
f4
f0
e8
15
f8
ff
00
fa
f5
0a
02
fb
0b
03
02
f6
00
f5
08
0d
fe
fd
08
f4
f4
fd
fa
f6
00
fc
f9
f7
eb
ea
01
00
e9
0a
07
fa
ed
01
08
00
00
09
0d
0b
01
05
fd
06
f8
f3
09
08
fc
01
00
10
04
1a
fd
07
05
05
fe
fd
00
f6
04
10
16
06
1b
0c
1b
fc
ff
01
0e
f4
df
17
f3
11
0e
ff
0c
ff
ff
15
f3
fb
08
f3
0a
05
06
02
0c
f5
ff
05
02
f4
10
0a
ed
12
09
08
f6
08
0d
10
19
f7
f1
f5
15
12
f9
0b
ff
10
09
02
00
04
0b
09
18
f2
00
ef
fe
11
0d
02
05
e9
fc
eb
fd
f6
dd
fa
f3
04
fa
0b
f5
fa
fb
f8
fb
fd
ff
e1
09
04
fb
02
01
fb
00
fe
e6
f2
0e
fe
0b
02
ff
f9
f8
fa
f8
05
0e
f4
fc
03
fb
f9
0a
07
15
0b
06
14
0e
08
13
06
fb
0a
ff
06
0e
04
15
0d
09
ff
fd
02
06
fc
f5
f7
00
0b
12
14
07
fe
0a
02
05
09
03
04
0a
0d
fb
0d
08
f0
f5
02
13
05
20
f7
fc
0e
fa
ff
f3
0f
02
0d
12
01
fb
04
08
04
10
08
0e
04
13
12
16
10
14
14
02
0a
07
02
18
01
0d
10
0e
03
fc
08
04
05
fb
fc
f4
11
09
12
0f
02
19
ff
0e
0b
06
fc
16
04
03
11
10
f7
f8
00
01
0f
06
02
ff
03
fe
03
fc
10
05
17
00
07
f7
06
08
12
11
03
fe
f7
10
14
14
0a
17
01
01
0c
00
12
14
02
02
04
06
0b
fb
06
03
0c
06
ff
fc
11
02
16
0d
05
21
0f
13
12
ff
03
12
13
fc
17
19
fc
09
fa
0c
15
0e
fe
04
f4
03
fd
01
06
04
06
05
0f
03
ff
12
08
f8
1a
03
0b
f3
ed
df
fd
f8
fc
03
f6
18
f0
f5
12
f3
f9
f8
09
08
01
fc
fa
01
12
fe
0e
05
ea
f0
f9
f3
fc
f8
f4
f3
0f
eb
fc
01
ef
f8
0c
07
01
17
e9
f7
0c
ff
01
02
08
07
fb
f2
f9
05
f3
0e
fa
13
e7
05
1c
0c
00
1e
0c
24
0a
0f
05
f8
fe
03
f0
0b
01
13
04
fc
09
fa
fa
0a
0e
09
08
fe
10
13
19
02
06
fd
fe
1b
ff
00
f3
0f
0f
19
0b
13
fe
0d
15
f8
15
ec
10
0f
06
ed
09
f7
1a
f5
07
fd
00
07
fa
10
08
f8
00
1a
02
0e
ec
f6
0e
04
0f
e0
00
db
fb
01
f2
0a
18
01
fe
e6
0c
03
02
fd
e0
f9
ea
fc
f7
07
1b
ea
dd
00
ed
0c
fd
fb
f9
15
04
14
df
f1
15
02
07
f3
ff
04
0c
02
0a
ff
01
06
05
0a
e9
e4
05
fb
f9
05
f4
01
fd
0f
0e
08
08
06
06
0b
f0
ec
fd
0a
f1
fe
15
fb
e6
f7
fc
14
f6
fe
f1
06
e9
16
07
06
15
f2
f7
08
fd
00
ea
f5
fc
07
00
04
ef
05
13
fd
01
f5
ff
07
1f
f6
02
fb
fb
01
0c
10
e1
e9
03
00
07
22
03
01
f8
05
0b
fd
18
02
14
d9
17
f3
10
f6
05
19
25
04
e5
d8
09
1d
ef
fe
db
f7
0a
1c
09
f6
2e
f4
f3
0b
f9
1e
f3
f2
0b
06
19
f0
e0
ec
f7
00
12
03
eb
f9
11
ec
f9
fb
ff
03
1d
1d
07
e0
07
09
1c
0f
14
f1
ea
fc
10
0b
08
eb
f6
f3
0b
05
14
eb
03
f8
13
04
0f
0d
0c
0b
06
11
12
ec
f7
11
f7
f6
0e
e1
fd
fa
e8
0b
0f
ef
08
fd
14
e9
0f
0d
ee
09
17
fe
05
0d
ff
fb
0e
fd
f9
f2
08
04
00
19
0a
f4
0b
01
02
fc
03
12
ed
f9
0e
11
fc
00
0d
f6
03
fa
f7
0e
14
fd
12
ff
09
0b
01
16
ef
f5
fd
f3
01
03
09
0a
f8
0d
04
fe
fa
f8
05
f3
01
fd
fe
f0
fb
05
0a
10
0b
fe
f9
01
08
f1
f3
08
00
09
ed
04
04
07
05
0b
1a
0a
e7
fe
f7
16
12
01
f9
02
fa
0e
05
00
02
f6
11
fc
08
0f
04
0d
0d
02
06
05
e6
f7
14
ef
04
1a
09
06
0e
ee
10
09
0a
f3
09
17
0b
fa
ec
1f
0a
19
fd
0a
e9
1c
0b
fc
0a
02
f8
fd
23
12
f9
09
0c
fb
0a
00
ef
08
09
08
ff
f9
11
00
f7
04
07
fc
0d
fd
0b
05
11
f7
fc
f0
f0
fc
09
ed
04
0a
f7
fd
02
fe
ea
fc
06
09
f2
fe
fe
01
05
03
0c
f9
f3
f9
f3
fe
01
fb
f3
0c
0c
00
05
01
fc
ef
0a
04
ed
0e
f0
ee
03
f4
f0
07
fd
fa
f5
f7
f2
02
01
f0
01
f5
f7
e7
01
0c
0b
fe
f6
fe
ff
0f
02
fb
f7
f9
0e
ec
f2
f9
fb
ff
f9
fe
04
f5
ff
05
fa
06
12
ec
eb
09
01
f7
fc
0c
02
05
08
ef
ff
f8
f1
03
fd
fe
fc
02
fa
0e
0d
0e
fe
ef
09
f5
04
01
06
f5
15
1b
14
f0
16
f8
ea
0c
0d
06
0a
08
e8
fd
16
f0
0e
19
09
f4
ed
fd
f3
fa
01
00
05
fc
05
fc
f6
06
25
fe
ef
f5
0c
04
e3
f9
f2
0f
0b
fb
0f
f5
e1
f1
10
02
f9
06
f1
08
01
f7
d6
17
0a
02
05
fb
eb
e3
01
02
0d
fe
00
f4
04
08
07
f2
00
eb
ef
10
03
ee
fa
05
f8
f9
f8
02
f8
00
f6
07
0a
f7
ff
08
0a
07
16
dc
02
00
0d
e5
f8
0b
d8
07
e6
e3
f6
fb
f3
ce
fb
f4
fe
fa
fe
01
f9
0c
0c
f6
fe
ed
fd
f6
08
f1
00
f3
18
ec
ef
0e
04
09
fa
eb
f8
00
ff
09
fd
f7
e8
fb
ef
f0
fc
e8
fb
e8
ea
13
03
ee
ea
16
f2
fe
0c
eb
fb
0f
0f
f2
f9
04
03
fa
03
fe
fe
02
09
05
f0
f3
0f
f9
01
0a
ec
0d
f6
0d
ec
f3
09
12
06
08
f9
fc
f4
03
f9
03
14
01
08
04
10
0d
01
07
f2
0b
03
ea
f5
fc
f7
13
0c
fd
fc
f4
13
09
0c
0f
0e
0b
02
01
1f
ef
05
f9
01
ff
0b
fd
0b
fc
fb
02
1c
10
1b
14
08
fd
0b
14
02
0d
0d
18
f5
09
08
06
02
f3
02
eb
02
08
e0
0c
07
02
09
fe
17
f7
05
19
0b
13
16
eb
fd
16
0b
07
fa
0c
0d
f8
04
19
10
17
06
0f
0c
0a
1e
06
28
fc
16
0d
fc
ff
0b
04
00
09
fd
fa
fb
14
0a
01
02
f7
ff
f0
eb
f5
f4
f9
fc
f4
e6
f7
13
f4
06
01
e9
e4
ef
f5
fc
fa
fc
e7
f6
03
08
00
01
f8
e9
f3
02
fc
e5
09
03
03
02
e9
05
f5
fd
fb
08
ff
00
f7
0b
f0
07
fc
ee
02
04
f9
fc
ff
ec
f1
fa
fd
ee
00
f7
0e
1d
14
00
f2
12
02
01
0d
15
eb
07
06
05
08
13
07
07
0f
04
f0
04
1c
fd
fc
07
f9
0b
08
20
12
10
fb
1a
04
03
19
05
0f
07
00
0a
0c
01
e8
15
01
08
06
f5
fe
09
0c
09
fc
19
f5
13
03
0c
02
0c
fd
19
24
0c
09
0a
10
10
14
08
1a
0b
0a
09
1c
f3
1a
07
00
f1
f0
05
00
0e
ef
0d
07
0d
07
20
12
0f
05
ed
06
07
05
01
f7
fd
2b
f9
09
0f
19
0d
f4
f8
08
01
ee
0b
f9
f5
f0
0f
fa
0d
fe
ef
f5
08
fa
fd
1e
f1
0e
ff
ff
01
04
0c
fc
04
fc
f7
07
01
f7
fe
02
ef
03
0c
0b
fe
fa
01
0e
00
fb
f7
08
02
0a
04
f4
fe
0d
fd
04
f1
f0
02
05
04
ea
f5
08
f2
fc
12
fd
00
00
fa
fb
16
f9
0d
f5
ff
fe
f7
12
00
09
fd
05
f8
1b
06
1c
08
f2
e8
01
04
ff
f4
1c
0e
dd
03
03
fc
ea
05
03
f6
27
f2
05
1a
f3
11
01
f4
da
f4
f7
f8
f6
e9
06
03
ef
fb
f0
ff
f3
0e
fa
0e
14
0e
0c
ec
06
ff
07
08
09
09
e8
17
eb
f3
0f
1a
27
fc
00
ee
e8
08
0c
0e
fe
eb
11
00
fa
17
15
05
e6
0c
f0
f4
14
01
01
e9
0c
f3
03
06
07
fa
f9
f4
f9
ef
fa
f1
f9
f9
04
f5
ff
fb
e9
fe
ff
ff
ec
03
07
03
ef
e5
fd
0c
ea
11
fa
17
01
01
00
08
0f
f8
ff
0b
fc
02
f3
03
03
f7
08
ec
09
f1
0d
ed
13
09
ea
13
07
03
f6
f8
04
09
18
08
fc
04
18
1e
02
02
f3
14
07
fd
05
0b
1b
04
fa
11
fc
fb
0b
fd
ff
06
17
09
fd
f8
04
07
01
f8
0c
f0
11
ff
07
ee
f7
f3
22
00
05
e7
05
01
18
1f
12
fc
1b
11
f9
03
2a
e7
f7
14
14
fd
11
fc
02
e7
27
0b
f5
06
f3
0a
ff
0c
fc
01
04
f7
fe
fa
04
08
fd
f0
12
0f
05
fe
00
01
ff
1b
f0
fb
da
12
03
1f
07
16
ea
0a
0c
0b
00
02
f3
19
01
0c
eb
ee
03
06
f8
fd
f7
f8
ed
07
05
01
f5
06
f2
f9
0a
fa
ff
00
fe
0a
fd
fc
03
fe
03
fd
04
ed
f9
ff
fb
f8
f5
f0
01
04
f2
f3
0d
05
f5
f9
ec
ff
01
f4
04
f3
0d
0d
fc
ff
0a
0a
05
ff
07
f3
fa
fe
eb
ff
f8
f2
f8
fe
01
f2
09
0f
08
fb
f7
0e
ea
f0
fe
e0
05
1b
0e
07
f5
03
07
f5
f7
ee
1a
f6
01
f6
00
21
fd
f1
01
01
05
11
f5
0b
06
0d
f9
fa
04
1e
fd
05
02
01
0f
07
01
ff
fe
eb
ff
05
00
fd
0e
02
05
f6
f6
0c
03
0b
fb
fb
1d
02
fe
f7
f0
f1
f0
fd
f4
09
fd
fc
0d
e6
f8
f8
fd
fe
03
fa
08
ea
05
f4
fe
0e
17
02
11
08
fb
01
f6
fd
07
05
f7
ef
f6
11
06
e6
f5
02
e2
02
fd
f9
09
ef
07
08
ff
f1
f3
04
fd
fe
fe
06
11
14
03
0a
14
04
20
09
02
17
0f
fc
0b
10
fe
f6
05
0c
f0
0a
12
09
06
01
01
16
1e
0a
04
f8
19
0d
1a
0d
02
09
1e
18
08
2d
23
ed
0b
f5
fb
02
0f
03
ff
02
e7
f8
fc
0c
f3
04
f4
1a
07
0b
08
09
fd
fa
f2
e8
02
f2
eb
05
11
ee
ec
0a
ef
02
ff
f0
fb
fc
fe
00
fd
02
0a
09
0e
fd
0a
eb
e5
02
ff
1c
07
07
08
03
0d
01
fe
16
0b
0d
03
fc
ea
0b
12
fe
f6
0a
f9
05
06
00
fb
05
f7
03
04
10
16
03
fc
13
01
0e
f9
07
05
06
ff
fa
fd
f0
f0
f9
09
10
00
0a
eb
fe
02
0e
fd
ff
fa
00
0a
13
e7
fb
0f
0d
fd
ef
04
10
06
f6
0c
12
fd
18
0d
0d
16
16
fb
f7
12
09
11
fd
05
ff
12
fd
f6
f4
ef
fa
f6
f5
06
fc
0f
f2
f9
1b
e4
ea
f9
00
ee
06
fa
fd
ff
08
02
12
f1
fa
f1
08
0a
08
02
f4
fb
f1
07
02
08
0a
f5
f0
13
fd
f8
14
ec
ee
01
07
f1
03
06
00
f8
25
f7
12
fe
04
dc
01
00
01
07
01
03
e6
00
01
f0
00
fb
fa
fc
f8
0b
08
ee
fc
04
17
0b
16
0d
fc
fe
06
f0
13
06
f0
16
19
16
1a
f6
06
12
05
0c
04
05
0a
22
17
10
25
1c
ed
06
0c
1b
0c
0d
10
0a
0a
13
02
07
18
23
09
23
fc
1c
f8
0c
f9
04
fd
08
03
ed
f7
11
07
12
00
0e
11
05
04
02
0f
03
0e
f3
08
03
00
06
0c
f6
fe
00
0b
0d
0d
06
01
09
e9
f5
02
f6
00
04
07
f4
01
ec
f4
eb
f7
02
00
ff
01
0a
0e
01
04
f2
05
03
04
fa
f6
fe
00
00
09
07
fb
ff
03
ef
ff
0e
01
00
fb
06
02
f9
f7
fe
fb
f4
01
01
ef
02
f7
d7
fb
fe
ec
f5
ff
fb
05
1d
00
ee
06
00
10
fd
f9
07
f9
f9
0f
f6
fa
fa
f1
01
16
05
01
03
05
fd
f5
05
fc
f9
fd
fd
00
06
f7
03
fe
04
02
0d
f4
f6
09
24
f9
0e
fb
ff
06
0e
f2
0e
fc
f1
f7
00
fc
f8
26
15
08
fe
fd
fb
fc
00
0a
0e
02
13
01
fb
11
fa
11
08
05
f6
f2
02
0f
eb
fc
fc
fa
01
07
f3
00
0f
0a
fd
f8
09
0c
05
f6
05
ff
09
fd
ef
fd
fa
0c
fb
fa
f6
04
08
ef
fa
02
0f
08
08
ee
fd
0c
03
04
0e
fd
f1
d7
05
fd
12
18
15
d6
f7
01
0f
f4
e7
f0
14
ed
f4
f7
ef
0c
fa
01
0d
ff
07
e9
fb
05
0f
0f
f9
ef
05
1b
fb
d9
0f
07
f8
1c
f2
07
fc
05
06
13
19
e7
e6
07
ff
10
0b
04
f1
12
14
00
02
0e
0d
fc
00
07
ea
f1
fc
f7
09
08
02
ed
ed
01
15
02
e3
fc
14
02
e5
0b
04
f8
1a
16
0a
04
fc
fe
02
14
15
0c
18
fd
fa
13
0d
fd
29
0f
0a
0b
0b
0c
00
fd
fa
13
02
0b
fd
05
20
0e
05
e4
05
05
f5
dc
f5
00
03
00
01
09
d9
fd
02
dd
f7
fd
ed
01
04
ec
00
12
fa
ff
f2
e3
f1
f6
ee
02
09
06
f7
fe
ee
fd
e7
00
f9
f8
ea
f8
16
fb
12
f1
f5
f2
02
f9
db
01
f3
05
06
f0
01
05
16
f5
18
00
fa
02
0d
f6
ee
f7
e9
ee
e4
01
f9
02
fc
02
e7
05
f4
ff
07
07
01
02
fd
f5
09
fe
f8
f3
01
e8
f3
ff
ec
f9
f1
e7
fe
09
ec
f7
fe
ff
f3
05
f9
fa
f9
f4
fc
f3
f9
01
05
fb
fe
06
fb
f7
f9
fd
ff
f9
ee
f4
ff
f3
0e
0b
13
1f
18
03
fe
0b
f3
fb
eb
0f
16
f8
04
0c
1a
fa
ee
1c
08
fe
f4
ea
04
ee
14
14
07
06
f8
f9
17
02
0f
14
0d
02
17
14
07
f5
01
09
fe
ee
02
f4
f9
f3
f2
f9
fd
16
0c
09
05
fe
f1
fa
e9
0b
0e
fd
f6
02
ff
01
f4
14
09
e9
fd
01
f5
f7
f8
e3
ec
f8
f7
0e
12
f3
00
fb
00
1d
e5
07
0c
fa
0f
0e
02
00
04
0d
0a
13
fc
06
f9
f1
0f
fa
e3
09
03
14
fa
f3
10
00
fe
0b
ea
f9
f8
f8
04
13
ee
f9
f3
06
fd
0d
06
f1
0f
ec
0d
06
06
e9
06
e9
db
fd
07
e1
ff
10
f7
09
19
17
fc
02
05
fd
13
fc
f5
df
f5
15
ed
05
f6
eb
03
1b
01
06
0c
fd
15
f8
0f
04
1a
0f
02
0c
0d
0b
11
0d
18
f3
ec
ff
fd
f8
12
fd
e0
fc
02
fe
f6
f6
fd
00
14
00
ed
fa
0d
eb
fd
f9
eb
06
0d
f5
e0
fa
04
f9
ee
05
f4
ec
06
07
00
0d
05
ea
fe
de
ff
09
e7
ed
07
f9
0a
f5
ed
f9
f3
f9
10
de
0a
ef
0d
f2
e7
f4
00
eb
00
fd
fe
fd
ff
fe
05
f2
ee
11
12
fd
f2
0a
05
03
f0
13
0b
08
f3
e3
f2
fa
01
f4
ff
04
08
fa
fd
f0
f9
07
10
01
18
fc
ec
f7
0e
05
f6
1b
fc
ff
f4
fd
f3
0e
f8
01
ef
f8
05
06
09
f7
f6
07
e5
00
f7
fb
f8
05
0b
f6
0a
12
f4
00
0f
18
e3
0b
0b
0d
14
fa
04
ed
22
ef
0f
f6
06
1b
02
f5
00
04
10
f7
25
f8
f3
0a
00
0b
00
18
f0
07
03
f7
0f
0f
ec
0f
04
11
14
15
0d
fc
fe
02
0d
f1
30
fb
15
0f
fa
f4
0b
fd
f9
00
0f
ff
18
fc
1f
f6
06
fd
f8
09
fd
fb
f9
09
fd
f1
00
e7
fa
e2
f5
f3
f4
fa
f4
0d
13
f2
e7
0e
ea
f3
05
08
f5
ff
fa
f9
fb
e3
f3
00
fd
04
fb
fb
fb
01
ef
ec
00
03
ff
00
fb
04
02
06
f7
08
f1
e9
f7
0b
f3
0a
f3
f3
f1
fa
f1
ef
f5
0e
fe
08
15
06
fc
0a
0b
f3
fc
e6
f7
f3
f1
fe
f3
0c
04
f9
f8
01
09
11
f8
fa
f3
ff
07
f8
f4
f3
f1
ff
ed
fb
ee
f3
07
f9
ea
13
f4
ec
fd
f9
ee
20
02
18
fc
31
ef
08
06
07
05
f5
02
02
05
f0
06
ff
f0
fb
00
fc
f2
09
fa
f3
09
f4
ff
e7
fa
fd
0c
09
03
0d
fb
05
ed
0f
02
fc
00
fd
05
0b
fe
09
03
fe
f6
fe
0a
04
fe
fe
17
f8
f1
f5
ee
0c
09
04
fa
0a
08
ff
fd
f6
e5
f9
fe
f6
f1
f4
09
fe
03
f4
f9
03
09
f5
fa
00
ed
ff
08
f7
11
ea
0b
ee
f7
02
ee
e9
f5
07
05
ea
fa
e8
fd
01
ff
07
f9
15
02
f5
fc
f2
0d
02
f2
fa
fe
08
ef
fd
ea
01
f2
fb
f7
ed
05
06
06
00
02
fe
02
ea
ff
e8
fb
00
f0
fa
fc
f8
08
02
01
fe
07
09
ff
fd
fc
f6
01
fc
05
f9
f6
fa
fb
f5
f9
0b
09
06
ee
f0
09
06
fa
0f
05
0b
00
02
fe
fe
09
ff
01
12
03
08
19
f4
03
f9
ee
0a
16
0b
0c
f8
0e
f5
f2
dd
f2
00
fd
ee
f7
f1
fb
f6
17
f6
17
18
11
fb
ff
1a
06
02
07
0d
fb
0e
15
f9
1e
1e
f5
fc
fc
f0
0e
f9
f9
0f
04
0e
f4
1d
13
0f
fb
07
06
14
15
f7
fb
f2
1c
0c
fa
1e
1f
f3
00
f4
f1
0a
ff
01
08
13
f6
ff
12
11
ec
fb
f8
1d
0b
02
02
ec
01
e9
ff
ff
fb
fb
09
f9
00
ec
0e
fa
fa
f6
04
07
f0
de
01
1e
16
01
f2
18
e6
0a
21
0b
f3
0b
f5
10
fc
fa
fd
f8
ed
25
fe
fb
e3
f1
f4
11
fc
fd
02
f0
0a
fd
11
ff
e9
0a
f1
ff
08
ef
fb
0c
fc
03
04
ea
0f
11
f7
21
02
fd
0a
fe
0e
e9
fa
1d
03
ff
00
e7
07
08
fd
ef
f6
ec
ea
06
00
f4
03
10
f6
01
09
fb
fe
18
03
fc
f3
01
04
0b
0c
00
f3
fb
f3
11
08
fb
05
04
fa
fd
f9
0b
fc
fe
fd
00
fe
13
f7
f9
14
0a
14
0a
fb
03
fd
06
ed
ee
f0
02
fb
f8
00
fe
ff
06
01
f2
f4
e8
11
ff
fa
10
fc
0f
ff
05
17
f9
08
f2
fc
04
03
fb
fd
0a
f4
02
f9
05
02
07
14
0b
04
ef
05
18
de
07
0f
19
07
fb
07
f6
05
fc
15
05
03
f3
06
18
06
fd
01
0b
1f
1e
05
0d
09
0d
10
14
ef
0e
fe
09
08
04
0e
fc
0d
01
0f
f7
f7
ea
ff
e2
0e
fe
fa
ef
15
f9
15
09
ec
01
15
16
ed
0b
f6
0a
0d
01
ff
fc
f7
03
16
04
0c
16
f4
19
00
ef
e9
02
f3
0a
01
14
13
1c
04
fe
0e
07
09
0a
1b
fa
05
00
05
fd
dd
f7
01
e4
1c
f0
e7
07
df
fe
07
06
f6
fc
ff
e6
fe
e4
02
02
f8
df
fd
07
ef
03
f6
02
00
18
d6
f0
d5
1f
f1
2a
ef
32
f7
15
0a
ee
0a
f0
08
14
f2
fa
fd
0c
f7
fc
f3
f8
dc
02
f0
04
04
fb
00
ed
ea
f7
f4
2b
0b
07
07
f2
14
f9
ee
13
00
e4
fc
f0
ef
0b
d4
fe
eb
f9
11
ff
e4
00
fc
02
ed
f1
10
fe
ed
eb
f9
f9
fd
fe
04
00
0a
d4
04
05
f8
e6
02
02
f5
f4
f3
01
f0
06
09
2c
0e
12
05
eb
fc
00
14
fc
03
01
fc
f8
f2
19
fb
f3
0d
f6
04
12
0f
0e
08
05
fb
0a
fe
f4
0e
f9
f2
0f
fe
00
f4
08
ff
ff
ff
0a
17
01
13
02
00
0f
fa
f7
03
e8
ff
e0
0c
e3
04
e9
12
f4
03
08
fb
fc
04
0f
ff
fb
fd
02
eb
00
f4
0a
fa
15
fc
03
05
f8
f0
0c
0f
06
11
fc
eb
0a
03
03
10
00
13
07
22
08
0c
fc
fb
02
fb
13
fc
f7
fa
00
ff
ef
26
ef
e1
03
04
eb
fb
00
f8
09
fa
ee
0d
fc
04
fd
0d
03
e9
09
05
fa
ff
f0
0c
f2
fc
1b
f7
18
fc
fb
f4
13
07
f4
1a
ff
07
ee
f7
04
11
0b
f6
f5
f3
04
08
fc
f7
08
0c
ee
15
1a
05
f5
16
08
ff
17
f2
19
00
00
fb
01
fd
f5
ed
e2
02
04
0d
02
fe
05
01
00
f6
fd
f9
0c
fa
06
08
fd
09
06
01
0c
fd
14
04
07
1b
fc
f0
00
ff
ff
03
fd
01
00
07
0c
0f
16
fe
02
0c
1c
f7
05
f4
fd
13
1d
0a
f7
0a
f7
eb
06
13
fa
08
07
fe
11
e5
0e
f8
f9
01
0b
0a
0f
f0
0f
05
fd
f4
eb
f8
f2
0b
df
18
ff
08
fa
ec
1a
ef
0e
f9
00
fb
0d
15
18
fb
0e
06
1a
0f
18
0b
fe
e3
0a
fb
0d
1b
10
f6
07
02
15
00
f9
08
01
0e
16
fe
0c
2b
0f
17
fd
0f
fc
17
10
e9
11
fa
06
fe
fb
12
07
ef
ff
ff
06
f8
f8
fc
0c
08
07
ff
f1
08
01
e8
fb
fe
0e
f9
f6
ef
01
f8
ff
03
0a
05
fb
0b
fa
f9
f8
ff
fd
08
10
f9
f9
de
0b
00
03
ff
f9
11
fb
00
0c
ff
ff
03
ff
04
0e
ed
16
ef
f5
10
ea
12
0c
ff
fc
08
f7
f8
f9
df
03
07
21
f0
1a
08
ee
11
18
f6
f7
08
0d
06
ff
e2
18
17
f4
06
00
0a
1f
00
0a
10
07
0f
0a
f2
ef
10
f3
f7
1b
06
fe
f3
10
f5
15
f0
07
0d
f9
03
03
0c
09
f7
f8
05
e1
0c
f0
08
fa
1a
e7
10
f0
08
02
1a
24
02
f2
10
06
f7
0b
12
07
01
ea
ec
fd
f3
f7
f4
ea
f8
00
03
e9
f8
0d
fe
00
f9
eb
fe
00
16
e1
f7
18
f6
fa
f0
e9
ff
21
fe
fc
f6
04
eb
00
06
10
e0
0b
f4
03
ed
eb
02
f8
fa
f0
1c
06
f9
f6
0f
04
f8
03
ff
0b
04
f3
f2
04
ff
fc
f8
19
f2
03
07
f2
f2
ef
04
e8
0e
ea
07
05
0b
11
11
16
09
fe
f3
10
12
f5
fa
f4
01
04
05
f9
f6
03
0f
09
f8
f0
0a
e9
e6
0a
ea
01
07
fc
f3
06
02
f8
0a
09
12
f2
fa
ed
00
f5
03
f4
ef
f9
ff
f5
f7
0f
0d
08
09
00
04
ef
fc
05
03
09
fe
06
01
0e
fd
0d
f7
0a
02
f4
01
ed
e8
f9
f2
fa
fd
14
fd
f9
14
13
e7
fb
08
06
03
f8
11
04
0b
f8
db
fc
f3
ff
02
09
e9
fb
fd
04
0f
00
f0
fe
fc
14
0c
05
f3
fa
ef
e8
0b
06
05
09
f6
02
0b
eb
fc
04
08
f7
f6
04
00
15
06
0b
12
fc
f9
20
0a
f2
00
f8
0a
09
fe
f6
10
f4
08
f7
fd
fa
fa
07
e7
f5
02
f9
0c
f5
06
0a
fa
ff
f5
fe
01
11
fa
f2
00
fa
15
1d
12
f5
06
02
f7
fb
0d
fd
16
fe
01
f0
ed
fa
ef
f5
e7
03
14
fe
00
0f
10
19
0d
fe
fe
08
05
f7
ef
fa
07
f3
ff
f1
fc
13
fd
07
01
06
15
0b
06
1b
03
24
fd
05
fa
e9
f8
f1
00
02
0b
f5
0a
0e
05
02
0f
15
05
0a
f9
f2
fb
1a
f9
f5
f1
00
12
10
0c
fc
0c
01
06
fe
02
fe
09
08
07
20
ff
22
00
fd
12
f9
0c
f2
fe
fe
ff
08
ed
fd
0b
10
17
02
06
ed
fb
0a
0f
f9
fe
06
0a
09
03
11
16
0a
fa
1c
07
09
00
03
f9
09
db
fb
e8
17
0b
fc
0d
e7
df
0f
07
06
e6
fd
16
f0
06
ef
06
09
fa
05
0a
fb
ef
ed
e6
ff
fa
01
fc
08
ea
fc
ef
08
ea
0a
f3
fb
df
fa
f2
01
fb
02
07
fb
01
0b
12
f5
f2
03
02
0e
00
f6
fe
10
fa
08
03
ec
13
08
ed
1b
04
01
f7
fb
04
10
27
17
08
fe
ec
02
02
00
f9
00
01
0a
0a
02
00
1b
fc
f4
09
fd
0a
00
05
00
0d
fb
e9
f7
08
13
f1
f6
fe
ff
0b
fe
eb
04
ff
05
01
0d
f9
e2
0f
fe
0b
f7
f6
00
14
13
06
f8
fb
04
12
07
1b
fb
06
0e
0c
f5
0a
f4
fd
f5
11
0d
da
09
ee
02
f5
f8
09
25
f8
eb
10
f1
03
05
fe
fc
18
06
0b
02
0b
15
fb
0c
fd
0e
e8
f9
fe
14
03
0a
f3
f9
ff
ef
0b
09
20
f1
fc
ef
09
0d
ff
fa
08
01
06
17
13
f9
fe
fc
08
e2
07
fb
0a
0b
e4
08
fd
06
f1
0e
ee
08
05
eb
0f
16
ff
15
f6
f2
fa
fc
01
13
09
e5
17
02
0a
06
ff
01
07
15
09
09
02
eb
04
ef
f3
ff
fa
f4
e9
06
14
f6
10
e7
04
fc
02
04
05
fb
12
fc
f6
01
11
f1
fc
04
09
03
ee
ed
e8
05
f3
fe
fd
0f
fa
05
0d
f6
ef
1d
0b
eb
0b
06
f9
06
ef
cd
05
0f
03
fb
12
ff
03
15
06
01
03
fa
01
00
e6
01
fb
eb
0a
ed
01
eb
ff
f2
0a
df
f4
f6
09
09
f9
2c
f9
0d
e9
fa
19
06
0d
01
ec
f1
15
ec
0e
f2
ed
f9
0c
fa
ed
f6
04
f5
1e
03
0a
fe
03
e6
ee
0e
00
e5
ee
ff
02
0f
fa
f5
fa
f1
10
00
fa
11
f9
05
ec
f1
ea
02
09
02
02
f3
fc
ff
fd
07
03
10
e3
f7
0b
08
05
12
06
fc
f7
f4
02
f3
ff
09
03
0e
06
f8
00
f3
fa
01
f3
e4
fd
05
ff
18
0f
f8
0f
eb
16
00
04
e1
fe
fe
fb
0e
fc
ea
f9
fa
08
03
fe
10
fc
f6
08
ef
12
f4
09
fb
00
ed
fe
fc
ff
f9
01
0e
f2
0d
ef
dc
ff
0e
ff
05
13
03
f3
02
ef
f5
fc
15
01
ff
04
00
09
fd
fa
fd
04
f8
f7
0e
07
ed
06
00
f1
e7
f1
e2
ff
e9
f6
fb
f1
05
00
f9
05
0c
f1
fe
04
11
fd
05
f9
eb
fd
fe
fc
f3
ff
ec
04
03
0b
0a
fd
16
00
14
13
07
06
f2
12
07
20
04
07
07
e8
f0
e3
f1
fd
f8
f2
0e
fc
13
02
fd
0c
07
06
f1
0e
fb
0f
05
f1
ff
fa
eb
02
12
08
00
fa
16
02
00
ed
13
f4
04
e7
04
13
fe
fa
f1
ff
f2
24
fc
f8
ee
03
01
d1
0a
fb
02
11
13
09
ec
0d
e5
00
de
04
0b
fe
f8
f6
fd
ec
fa
f7
05
fd
00
04
f9
f7
1f
00
fd
0b
db
1e
05
fe
04
0a
f7
0b
f7
0b
01
f4
03
11
02
06
fa
00
f8
fc
db
f8
d8
03
f2
fa
ff
0f
f4
15
e7
03
05
f3
00
03
fc
04
01
04
fc
08
f7
f1
fb
ff
f9
f3
f7
f3
fc
fe
f8
00
10
f8
fc
f6
02
fb
14
04
fb
0e
ec
ff
f9
f7
e4
fe
fe
fb
09
f6
01
f7
f8
07
f9
02
00
07
fb
f5
ff
fd
f6
f9
f5
fa
f7
09
ee
0c
00
fe
e7
ea
11
fd
03
fa
06
02
e7
10
f9
00
f8
00
0f
f3
df
f1
19
fc
0b
0e
0b
07
00
f4
06
ef
19
03
ff
06
e7
0e
fb
e5
0f
0b
0e
f2
ef
05
01
fa
ef
1b
0a
0d
ef
06
16
fc
f6
dc
e6
02
fa
12
fa
09
ee
25
f1
13
0d
fb
06
0d
0a
06
14
12
fb
11
ed
15
ea
19
02
01
e9
05
f6
0c
f4
fe
f4
ef
04
fb
1e
01
14
0e
f9
0f
0a
02
01
f8
fc
22
03
f2
14
19
00
e8
ee
f3
10
0f
ff
fb
16
00
09
f5
fb
ed
f3
16
00
0b
04
01
f8
15
f8
f0
28
f5
16
fe
ee
05
f6
20
f2
08
0b
03
06
01
ef
00
0b
18
f5
01
0e
fe
0b
1e
07
00
14
08
e9
0e
fc
03
01
fd
f2
0b
0c
03
f1
0e
0f
03
0e
15
f8
0e
0c
00
16
fe
19
0b
f0
09
f8
1e
f6
fe
fc
0a
e8
ff
e8
f8
05
06
df
12
00
05
fb
05
fc
ea
08
0f
f6
04
03
ee
00
fd
f2
0d
0d
08
12
0e
f4
11
02
03
21
f1
0e
ff
f9
04
f4
06
fd
0d
fb
10
08
0c
2c
f0
f9
12
f3
01
0e
f7
ef
1b
0b
14
f7
1c
f5
04
ee
19
f0
27
07
0f
f6
15
1e
07
12
00
f7
ff
0d
03
fb
06
11
ef
f7
06
f4
f2
00
0f
fc
ff
0b
f0
f4
f5
f2
f5
02
07
09
16
03
08
07
09
fe
06
0f
fa
04
f9
ff
fb
08
08
0e
f4
fe
fc
f7
21
08
fc
f7
00
f2
fc
f6
01
fd
0b
f8
12
01
11
12
ff
0a
fa
0f
20
06
04
02
0a
fd
fb
0c
0a
2c
0b
13
fa
fe
0f
01
07
fe
0e
ec
02
0e
fb
02
1a
04
14
04
fc
f4
0f
ef
f1
0f
f6
14
0e
0d
e6
f0
09
12
05
fc
0a
05
1a
f8
06
f4
09
fb
f3
f6
1b
ea
26
12
04
05
11
04
fc
fa
0b
f6
08
01
04
e9
eb
f3
07
f5
11
fa
d3
01
f4
17
f4
f4
fd
f6
f7
f1
05
ee
ff
08
fd
0a
06
fd
f4
f6
03
06
fa
ff
e8
f3
d2
1a
f1
18
fa
22
de
10
18
f4
10
f8
07
fc
00
f2
10
0a
fa
ff
16
05
06
07
05
f6
00
fd
03
fe
05
15
0b
f2
01
f1
04
fc
08
f9
01
f7
06
fe
f8
04
02
ea
12
1b
fc
f0
fa
f4
00
07
05
14
03
06
01
fe
f6
02
07
ff
dc
04
0a
ed
02
f8
09
f6
08
04
f2
fb
09
f9
ff
fd
ed
09
f5
06
04
f6
ff
ed
08
f1
fb
ed
fb
11
10
ef
ed
17
fe
e2
0a
f9
06
f3
0c
10
15
19
01
0f
04
05
07
fa
08
f1
02
f1
17
08
fd
0f
fd
18
1f
fc
fd
fe
15
09
e8
e4
08
e8
08
eb
15
e5
04
ea
1f
eb
03
f6
00
09
09
0e
f9
02
03
0b
00
05
e9
04
0c
fd
0e
01
0f
ed
06
16
0a
e9
0d
03
fe
fd
fa
f2
fa
04
fb
07
04
f8
05
03
00
01
fb
12
ff
ed
13
06
05
05
07
fb
f2
f5
f0
eb
09
0a
f2
19
04
fd
f1
fd
fe
f6
ff
fc
0e
02
17
08
02
01
0f
0d
f2
ee
fd
09
03
13
11
e8
03
0d
fb
07
fe
03
07
f8
ea
0c
18
0c
04
fc
09
f8
10
fd
fe
fb
0d
f3
0c
0a
09
1a
f9
05
03
f4
fb
f9
f2
1b
f3
07
f4
f4
06
f4
1f
09
0e
f8
10
fa
f8
f9
04
f4
fd
f3
ef
02
f3
09
f6
03
ea
06
fc
00
12
f1
e6
07
f1
fa
00
07
18
09
01
ff
07
ff
08
f9
0a
05
01
0a
ea
f0
08
02
f6
f7
0a
f6
fd
0f
ff
00
04
04
12
f4
cf
f4
08
f5
00
0c
f3
ea
fa
0b
f7
f6
fa
f9
e5
05
06
f8
f8
f5
f6
f0
ed
0e
06
ff
05
03
f9
fb
02
f8
0a
ff
ef
0b
e5
05
06
f9
f5
02
f5
f6
0c
ec
f6
0d
f1
e8
fe
02
fc
06
15
00
e7
f5
fc
08
14
f7
06
f6
11
fd
d9
01
00
0f
f2
00
05
01
eb
04
07
e7
0c
fc
00
05
09
f7
ff
11
0e
01
f9
13
f7
00
ee
f4
f4
0c
f9
f8
f9
f8
0b
1a
04
fb
ff
05
0b
fa
ff
0c
f0
f6
fd
e8
f7
fd
04
e9
03
0b
f3
fa
0a
09
f2
00
09
fc
e9
13
e2
ea
06
f2
01
f2
ee
07
07
e7
03
ee
ed
08
01
f3
11
00
13
f2
06
f5
fc
0d
0a
0d
f8
f1
fb
ff
03
f7
11
f3
07
07
fa
0b
03
0b
09
f2
16
e9
04
0d
f6
f8
01
01
ff
00
1e
02
01
05
05
fe
24
fa
07
fd
f5
ff
0c
f2
12
fb
0e
02
05
fa
0f
e6
fc
f5
06
06
03
ee
fb
fd
fb
01
fe
fe
0b
07
f3
fa
fd
04
fa
fc
e9
fd
f3
00
02
f4
0a
ff
f8
fd
01
fd
20
01
00
13
0b
e1
fc
fe
f4
07
ff
09
06
f6
f3
0f
08
0e
fa
ef
12
11
00
ee
11
f9
fa
ff
03
fb
f8
02
02
0a
fd
0f
fd
fc
00
12
0a
00
fe
04
f3
03
0d
00
e7
04
0c
f0
fd
07
00
f9
11
00
f8
fa
f5
f6
06
fc
0e
0d
07
fa
fa
0c
f6
02
fe
1b
e6
fa
e8
10
ff
02
14
fd
f0
01
ee
fc
07
fb
eb
ef
ff
ed
0f
04
0b
ea
fc
0a
fd
0f
06
ef
ff
00
05
02
ee
0b
06
ff
02
07
15
14
e7
04
14
ff
02
05
03
f6
07
02
05
16
0d
00
f7
01
ea
fa
ed
ef
fa
f6
f8
ff
06
ff
fe
f8
18
f4
01
ff
00
fa
00
fc
d5
f1
f5
17
0c
fb
f0
fd
02
0c
ff
f2
f5
06
09
ed
f2
f6
0e
fd
ee
f3
ef
06
11
ef
f6
ee
f6
e5
0d
fa
f4
da
fb
03
05
0c
f7
fb
09
e7
f6
f5
fb
f6
f3
f5
05
0f
02
ea
06
f9
fc
09
eb
f9
00
01
ea
f4
07
0e
0e
e7
05
e5
f3
f9
f2
fc
0d
00
0d
19
e4
04
ff
fe
14
09
16
0b
fa
f6
04
f6
1a
0b
09
0d
ec
f5
ec
05
fc
02
02
fd
fc
08
07
f9
fa
f3
1c
ed
11
17
e5
f5
03
fc
fb
08
10
02
02
fc
02
02
0a
23
f8
0b
eb
fa
fb
f6
05
06
f4
fd
04
fe
0e
f6
0e
18
fb
03
13
17
fd
0c
06
07
08
0d
03
f5
0f
eb
08
0f
09
fc
fb
09
02
e8
fd
fb
f8
03
0c
fe
05
15
0e
fc
19
12
09
04
1a
f9
04
09
f6
f4
f9
e1
fd
1a
06
0e
fa
fd
04
ff
02
f8
13
f9
06
fe
15
ff
fd
0a
06
0e
f8
f6
0e
02
fc
01
f7
f7
fd
08
07
02
02
10
06
09
e7
07
ff
f0
0f
02
05
f9
ff
eb
f7
0a
ff
02
ff
12
04
fc
ff
fc
fa
f1
fc
08
ec
03
03
f6
02
f6
05
e8
fb
f4
04
f4
fc
07
14
0a
0d
04
0b
03
f7
0c
06
11
04
fc
02
07
f2
0e
03
07
04
1c
06
12
eb
ec
04
17
fd
11
fd
eb
05
ff
0c
1a
f9
fe
17
fa
f4
13
01
f4
13
08
0c
05
ed
f7
1a
04
f8
00
0c
0d
f4
0c
ed
03
04
03
0f
12
03
fb
0f
07
f3
d6
11
0b
00
eb
fd
ed
23
21
0e
f5
fb
0e
06
0a
21
02
0e
f9
09
eb
f6
da
e1
f9
21
16
f5
f1
fb
09
17
05
e9
13
09
ea
07
04
f1
f6
e9
e3
ff
01
00
fc
0e
13
f1
03
f5
0f
da
06
fe
18
eb
2a
e8
ec
18
f0
0c
f7
0b
fd
0a
ed
fb
ef
fa
ff
fb
01
00
11
00
fe
0a
e2
f6
f9
02
f2
07
d4
e4
fe
07
02
ea
14
f2
ff
0f
f0
fd
f7
ff
fd
fc
e9
f1
05
0b
cc
01
ed
01
fa
f3
fb
03
0d
fb
fe
fa
fc
fe
fd
0e
01
fe
eb
09
f3
ec
f9
06
01
05
ee
06
e3
04
07
ff
01
05
f9
01
f8
0d
07
ff
0b
07
02
fa
eb
e3
14
19
09
04
17
e1
1d
fd
06
f8
15
02
f2
f8
fc
0d
ef
e8
f2
fc
12
01
ec
08
0b
0a
1a
f5
fc
e6
ea
fc
18
f1
15
08
fd
fb
e6
05
01
0f
e3
19
f4
fa
03
0e
1c
ff
13
fd
e9
ea
16
09
f1
0d
0f
04
fd
03
f9
fc
ef
fc
fe
ee
0a
ee
0d
01
f7
04
0e
14
f2
02
1c
e2
02
00
d9
ee
07
fc
ea
f8
01
e4
fc
05
fa
f8
07
f3
0b
e4
0a
e7
0c
05
07
14
e2
fe
14
fa
f7
11
f9
f9
13
ff
00
fd
ec
06
fb
07
01
05
0e
0c
fd
0d
f3
07
f3
0e
0f
0f
00
ff
09
0b
02
ff
1e
05
eb
fa
18
0d
f4
f1
ef
fe
1b
ed
f1
11
fe
04
fd
04
fa
fe
f6
00
19
e4
04
03
f1
03
fb
0c
0b
06
fe
11
05
ff
f5
f9
f6
fb
ec
fb
03
f6
fb
12
f7
fd
fc
0d
06
fc
15
fe
08
04
1b
04
f7
f4
fc
02
f3
0a
0c
04
13
e9
0d
e9
f6
00
01
fa
f1
fc
eb
01
ec
0a
04
f7
fe
cb
fa
e5
0a
0f
08
17
ea
05
fa
f8
fc
fb
ec
08
0e
0c
10
f6
05
0e
08
fc
15
12
fd
27
e6
21
fd
03
00
f0
e5
00
12
f2
ee
f5
18
09
0b
f1
fc
00
03
fd
f2
03
fe
10
03
fa
e8
04
f9
0c
06
0c
18
ff
11
01
16
00
17
f7
f4
01
ed
fa
f0
f1
fc
e7
ec
11
16
f7
e5
f6
f8
cc
05
f8
fa
ff
02
0b
e9
0f
d7
01
e6
0d
09
f2
ef
ee
fe
e5
02
00
05
f2
fb
07
eb
03
1d
0a
00
10
03
17
07
fc
e3
03
09
02
fb
07
01
0f
04
11
0a
0a
fd
fd
f5
06
d7
07
d0
00
e6
fe
10
0e
f7
1d
02
fd
04
f0
fa
02
f8
0c
02
fa
f0
08
f5
fc
e3
03
05
ef
f5
ea
f2
f9
03
f4
05
ea
03
f8
01
f3
03
09
ea
0d
00
fd
ff
ff
ee
f2
14
fe
11
ff
e6
ea
03
f4
fc
01
0f
ec
f0
f3
00
fa
02
00
ef
f5
04
13
f9
03
fe
f3
eb
08
0d
fe
fc
04
eb
ff
eb
ee
fa
e8
00
f8
08
01
f1
ef
f9
01
0d
fa
13
06
0d
15
05
fe
10
10
fa
0e
19
fb
f8
eb
d9
f6
f8
e1
f4
10
fd
0d
0d
0a
07
03
f0
0c
01
e2
04
04
f3
0a
f6
1d
f6
f9
f6
0d
e2
06
ff
f6
07
02
f6
0c
0e
0d
08
fe
f4
14
fe
0f
11
fd
f8
00
fc
f8
14
f8
fa
04
07
fd
1f
16
1c
05
f9
0f
0a
13
00
fe
0d
15
06
ff
00
0d
03
fa
05
02
0a
03
f2
01
02
fb
f0
fd
00
ff
08
17
fc
05
05
0f
fe
10
fc
fc
05
fa
0e
fb
00
02
fc
0d
04
10
04
0d
17
f7
04
f7
18
06
fe
22
14
fc
1a
08
01
eb
0d
0a
ff
06
ee
06
f5
ea
e9
f8
06
f8
12
07
04
14
02
04
08
f7
03
f1
0b
fd
1a
25
f3
f7
eb
ff
04
0f
f9
1c
0f
15
fe
f9
f7
06
0d
f8
01
0a
0e
e9
f2
fd
0d
09
f1
01
f5
fe
f6
f5
0f
01
0b
0b
fe
02
fa
23
fb
0a
1d
f8
0a
f7
fd
f4
e5
1e
01
09
e5
02
e4
eb
fe
0f
13
e1
07
ec
03
fc
06
ed
01
09
00
f9
f7
fc
00
07
f8
11
f8
ed
0d
15
15
f5
02
05
02
f1
f6
ef
00
09
07
fd
03
e2
07
f3
15
0f
f2
18
f8
f8
fe
05
f2
fb
05
02
10
1d
fc
f7
0e
1f
02
02
ed
17
fc
02
f9
06
18
03
0f
01
00
fb
00
0f
03
f1
fc
08
02
fd
ff
f8
ff
10
07
0a
0f
0f
18
f6
18
f7
f7
20
0f
10
f9
08
06
f7
11
f1
19
04
fd
05
03
05
02
0f
fe
05
fb
0b
0d
fe
08
f3
f5
fc
f5
00
16
06
01
07
fc
03
0e
14
18
fd
08
0b
10
07
02
15
f6
13
f0
01
f3
12
f5
fd
fa
09
05
16
0f
08
ee
f0
00
05
04
07
ff
f4
06
fe
f4
f5
fb
ec
01
f0
0f
f1
ec
fb
08
14
01
e9
f0
07
f8
10
f6
09
08
ff
ed
10
fb
fd
19
03
0d
15
f0
f6
ff
f2
28
0d
f3
f9
21
f4
15
06
fc
e6
0e
04
f7
ec
f5
1b
01
01
ff
10
ef
fe
03
f5
f7
eb
0e
fe
f6
0f
22
03
1b
05
0b
fe
15
10
01
04
f7
0a
f4
f0
f1
fe
19
f2
0a
f7
e7
0c
f6
04
fc
0c
02
f1
06
0f
02
f7
0b
f4
fe
e3
08
12
04
05
f2
05
ff
f1
fa
f9
ef
03
0d
fe
f6
db
fc
fc
f0
03
fe
fa
ee
08
0e
f8
fb
fd
13
f8
ec
d8
f3
f3
06
06
0c
fc
02
08
03
fa
12
0a
ef
0d
fd
fe
03
f4
f0
fc
05
07
0b
07
f1
f4
01
05
ed
0f
f4
00
eb
ed
d3
ef
f1
05
fc
07
f1
0d
e5
12
e5
fa
f5
06
e9
0c
f3
04
f7
08
ff
f8
0c
ef
fb
03
f6
03
02
fb
ff
0e
0d
0e
f6
02
0f
f5
0d
ec
f3
ef
0d
f4
f9
1f
ef
fa
0d
12
ff
14
f6
11
07
fd
0b
ff
03
fb
f0
0b
f9
0a
09
0d
ff
06
0f
f9
02
f5
f4
f5
fe
0f
f0
11
f6
1d
ee
19
07
02
fd
07
f1
ef
f8
02
ef
f9
02
e3
f4
07
f1
ec
ed
02
01
f4
08
f1
0c
0e
e9
19
ff
ff
0b
07
ee
16
ed
0b
ef
13
05
e7
11
ed
11
fc
16
f7
f9
f6
08
e6
08
0a
00
ed
f9
14
0d
f9
ed
f7
05
fd
07
00
02
f3
fd
e6
04
ec
f1
f9
fb
05
00
1a
fc
e9
0c
e9
03
fd
fb
09
00
ff
fd
04
09
01
ec
07
01
01
06
e8
f3
05
02
06
06
fe
f6
f6
f8
09
06
0c
07
0e
f1
dc
f5
04
f1
00
0b
f7
fc
f6
04
fc
fe
00
f7
08
11
05
f8
0b
e4
fb
09
0e
08
0f
0e
03
f6
fa
06
ee
00
fc
f6
ed
18
ec
16
0b
f9
f6
18
03
f9
04
16
f2
fa
ea
fd
00
06
07
f4
f9
02
f6
10
16
06
02
02
0b
00
fd
f7
e8
00
04
0c
04
01
ff
fe
f8
00
08
01
fc
fe
fc
03
f6
f6
03
f9
e4
fe
f7
f9
ff
01
0d
07
0b
ed
0a
f7
08
02
fe
00
fe
fc
fc
1b
04
e2
08
fb
fa
f3
0b
fa
f9
f1
fd
09
01
f3
00
fd
fd
f8
f6
ff
fb
0b
eb
08
ee
08
00
13
f4
f3
f9
ff
fb
01
f6
ee
d6
0f
f5
fb
ef
f8
10
ef
0d
f7
ec
eb
00
0f
01
07
f3
0e
f7
fe
0f
fc
02
07
0a
fa
06
17
fc
fb
f7
10
06
0a
f2
ed
03
1c
f2
e2
f1
ff
12
05
ef
01
f1
fb
e0
06
ef
ea
1a
e6
fd
f3
01
fb
12
ef
13
fe
02
00
10
1b
fe
09
0c
f3
fc
ff
1b
05
0f
0a
01
f1
f9
01
01
e7
19
1c
f4
f8
f2
1d
0d
fb
00
ed
08
fa
08
08
03
f6
fd
ec
00
f2
fc
f8
00
0d
07
04
e5
fb
ec
fc
fb
14
f9
1b
fd
01
05
fb
02
08
16
ee
fd
fb
0b
fd
09
01
1b
e6
f2
fe
12
00
00
15
fd
06
10
f2
01
19
06
01
fe
1c
f8
e1
18
fb
ed
0d
19
e8
ed
1d
fd
f5
17
f3
02
09
13
03
fc
f5
1c
04
f8
06
e5
03
e7
ff
f0
08
0a
10
13
f5
0c
f1
0d
f9
f1
f8
e9
fb
f6
fe
00
03
00
fb
09
f6
f3
f9
06
09
0f
03
02
14
17
fa
d5
fb
f9
fb
07
fa
ee
fd
00
00
f5
1a
0c
0a
f6
08
ee
f9
e4
e3
fd
01
fa
04
fb
04
e9
f2
01
f9
f6
fe
02
09
fd
f7
f2
e5
f9
0e
01
f6
e9
00
07
11
0a
05
13
0a
fe
ee
f9
01
1c
06
02
f0
01
f1
f7
fd
fa
f8
06
f6
1e
05
fa
fa
f8
04
00
13
01
f9
01
ed
f7
f0
fa
f0
00
fd
11
f8
f9
fb
08
03
0a
0d
f0
00
e9
fd
f1
07
ed
10
02
f8
f4
f4
00
f0
00
f9
f0
01
0b
fe
fa
0a
00
01
0d
12
15
15
2a
07
1b
ea
0f
ff
f4
fc
f4
fb
da
0c
ec
f3
f9
00
ff
fe
0e
fe
01
ec
1b
ea
10
16
f9
dd
06
fb
0b
07
11
1c
f6
fe
ee
09
fa
10
01
13
f8
fd
0d
08
0b
fa
f0
04
f0
1a
04
f9
17
01
04
15
1c
13
fd
f4
15
f9
ff
12
0a
01
0c
f7
06
fa
ea
00
fd
05
fe
f6
05
05
10
0a
07
f9
0a
0e
12
22
14
13
f9
e9
18
16
ff
f8
1a
f9
fb
f5
06
15
04
07
0e
08
07
01
ff
fe
0d
f7
0b
ed
03
f6
fb
04
08
07
ef
09
08
01
07
13
f1
f6
fa
1a
ea
0e
05
05
08
02
f7
f8
f6
f4
15
06
eb
fb
0c
e7
04
0b
01
09
00
1c
fd
fc
0a
f3
02
0e
fd
0d
fd
02
f8
f1
01
08
09
fe
e5
e5
09
e2
ff
e8
fe
fa
f3
04
11
f1
0b
03
10
14
20
ed
26
f1
fb
09
0b
08
f7
0b
00
14
0b
f5
fd
0a
fb
0b
02
fc
f2
14
fe
1f
df
04
00
00
02
fd
07
f2
0d
fb
05
f3
09
00
14
f0
05
10
06
f8
f0
1b
f1
0a
07
fb
08
05
15
fa
02
fa
fc
f2
0a
f8
f8
f5
01
f8
0e
09
08
db
00
ff
fa
eb
f7
f3
f6
f2
06
e6
fa
fe
e3
f1
0d
02
f4
f9
00
05
f9
fd
d9
f8
04
ec
07
fa
fd
f3
f2
ea
0a
02
f7
f9
02
00
07
ff
fd
05
f8
00
09
10
f8
1c
fa
f3
ff
ee
09
08
f3
f8
07
fa
02
f7
03
00
fe
0e
ea
f4
f4
ee
ed
f1
f9
04
fc
fc
ff
07
05
05
07
fa
fc
f5
f6
04
0c
fc
09
02
f8
14
ec
05
f0
f1
fc
13
0f
eb
0a
fd
f7
03
13
14
fb
f7
f8
f5
ff
fc
ff
fe
10
07
f5
fb
fc
10
02
f6
eb
10
05
f8
e5
f0
01
f5
0c
00
0a
f8
ea
01
ec
09
06
fe
ef
fe
17
07
f4
06
f1
0e
eb
fd
16
07
ed
03
04
09
06
f9
05
f4
01
f5
f9
00
fb
fd
00
fc
22
03
2a
18
00
03
fc
e9
ef
07
01
fa
03
ff
f4
07
03
07
08
f1
0f
05
09
17
06
1c
e9
08
12
03
fe
00
0f
0c
ea
1e
07
eb
f3
f0
06
f4
00
10
f6
01
f7
09
01
14
01
ec
0a
18
ee
fc
f0
e8
fd
02
fb
fd
fb
04
f9
f3
0a
ff
0e
e6
16
0f
f5
1c
f4
03
01
02
0e
f3
f8
0a
01
fd
0f
05
fd
0c
05
f8
f9
09
0e
e8
e4
0b
fe
14
14
09
ed
ee
06
f8
26
05
12
1a
f7
0a
0d
17
fa
19
08
fd
f8
fd
01
e6
e4
f8
05
27
ec
fa
15
0d
1f
04
16
f0
f9
fa
09
08
0a
f9
ff
fa
fc
e0
0a
11
10
fa
1f
01
05
0c
f2
fe
ff
00
ff
fb
f3
f0
f8
00
08
ea
f8
ff
ee
f4
e6
03
1a
e1
f0
f5
ea
09
01
f9
f9
f0
fd
f1
01
ff
f8
fb
fb
08
03
ea
f1
ff
04
f2
12
03
07
10
eb
15
04
00
ff
01
f5
f3
fc
02
fc
fe
fb
f8
fc
f3
05
03
08
10
02
26
f5
fd
fb
ff
35
f4
1f
ef
01
f7
ef
f6
1d
f4
fc
f2
df
ec
f7
f9
f7
0e
eb
ec
fa
f4
ff
08
fe
0d
f7
e1
09
0c
05
ec
f5
f4
04
05
e4
f4
f5
16
f2
01
ff
fb
0f
11
f0
fe
fd
fa
f7
09
ed
ed
0f
11
ee
f7
fb
06
f9
16
0b
ee
10
ed
f0
01
0b
f5
fb
15
03
0e
04
fb
01
10
f3
0c
17
02
f8
19
03
1f
04
11
02
02
00
00
0a
21
ff
19
ec
fc
19
15
fa
06
ec
02
f0
f0
06
f0
15
ec
02
fd
f5
05
13
01
fe
0f
ef
08
ef
0a
fb
f7
06
fc
f8
ed
02
00
06
fc
02
0f
ee
f9
d5
e6
fd
0a
f5
ea
ec
fe
02
00
ef
ee
e9
05
08
fe
00
fd
ed
ff
f4
04
05
fa
f3
07
07
fb
e1
f2
05
06
ed
f7
ef
fb
03
ef
05
e2
01
00
08
f2
fa
f5
05
05
09
03
fa
0b
f3
f8
fa
ed
db
e6
03
03
01
12
05
ec
f1
fb
0c
06
0c
01
f3
0f
00
09
f1
0b
00
f7
ff
07
fd
ff
ea
ef
00
08
f0
03
06
05
09
f3
f6
fc
f1
f8
05
f9
0d
0f
fb
fa
03
fb
13
ff
0b
ff
04
fa
0d
09
f0
fe
05
03
10
11
13
e7
f2
ff
06
fe
0f
03
f6
f8
03
06
fe
02
ed
04
13
06
f7
23
04
0c
0c
ef
13
09
0c
10
fd
ff
1a
07
f9
05
08
14
fb
09
12
0c
14
f7
0f
f2
05
f5
0c
00
02
ff
00
fc
08
f7
0c
fa
07
12
ee
f4
fe
02
01
06
f7
e8
00
fe
ef
00
e9
0c
f0
1a
fd
07
0b
fa
00
fb
e6
05
06
00
09
02
09
0d
04
06
f2
06
06
e2
fd
12
06
fd
f9
ff
09
07
06
05
fe
08
f1
e7
09
ee
11
ee
fa
ea
f3
fe
08
f6
08
fe
01
00
00
0d
f2
f7
e3
ee
f6
ff
04
0e
03
ec
f7
08
f8
02
09
09
02
f7
01
f3
10
01
00
07
f7
fe
09
08
f4
f6
ff
fc
07
06
f3
e6
09
fb
02
04
fa
01
0c
00
09
05
07
0b
07
00
07
03
0e
ff
fb
f3
02
ff
01
fb
0b
fd
07
11
04
14
f9
0d
0a
04
11
05
f4
ee
00
02
fc
fe
fa
12
fe
00
ff
ed
29
07
f6
01
fc
f1
fe
fb
fc
10
13
ff
ef
2a
f6
e8
0c
0a
fc
02
11
19
fe
1d
0b
08
0c
05
fb
05
0a
04
00
03
f5
ed
09
fa
05
f4
0b
f6
fb
fa
0d
01
f9
01
07
0a
fd
02
ec
04
01
ea
07
02
04
ee
09
08
f5
01
04
0a
fb
fc
03
f7
0d
f5
0c
08
01
00
00
07
f5
fa
f5
f6
00
e4
fb
f4
0e
0f
00
f7
fa
fa
ed
02
06
0b
0b
0a
f3
08
f5
03
00
06
ff
0d
14
17
04
ff
f5
06
f5
0a
19
f9
fc
fb
ff
f8
e9
f2
e2
fb
f8
00
f1
f9
0f
1b
0c
fc
ff
fd
05
e3
f8
ea
11
0d
ef
04
00
ef
fa
0f
09
fc
ef
f2
f7
16
00
02
fe
0c
f3
15
fb
19
e4
e6
01
ea
16
fe
fc
ea
fc
03
0a
ff
01
06
fe
15
f1
02
f0
0c
0c
f5
f0
f5
fa
0a
f2
0b
03
e2
f6
ec
08
fb
00
09
0a
ee
fa
f8
f1
e5
0a
ef
09
03
fa
e6
fb
0e
05
f4
04
fb
fb
0f
04
12
f9
f9
0c
fe
0f
f8
00
05
f7
00
00
f3
f2
0a
01
0c
e2
fb
fd
ff
fb
04
ff
f6
f1
f5
fb
ef
ed
0e
0d
10
17
ec
fa
06
ff
f1
f8
f4
f6
00
fe
fc
f8
0d
0e
05
ff
0b
08
f3
fc
0d
03
fa
06
f5
fb
f6
fb
ef
09
07
fc
f2
06
d8
fc
fc
f6
06
04
ed
01
fd
0c
02
f4
fe
fa
10
05
e9
ee
03
06
0d
f5
05
ed
f4
05
ec
03
0d
f7
0c
ff
01
f0
f5
0d
ff
08
f0
01
03
0a
15
f9
05
fd
f7
f2
11
06
08
fa
ee
00
f3
04
14
20
fe
0e
09
10
26
f4
0a
10
fa
07
06
06
f7
02
fc
13
0e
15
12
ef
f8
12
32
ff
11
fa
e9
01
f6
0d
e8
03
f9
06
fc
11
0c
fd
07
08
11
0d
04
f3
03
13
03
0a
06
14
10
1f
fa
06
14
10
06
06
08
12
fc
05
ed
0d
01
18
dd
13
fa
21
05
fd
ef
fe
fd
00
f9
12
05
0f
f0
ed
e1
f5
fc
08
f3
fd
f8
fe
fd
07
fb
f4
ef
04
fc
08
13
10
fd
07
07
0a
03
ff
0c
05
00
f8
13
03
1a
06
fa
04
04
13
01
07
f7
08
fd
fe
ef
f2
0d
fa
0f
15
ff
0b
03
f4
f5
11
f4
04
0c
00
00
09
06
18
05
fb
e5
0b
03
0b
f2
10
f0
f6
f6
f1
ff
ec
0d
08
f8
04
00
ee
0e
0f
04
03
1c
fa
11
0a
ff
e0
11
01
13
ff
fc
e3
fc
f1
fc
02
05
0e
ed
02
01
14
09
08
06
f9
04
0c
ff
02
06
09
07
05
03
fc
0c
03
01
f1
0e
ff
fb
f3
f5
02
04
fa
fa
f3
0a
ef
ff
02
06
e3
f3
0b
06
fc
f4
f8
ef
06
03
e8
05
04
fe
08
f3
e5
00
f8
fb
f6
f7
0e
ea
ee
fd
03
e9
ee
05
f9
fb
e5
fc
e4
f4
f7
fe
f9
01
f0
ed
ec
0a
f7
fd
f0
00
05
fd
14
10
06
02
ec
06
f2
0b
fd
ff
05
0e
f4
0f
fe
04
f9
13
f9
0f
fc
fe
fe
fc
04
12
06
09
f9
11
00
0b
04
1a
00
01
f1
09
ff
07
fc
03
f6
15
09
08
fe
0c
02
fd
f2
fc
03
07
13
fc
f7
f3
f6
e8
ff
0c
ff
01
04
18
2b
1b
04
02
1e
0d
0a
1d
18
01
0f
00
fe
e4
00
ee
06
e5
1b
f4
de
06
e0
1e
f6
ff
0f
ff
03
d9
09
f6
02
09
01
e0
03
ec
fd
f1
04
1e
f7
ff
f4
0e
0d
19
ff
34
f2
3f
e0
10
01
f7
ec
e8
04
01
f1
fd
fe
f8
0c
04
04
ff
f7
0b
01
06
07
f2
07
f6
14
ef
19
17
f9
fc
09
0d
f6
fb
0c
f4
fb
07
1c
03
11
08
fb
f5
fe
f4
01
fa
00
f8
09
e2
04
ed
f5
0d
1f
f4
fe
00
04
08
f4
f7
08
f0
0c
07
f7
fe
f8
f1
11
fc
fa
fc
ef
f8
0d
00
05
fd
f4
08
08
14
f8
fb
0d
f9
14
0a
02
13
09
05
08
00
e9
f7
00
f6
f5
09
fc
0f
fa
fd
f4
09
01
f3
f5
f4
f9
f6
fc
f6
1a
18
fa
0a
02
06
fc
0e
04
f5
12
0b
05
13
00
fc
0a
fe
f3
04
e9
f3
07
12
0e
e3
05
01
06
07
fb
f3
fc
f5
0a
e7
f9
fc
e1
00
08
fe
f5
eb
fc
07
06
15
0c
10
1c
fa
fd
02
0c
fb
f7
0d
05
ff
fc
ed
0e
02
05
0b
01
ff
fb
09
13
0c
f0
f2
0d
f9
fa
ec
f6
03
f1
04
09
0e
19
ed
f1
07
0a
0c
f3
03
03
f8
07
f0
00
f0
12
dd
01
06
0f
01
f6
f7
e7
fc
fe
f0
e5
09
ec
e5
06
15
04
eb
01
00
03
f5
15
f4
0e
fb
f7
17
f9
01
e6
09
f0
12
19
00
f4
02
19
fb
fa
f6
fc
fd
e5
01
e7
08
0d
0b
02
0c
03
f5
ec
01
09
09
08
fa
fb
fe
00
14
06
fa
ff
0a
11
1b
02
fc
fb
0e
07
eb
08
fa
0e
02
09
08
f6
03
f8
f9
f9
f8
01
fd
fb
ff
03
0a
1d
16
fe
08
07
01
0d
05
f1
f3
08
fc
fc
0a
07
05
1a
07
01
04
f1
fd
07
0c
02
0a
f4
f1
fa
04
03
fd
f9
fc
fe
f2
f8
04
10
eb
04
f5
f7
10
11
fc
ff
f6
f9
03
f6
08
fc
fa
06
fe
f1
ff
04
f1
ec
0c
07
0a
02
fc
ea
ee
ec
fd
1b
f5
07
fa
05
07
07
ff
03
f4
03
06
03
21
10
00
1f
07
ee
18
02
0c
06
f3
fa
f7
04
f8
f7
02
f9
13
0a
04
fc
0a
0b
04
e8
03
06
09
11
f3
05
f5
00
fb
0c
01
07
f7
07
05
10
f9
07
00
02
1e
01
f7
fe
fe
07
0b
18
f5
ff
fe
f5
e8
19
04
0a
f6
fd
ec
ff
fa
f6
08
05
0e
ec
0c
e1
f4
f4
04
04
f4
06
fb
f9
0b
eb
05
01
27
f5
02
13
fb
fe
f9
fc
0d
02
02
f7
04
fa
f3
fd
0f
0d
f5
18
eb
09
04
ed
00
02
fc
06
09
f1
0d
ee
00
04
04
06
01
dc
12
02
05
06
e9
09
05
22
f9
13
12
f3
06
eb
17
e0
fc
ef
eb
f9
2c
17
11
e6
07
0b
06
fb
f6
12
f9
f8
ee
f9
0c
04
f3
09
fe
18
ec
fb
fe
05
14
e8
ef
fb
0d
0e
0c
0a
02
17
09
f4
0c
fc
10
02
22
14
f4
f5
06
fb
fc
0d
f8
09
11
11
0b
19
09
0c
1d
06
16
f2
15
0a
ea
13
13
20
fd
ef
0d
0f
03
fc
f5
02
07
13
0f
07
18
07
f9
05
02
11
04
12
03
0a
00
1e
f6
07
0e
0d
15
02
fe
fa
0a
fd
06
f0
06
0a
1d
0e
0c
fa
0b
fe
1c
f9
04
19
f7
ec
17
0b
06
07
07
fa
11
0d
06
f4
15
e6
df
ec
1d
07
f0
ef
0d
07
01
ee
0a
08
08
ff
e1
06
f3
00
f8
f9
01
f2
e7
17
0e
05
1f
06
e8
e2
04
f7
0c
15
ee
0f
f0
06
13
0b
fa
f0
11
ff
07
f8
ec
0f
0e
0c
02
10
12
05
11
16
19
09
07
00
ed
12
f9
0f
10
0c
04
01
05
ff
ff
fb
f3
fc
16
10
19
04
0a
19
14
10
0b
07
f3
17
08
fd
1a
0a
ed
01
0d
0b
18
f8
00
05
04
f9
0c
fb
0d
04
10
ef
f7
f2
0a
f2
14
f6
16
03
f9
f7
eb
07
ef
e4
00
06
00
f6
ff
f3
01
e3
02
05
05
06
05
fa
09
08
0f
03
fd
f8
fe
f4
f8
14
0d
1c
08
f7
02
fd
ff
e5
00
f9
1d
fd
f0
09
ed
fd
f5
12
f5
06
fd
01
0f
fa
fb
fa
fa
25
ff
04
f0
06
06
04
f2
0b
0c
0b
10
0e
01
e7
12
03
04
14
fc
17
15
22
0c
f8
0b
07
0b
09
f8
01
15
04
1c
06
0f
12
05
0f
0c
03
fc
14
12
04
06
17
ee
0a
04
02
14
14
e9
0d
f2
10
f8
fe
04
00
15
0a
0a
f0
00
05
10
f5
fc
f9
fe
02
fa
0a
01
01
f3
f9
fa
e8
0f
0f
fb
07
18
25
17
04
fd
fd
0d
e5
fe
fc
00
f5
07
04
22
15
fa
f9
0e
13
f5
10
13
0a
05
0c
fa
02
00
fc
12
00
07
e4
f6
19
ec
03
f6
09
0f
fd
13
fb
03
f5
16
07
09
04
0e
00
ee
01
02
fe
e6
17
fd
ea
03
f3
f6
ef
0d
fb
f4
f5
1b
f8
f9
f7
09
10
00
df
0c
05
00
ee
09
00
ff
ef
0a
04
0a
fe
08
fa
ed
03
07
15
fa
09
0d
ff
14
02
f0
05
fb
01
f7
fe
07
09
ec
fc
fb
08
02
02
e6
02
f7
02
03
ff
f5
f0
03
ef
09
00
fd
f7
0d
04
1e
fb
f1
f9
09
13
04
06
09
fd
00
fe
09
0b
ea
f7
f4
09
fb
fc
ff
ff
e7
ff
00
ff
00
0b
07
e1
f4
0d
e5
0a
04
0c
f1
fe
0d
f8
f6
f3
fb
f9
f5
16
ec
0a
f6
1c
f6
f9
0e
03
ff
05
0d
ef
f7
08
00
0f
00
00
fc
00
fb
0c
f9
f8
fc
00
06
fd
ff
fe
0b
0d
fa
0b
0c
0d
0f
11
f6
16
01
13
00
ff
fd
f0
18
02
fe
f0
02
ef
ff
00
09
02
fd
f8
f3
fa
07
07
f7
1a
10
26
ea
04
08
ed
10
00
12
f4
08
01
0e
04
02
06
fd
0f
ff
05
f2
f0
f5
ff
fb
e2
0d
0b
10
06
0d
02
e5
07
05
08
f3
13
07
12
0b
fe
0b
1e
02
04
10
f1
fb
03
eb
08
00
06
11
fc
11
f6
f4
f9
08
f8
18
ff
f6
fc
0a
00
04
fc
ee
e9
fc
f8
01
0e
fe
e9
12
f7
f9
f7
07
f1
ea
03
f2
10
f1
f9
f5
04
e5
ec
fc
f0
f6
fc
ec
ff
00
e8
f3
04
08
f1
fd
f2
f5
fa
ea
0c
f6
0c
0b
f7
f0
0b
fb
f3
f9
01
f8
f6
f8
01
00
13
13
05
02
0d
01
02
07
f5
00
fc
fb
17
ed
f8
12
09
00
f7
06
f3
0b
ff
04
fe
f2
03
0a
19
fb
f6
f6
ff
ff
09
ff
f8
ee
f8
fc
10
fe
fe
f9
f8
f7
fc
fc
1a
fe
01
f2
f6
fd
fe
02
f3
f7
f0
fe
f9
fa
0b
ef
eb
f8
fa
f9
0a
e3
05
f2
f5
0b
e5
0b
ec
ec
ec
00
08
07
f0
fd
ff
f8
0c
0e
02
06
01
01
17
fd
05
0f
fe
14
ff
09
00
fb
e0
17
0d
ef
ed
03
f9
03
fc
00
04
f7
f8
ff
f9
11
03
fc
0f
06
f2
f9
fe
02
f6
00
fa
0a
06
00
02
fd
0b
08
f2
0b
0e
ee
fd
f0
f0
f9
fe
fd
f9
f3
f6
0c
02
07
f4
12
05
01
f6
02
fa
f7
07
07
02
fc
f3
f7
00
ef
12
0b
f8
02
fb
04
09
05
f5
00
ff
12
f4
02
05
10
f6
00
f7
e9
f8
04
f9
f5
f6
f0
f9
ef
1b
fd
f8
02
fb
00
fe
fa
05
f2
f4
02
0b
fe
04
ff
fa
fd
0c
e6
f2
03
f9
07
1a
00
f9
16
15
0c
1a
17
00
13
f1
fd
ff
ee
df
f9
ff
03
05
fd
0c
ff
de
f8
ef
f7
fb
f6
fb
fd
e9
ef
eb
01
f5
02
fd
05
f3
07
04
f3
06
04
fb
ec
0d
05
f9
10
f6
ee
02
01
f5
f9
03
0c
f9
fe
fe
ff
02
06
fe
01
02
00
f8
03
01
00
f3
f7
f6
00
fb
f6
00
fe
fd
08
0e
fb
fe
fc
fa
03
0a
f0
fd
f2
f3
08
fc
01
00
f4
05
01
fd
f2
ee
03
f8
e5
e9
f3
f5
fa
08
f2
ed
f4
f6
f9
04
0d
fe
fb
fe
17
04
00
12
fa
11
df
fa
f5
fa
10
fc
fb
0a
ff
f7
10
f4
fa
12
08
0a
f1
fe
09
fa
f3
09
0c
f2
08
fb
ff
0b
02
01
00
00
f2
04
08
e7
fe
e7
00
f6
04
f2
e1
eb
ef
e5
fe
f6
f7
fd
fb
f0
02
f5
fc
f9
00
06
fa
03
f9
fd
02
09
f2
ff
ff
f0
f7
ee
04
ef
fd
f5
f9
e8
fe
fd
f6
e6
00
08
fd
fd
ea
03
fd
fc
fd
03
f6
06
f4
f1
f7
fe
f2
08
f8
f1
02
f4
f6
04
fb
08
ed
0c
fc
00
fb
05
1d
f6
0c
08
e3
18
0f
08
1a
e9
0f
fd
14
35
ff
09
fb
f6
05
03
18
19
e1
17
f6
1d
12
04
f0
14
ff
0b
0f
fb
0b
11
12
0b
02
1b
fc
fd
0d
18
00
06
02
f7
0a
10
fb
09
f6
04
eb
04
12
0d
fa
26
02
07
0c
12
04
e3
1c
0c
ee
1d
0d
f6
0e
e3
0a
16
18
0e
fa
05
13
08
25
04
10
1e
08
13
1e
fd
08
14
0f
10
02
12
ec
fe
11
04
10
1d
0a
27
10
ee
19
02
14
05
1b
f5
e8
07
03
1e
04
fd
fe
07
d6
03
12
10
fa
f2
f9
f5
04
0a
18
f3
06
f3
fe
08
05
f3
f5
e9
ff
fe
05
f1
05
08
f1
07
fd
01
d3
02
ec
16
eb
f7
f7
0c
fa
ee
1a
fc
f6
fb
fd
f0
01
05
e6
fe
f4
07
fe
e9
f8
dd
04
e7
f3
eb
fc
13
03
10
03
0e
13
11
0f
18
10
01
0a
0b
02
12
01
12
0d
10
04
f9
09
06
0b
f8
f6
f7
12
0e
14
0a
04
1e
03
0c
0a
09
fe
16
0e
02
15
10
fd
ff
fe
fe
11
04
07
03
02
fd
03
f9
0a
0c
16
02
0a
f4
0b
08
0d
10
02
0c
f3
12
17
20
11
18
00
fd
0d
0b
15
07
0c
fe
f5
09
05
03
0a
ff
09
08
00
f5
0c
05
0a
04
fb
19
09
09
0b
fb
11
0b
05
ef
0f
0f
0a
06
f0
0b
12
10
f6
0b
f9
fc
fa
0a
ff
01
ff
f3
12
ff
06
0f
fe
04
fa
05
0e
02
ec
eb
00
11
17
01
08
fe
f1
f2
f9
13
02
00
f4
e8
03
01
f1
f2
e7
0e
f9
0e
e7
f6
0b
f7
fa
07
f5
0a
f8
f5
e9
0d
fb
f7
f3
f6
1e
eb
fd
04
05
ef
1b
e5
05
e5
09
01
14
16
fd
f8
0b
03
0c
00
fa
00
03
11
fb
0c
04
10
f7
00
0f
01
11
15
e0
11
12
0f
16
08
12
0a
16
0e
17
0d
16
fa
0e
05
05
0a
ed
fc
01
f2
0e
17
10
12
0a
09
09
0c
0a
12
12
fb
f4
0f
1a
03
0a
0a
0d
00
fd
10
f5
0a
ff
07
f9
06
0d
e8
f6
12
ef
fa
09
04
e0
0e
0d
ff
f8
08
ef
f0
06
01
fd
1c
ff
f4
eb
ff
06
f7
05
eb
ff
01
00
0c
09
04
f9
f5
08
0b
13
f0
f5
18
0e
ff
f5
02
f2
0a
f9
f6
f9
13
fe
11
e3
05
f4
f6
07
18
ef
01
06
f6
f8
fe
fa
0d
fb
14
07
14
02
f4
0c
15
06
18
f9
fc
11
f6
06
f2
fe
0a
ff
fa
fb
ec
0a
ed
0e
13
0e
08
11
1c
fc
ee
11
13
fd
eb
08
0e
f6
e4
fb
06
22
0d
03
07
03
fa
00
fe
19
f2
0c
0c
13
fc
18
f3
07
ee
0a
07
0b
fc
f7
f4
ef
e9
09
0b
fa
06
fa
ed
0c
f6
e6
f1
09
14
fe
f3
04
04
13
fa
04
f2
01
e7
f1
f3
0a
f0
f5
f8
0a
eb
04
10
fb
eb
0c
12
0a
fd
f2
fe
07
09
ff
04
08
02
f7
f2
f0
ef
f5
14
f2
f8
ec
06
01
ef
ee
07
fd
00
0f
06
e9
fc
07
08
00
ef
0d
00
0b
fd
0f
17
e9
06
14
05
01
04
11
1d
f3
04
fa
e6
1c
0c
ff
f4
f8
e7
0e
f5
1a
f5
fa
08
f6
0c
06
24
06
e8
0e
fd
02
fd
ea
fa
f9
15
13
10
f8
13
1a
f0
09
05
0b
12
01
f1
03
05
05
01
f4
14
ea
07
0b
10
07
04
06
fd
fe
fb
ff
02
f1
0d
0a
05
0a
0a
07
15
ef
0a
01
00
f4
06
03
02
21
09
f9
01
02
f5
01
ff
05
02
ff
06
07
fe
fd
f6
0c
06
09
04
02
f6
10
1e
f4
e9
e5
02
11
f7
f5
0d
e5
0b
12
04
fc
fd
09
e2
fc
f7
0a
0d
f1
e5
e7
fa
1e
d7
13
17
1b
fe
ef
fa
07
16
ed
10
09
04
fd
02
fa
f4
0d
ed
fb
f3
ee
fe
02
f8
d1
0b
0d
fe
ef
0e
e8
e5
08
e3
01
08
ed
fe
f1
12
06
fb
12
05
fe
ed
05
04
f9
16
fc
06
0c
00
08
fc
11
f5
ff
ea
0a
00
09
f5
11
07
04
04
f3
f4
f8
ea
01
09
04
03
f8
0d
eb
08
f6
fa
fb
fa
1b
0c
0b
02
ec
05
04
ef
0d
07
09
02
05
f9
fe
0a
fb
05
05
e7
f8
ff
03
f8
f7
f4
e9
f6
02
f8
09
fc
10
0b
fb
ea
04
fc
ed
fa
00
00
e7
f6
ee
03
fc
f8
01
fe
e1
03
06
e9
f0
08
f7
f5
05
03
fa
e6
ec
ff
fc
0b
f1
00
ee
e6
eb
f2
ff
f1
f9
03
f4
fb
f9
eb
f7
ed
07
06
ff
dd
fb
f0
04
fc
08
00
05
fa
05
ea
fd
fc
ff
05
08
08
f6
0d
f0
0d
fb
fb
07
f8
fd
0a
fc
fb
ff
00
f2
06
00
ef
f8
fa
ff
f9
ff
f4
f3
e7
ff
f5
f2
00
fb
02
fa
f7
05
01
0c
0b
00
0c
08
ef
07
f9
08
ea
f5
07
fb
f6
04
ff
ea
f1
0d
f5
05
01
f8
fe
00
06
04
fb
fd
fb
f9
13
f8
fc
f5
f7
0d
07
0b
08
f7
05
f8
01
00
05
05
04
0f
0b
03
08
fb
f6
16
fe
ed
fc
f1
0e
f6
f1
e8
02
e6
00
fa
fd
ef
fe
fb
ef
02
f2
f3
0a
ef
fc
f4
ff
09
03
d6
1d
fe
fc
03
0f
e6
fc
f7
05
e1
14
02
e7
02
06
15
07
00
ee
fd
05
ee
01
07
f4
e9
09
f9
f8
03
ed
00
00
f8
f5
e7
0a
fc
03
09
e7
f7
f9
05
f8
fe
16
03
f0
f1
f6
0a
f7
06
f5
0a
17
09
fa
f7
f7
ff
09
ff
0d
01
fb
f0
09
f8
05
fe
0b
fb
fb
fc
0b
fc
0a
f7
1c
04
00
fe
fa
fb
f5
f1
ee
09
0d
06
03
f8
17
fd
f8
0d
f9
0d
fb
08
05
fc
fa
0b
dc
04
fd
08
fd
07
f8
07
0b
03
f5
f3
f0
05
fe
e5
f0
0a
f5
f3
0b
1a
e9
f7
04
d7
0f
0f
f7
fe
fd
03
f7
e2
08
0f
04
02
fb
fb
08
0b
14
ec
eb
0c
f7
0e
f6
f3
12
fa
06
fc
f1
0f
08
10
00
0d
0c
f5
fa
ef
e8
f5
f8
e2
f8
f8
17
f4
05
fc
0c
10
01
11
fe
17
00
fa
0e
02
10
fb
0a
e7
0a
fc
f9
03
f6
fd
10
f9
fa
02
ff
0b
17
04
f0
14
f0
04
05
10
08
f3
f7
14
0c
05
ef
ea
13
f4
16
05
17
11
fa
1a
f0
f7
fc
17
fd
0c
03
02
f9
04
e8
fe
0d
02
04
03
11
e8
f7
fc
0b
f0
f9
07
e8
13
02
e7
f5
00
01
07
0a
0f
fc
ed
f8
f9
11
fe
f0
05
07
f4
10
ff
04
ee
e7
01
0f
0b
f3
f0
11
f8
03
fa
fd
05
f2
10
eb
09
07
e9
05
fa
e1
0e
f9
06
02
fd
fc
00
04
07
0a
22
fc
e9
10
10
00
0a
07
07
0a
14
32
ed
18
2b
0b
0f
0a
14
fe
f2
10
08
03
12
d6
1b
36
23
0b
de
0c
05
00
f1
f6
10
11
05
02
09
2c
1f
f4
f1
12
08
ff
02
0c
ee
10
ed
fe
07
f6
fa
eb
f8
f3
02
27
02
fc
00
f3
fe
04
fa
f5
f8
f4
f8
f7
04
eb
fc
04
fb
0a
08
f9
fb
00
01
0b
ff
0a
f3
fd
f5
f2
fe
fc
01
ff
ef
f0
ff
f5
eb
f9
01
f2
04
08
fd
f4
e8
09
01
04
fa
fd
01
fd
fb
e2
ee
f5
10
02
01
f8
f7
f4
07
1a
0d
0d
01
05
07
07
08
0a
17
fe
01
f8
f6
09
eb
0c
11
ff
12
ef
f5
0e
04
f5
02
fe
0f
0f
f0
f4
00
08
fe
fa
fc
0b
05
13
05
0d
0e
00
fc
1a
0a
14
07
f2
00
11
06
fa
01
0f
2c
09
12
04
0b
03
f1
f9
0c
13
ef
02
0b
f7
e4
1d
14
f6
ff
e2
09
d3
06
fe
e2
00
07
f6
ec
ff
0d
f2
12
f2
06
21
fd
de
d9
09
18
09
fd
07
10
00
02
f8
08
fa
12
f9
ec
0c
13
f4
ff
fe
fe
fe
03
ea
02
04
1d
07
07
ff
38
1f
fc
f3
0c
09
fa
f7
ec
0f
16
06
08
04
03
f8
06
11
ee
0d
10
00
fd
1c
0f
ec
0d
05
fa
fb
eb
f8
f6
16
04
04
00
fc
f8
08
04
39
f9
f1
f8
2e
12
f8
f6
05
ec
04
e5
02
fd
09
ef
0b
04
f1
00
11
0f
fc
f3
db
f8
f3
f6
13
ff
11
03
05
f0
06
04
0c
1b
08
10
f5
12
18
f8
00
07
1b
fd
08
0f
fa
04
fa
0f
fa
fa
fc
f0
f9
07
00
08
10
0d
0d
07
06
04
04
05
06
1c
14
06
10
08
f8
22
f3
0f
f1
22
04
14
f7
ff
fe
0d
0d
13
e7
08
f8
f7
f4
fc
00
f1
f2
e5
e5
f3
12
e3
f5
08
f6
ee
08
fa
04
fb
0c
01
ed
fe
f9
09
04
e8
ed
e4
e9
f5
e5
fb
f4
f9
f0
f3
f3
de
ec
f7
f2
07
08
f8
00
f2
02
f9
f5
09
ed
fd
f8
fb
04
00
fa
06
13
f0
ee
f6
04
01
ea
fb
01
05
14
ff
14
fb
00
0c
f4
f6
ff
ef
02
09
fe
0f
ff
02
f2
00
0a
ee
1f
fb
ec
04
fc
0c
10
e8
f1
fe
0d
06
1d
f6
02
f2
0e
f4
0c
17
0d
03
03
f8
d5
ea
fd
f2
e8
f7
f6
02
f9
08
02
f9
0e
04
00
05
02
12
0f
e7
17
f0
f7
03
f0
f3
f3
02
0a
ff
0f
03
05
ef
f4
f9
01
0c
12
fb
ff
16
00
05
f9
ff
0d
f5
0e
0a
01
07
05
0f
06
f3
1a
f9
0d
0f
05
fd
ff
09
f4
07
0a
fa
04
09
ff
09
01
f7
06
fd
07
f5
08
04
02
f8
04
f5
07
08
1d
ff
ee
08
02
fa
06
02
15
14
f6
02
08
f7
01
02
0a
0e
02
0c
02
0c
f7
12
01
02
1a
ea
f9
fc
1e
17
f8
17
22
0f
19
01
06
1b
fe
fd
02
fd
fb
fb
fc
fe
04
fb
fc
ea
01
f8
08
fc
fa
f7
fe
e3
f9
02
0e
f7
04
e0
f0
00
f6
01
01
fc
ef
08
17
00
01
ee
e2
0a
f5
00
05
07
02
06
fa
04
04
02
06
fd
11
ff
f1
15
0b
ee
0b
13
fd
13
ff
06
ef
f9
fc
ed
01
fa
fc
fa
ff
f5
f1
f6
f8
f8
eb
06
04
f2
07
e7
fd
04
01
03
14
0a
eb
16
f7
03
f6
fd
e8
f6
09
0b
fb
fb
fd
0e
0f
0e
e9
05
fd
1a
fd
f6
fc
f5
0c
f9
04
10
fd
1e
04
f2
0e
13
fa
01
fb
15
f9
fc
05
00
0a
ff
e0
06
f5
fa
f3
ee
ee
02
fd
e8
f8
fb
0c
f6
f1
03
f5
f5
f5
06
01
fc
05
e9
f8
fe
ee
f9
fc
06
0e
f9
fc
f7
f7
06
02
fb
fd
06
00
f6
fb
f6
f1
ef
09
03
f3
ff
fc
f2
02
01
0c
04
f6
f3
00
01
ef
ed
06
fe
fe
00
fd
f9
f6
08
ea
f3
ef
fe
01
ea
fd
18
fb
0e
0c
f6
0c
f5
05
08
11
fa
f5
fc
f5
f0
04
09
08
f8
10
09
06
19
0e
1b
03
14
fb
fd
07
fc
fb
f4
ff
00
fc
08
ef
f0
0a
fa
f5
fc
10
06
15
03
fe
13
00
04
f8
ee
f7
00
0f
0c
f2
f6
17
07
f9
fc
04
02
fe
03
f2
1c
fb
0a
11
0d
f5
01
f4
f0
03
13
0e
fb
02
00
fc
fd
0c
f3
0d
f0
13
e3
02
05
fa
f7
04
f9
fc
ff
f5
f6
09
0a
f1
0a
ee
fe
f5
07
fa
ef
f5
07
fe
fd
f7
07
f9
16
02
18
08
10
00
05
10
06
13
fd
14
f9
25
f7
03
03
01
03
09
0b
18
f6
08
0c
0c
ff
ef
fe
ff
01
10
00
e7
12
09
0d
07
f8
08
08
15
fa
02
f9
18
06
fe
06
11
fc
fd
fd
02
fe
fa
0c
f8
05
11
0d
11
08
ee
f9
f9
04
f7
04
06
f4
fb
e7
03
0a
f8
04
f5
ec
f3
02
fc
07
01
03
f9
fe
0d
ed
f6
00
f3
fd
04
f1
f0
ee
fe
06
f6
ff
f9
02
f7
ea
ef
fe
03
f2
f8
f7
fe
f7
08
f1
d7
f4
08
07
f2
fc
f6
f9
f1
fa
d3
01
ee
0b
05
fb
f5
0b
ee
07
fb
0b
f8
e3
0e
f6
0b
fc
fc
f1
02
f7
02
f6
18
f8
ea
f2
02
f8
23
0e
f4
02
fd
1c
f2
0f
07
0b
0b
fa
f5
f9
fd
f9
f4
14
10
ff
f6
f5
13
0d
f8
04
10
ee
07
07
05
ea
1c
f4
0c
01
09
e9
fd
01
19
fa
06
f1
08
14
fb
02
01
fe
ff
08
f7
01
03
0a
15
e6
f6
f4
06
fa
f9
f4
04
f0
ff
12
f1
15
0f
17
0a
01
fc
fb
eb
13
1e
df
06
eb
07
09
f0
fc
ff
f7
fa
1a
fe
14
e1
0b
0e
00
fd
05
04
e7
ea
f3
fd
e6
16
00
fe
07
09
10
10
08
15
fb
07
04
18
06
06
13
0a
00
f4
1c
eb
e7
f4
07
ff
01
0e
fd
f8
04
ef
19
0b
0e
1a
e6
06
fe
14
09
fd
0b
08
f3
fc
14
e8
12
1b
f1
07
e2
f6
03
fb
eb
fa
15
0e
14
fa
e6
0b
11
04
fc
f8
cb
fd
f7
09
f2
f8
e1
04
04
f9
17
fb
f1
f5
09
f2
fe
04
fc
fd
fc
02
07
f8
f7
01
f8
f8
f5
f7
f3
fb
f9
e8
03
fa
f3
0e
ed
f0
fd
15
00
03
04
f4
00
f0
0b
ed
e8
0a
fd
14
0b
ec
18
11
0c
fd
0c
f9
0a
f4
ff
05
06
ef
f6
07
04
f6
06
ed
fa
09
e5
f9
fd
f6
08
04
06
fd
ef
fd
0d
07
f3
ee
fa
ea
ff
f4
ff
28
fa
fd
1a
0d
f8
ed
03
f6
0e
fc
11
f1
f8
f7
15
0b
f1
05
fe
02
12
e9
f3
0b
ef
0e
fb
01
ed
09
f5
0a
05
08
13
fd
f9
fa
f3
08
ff
fb
fa
13
08
00
de
0b
03
e8
f4
ef
06
14
f8
e8
fd
02
04
f1
fc
f8
ee
fe
f5
17
01
09
09
ef
08
fd
fd
04
02
fc
06
00
f1
f3
00
0b
f3
ed
fc
03
06
f0
ec
fa
e8
f7
f2
ff
f9
fc
dd
04
f6
08
12
f7
e3
0f
f2
0d
07
1c
0c
fc
fd
fd
f7
f8
e0
d5
0a
fc
07
f7
f8
02
f2
0c
fd
e2
f7
ff
e9
0c
ed
e5
fa
eb
12
13
e7
06
f5
fb
16
01
fd
f2
0d
f9
08
08
14
ef
01
e4
f2
0a
e4
07
04
f4
f2
1b
e6
03
06
f8
fb
04
0c
0d
fb
ff
ed
13
ff
03
00
02
0a
ea
06
fd
fe
fc
ef
fc
f9
fc
fe
ff
05
f1
f0
f9
05
14
e7
03
03
ea
f1
f5
f5
f3
08
fb
00
f5
01
fd
f1
11
03
f5
ee
f9
00
ef
e9
00
f1
fd
ef
0d
fb
fc
f5
01
e7
f8
0c
f5
f9
ff
e2
0a
fe
fb
f3
fd
f6
ff
05
0d
f5
fc
11
f1
f0
ea
f8
fc
e0
01
fc
fb
f4
05
19
0e
ef
14
13
fc
e2
ee
fc
fd
03
fb
00
f9
00
03
fa
04
01
0d
ff
ed
f3
f2
04
16
fb
f7
04
fe
f4
ea
0a
02
12
f4
f8
fa
0c
1c
fd
07
f4
fa
ee
1d
ed
03
28
07
0e
0d
f9
fb
fe
ff
e0
fc
d2
fa
0b
e6
12
fc
fd
08
d1
1e
07
03
ee
0a
eb
fd
18
e5
fa
fc
f1
0c
eb
0d
ff
01
05
02
e4
fe
f6
f6
08
f9
02
12
f8
ff
05
f3
06
19
f9
00
ed
ed
0a
f6
19
ff
fa
fd
eb
f7
fa
01
0e
06
ed
12
f9
fe
fb
f9
06
0b
fa
e5
fa
f5
fc
eb
08
ee
ee
fc
ff
f4
ee
07
01
ee
05
0f
08
f3
e7
f6
11
fc
02
ff
12
fa
fa
fb
03
fb
0c
e6
fb
f7
fd
fd
0f
2f
1f
0b
f6
f5
f9
09
25
17
04
05
f5
04
e0
f9
ee
06
eb
31
10
ec
df
f3
0d
09
01
fd
ff
f5
e5
fb
f5
fa
f5
08
15
0a
ff
0a
00
f7
06
19
0c
eb
e2
f0
13
e2
f9
f9
22
f7
01
00
06
11
08
f2
1c
0a
fc
f5
f1
de
0a
01
00
15
02
fc
e8
19
00
0f
fb
f3
01
fe
ed
e0
0c
03
05
0d
04
16
fe
f5
12
f8
03
02
f8
17
e6
fe
fb
df
11
fa
ef
fe
fc
04
f7
e9
f2
0c
0b
15
09
17
0c
01
02
e1
e3
04
f6
0b
fb
03
f1
17
fc
04
ef
08
14
07
ef
0d
f0
06
14
14
de
03
f9
03
f9
f2
e0
d0
0d
15
f1
e9
dc
f9
12
13
fd
ef
03
0e
e2
f8
ea
05
fd
d7
10
11
e6
e7
f3
00
05
0b
0a
f0
01
f9
0e
ea
00
eb
1d
f6
03
f7
00
f5
fe
dd
05
f0
e4
fb
f2
cf
03
ff
f5
21
0d
ff
d1
ff
14
eb
fd
ff
03
04
07
e8
f9
fc
02
05
f5
09
0d
f2
fc
ed
fb
03
12
0e
fa
fa
01
ef
0b
01
f3
05
f6
09
fd
00
fe
18
0c
18
ec
ee
01
fa
e0
ef
d2
05
eb
0b
ee
0c
df
15
ed
08
05
ed
03
07
ff
07
0b
17
ea
05
0a
f1
01
26
ef
fc
12
0c
07
f9
e5
12
f2
06
04
fc
18
01
16
07
19
0c
18
0c
10
09
f6
22
12
01
05
1b
fc
17
f2
f7
0a
11
f6
e3
05
06
02
1b
0b
06
ff
fe
fd
11
f9
e9
0d
05
04
e7
fe
04
fe
1b
ff
ff
e5
fe
06
f2
f5
01
06
0d
fd
fb
10
08
10
0b
08
0c
fb
0c
00
fc
0a
05
1d
02
f9
fa
03
0e
14
fa
fe
05
09
08
0a
07
18
11
f5
09
ef
07
0b
ff
e0
f7
fb
02
04
13
06
0b
ee
0a
e8
0f
fb
03
f7
0a
11
05
fc
f9
0c
07
01
fb
ec
f6
0a
f0
f3
ff
05
ec
e9
03
0a
f2
0a
06
f9
13
15
02
fb
fe
17
e9
ed
00
02
0e
f8
ed
ee
e3
0e
fc
09
21
f5
ff
fe
04
f6
f8
e1
0d
ff
10
fa
0d
f8
12
f1
07
f0
22
01
0b
fa
10
00
06
f7
01
06
0d
ee
f0
10
fd
04
00
fc
fc
f0
05
08
0d
0a
09
f1
ea
fd
f5
fa
0e
01
f4
ea
0e
f9
f7
0a
03
0b
0c
03
f3
ee
fe
08
0b
f9
f5
05
ff
09
f2
ff
0f
01
0c
0b
f4
dd
08
0a
11
f5
0c
0d
ec
02
11
09
23
07
fc
04
13
13
04
fa
11
0b
03
20
0d
05
13
fe
11
11
f2
fd
02
f1
07
f7
0f
0d
06
06
fd
fd
0c
0b
f8
f8
fc
08
f2
04
02
fe
0b
fc
ff
00
04
0e
0b
ff
f0
f4
00
fe
12
f1
0b
ff
f6
04
08
03
22
13
0f
07
01
28
fe
1a
1f
ed
02
04
0b
f0
f0
fa
05
e8
1d
fb
e0
01
ec
0c
ee
08
f9
1a
07
ce
fb
1d
06
0a
07
11
17
12
00
fd
07
00
13
06
f0
09
e0
12
f8
1c
08
32
1b
0b
00
ed
f2
01
fc
11
14
ed
fd
1d
00
f5
1b
12
11
04
f4
02
13
f5
fe
08
fe
0c
f7
f3
f5
02
10
04
12
09
ed
06
09
f4
f7
03
ea
f9
05
0a
08
f6
e9
01
f6
fa
fc
0a
fd
14
23
00
fb
eb
f9
f0
03
06
1d
0c
f3
e9
fa
f6
0a
14
fb
fd
ed
09
0b
fc
f2
fe
09
14
12
05
0a
ec
fc
fe
13
0d
15
13
f7
04
e2
12
fd
e6
14
07
0a
f5
f0
09
f9
11
fe
0e
f3
da
09
f2
e9
08
0f
f0
f5
04
0d
10
15
0b
28
06
0f
f3
e0
15
f5
f4
ee
ef
f0
f3
06
01
e8
ef
06
e2
08
f5
fe
fb
16
02
10
f4
fa
23
e9
f6
f2
18
10
e9
09
f6
06
da
ef
11
f8
f7
fa
fd
f5
0d
03
e2
fd
f6
fe
fb
03
fa
ff
f3
fb
0b
ff
fa
fb
f8
ff
f8
f5
f3
08
f3
f6
fc
f2
0a
fb
09
fa
05
fb
ed
e7
0a
f2
f3
00
ee
f9
f8
10
f0
15
02
13
f9
05
ed
dd
f9
21
ea
14
06
f3
f4
05
fe
04
01
fc
07
02
07
0d
0c
02
0b
1c
09
fa
05
0f
03
23
04
0e
e7
1b
fc
26
13
1c
08
fe
05
eb
11
ea
00
01
fb
f9
f3
02
08
f5
09
12
f3
ee
f0
f8
00
fa
05
f9
e6
0a
fe
05
00
ef
21
06
04
fd
e4
eb
07
f2
fd
ff
01
11
06
fe
fd
0d
08
02
08
05
0c
05
06
ea
02
08
0e
02
f7
04
00
07
01
1e
fb
08
f9
13
01
be
f7
1a
f3
03
06
fa
f2
f5
03
0f
e9
eb
eb
05
f8
fb
f9
f8
fd
02
fa
fc
06
06
fc
ef
01
08
f3
02
08
ff
0a
fd
06
07
ef
09
ff
e0
fc
ef
10
03
04
fc
07
05
0c
00
06
fc
f7
01
f2
fb
f8
10
fc
09
f6
04
08
05
f5
f9
f5
f7
14
fb
fc
05
fa
00
0a
f5
da
06
08
fe
10
fe
e8
04
fe
10
f8
01
04
f9
03
fb
de
f0
09
16
fa
f4
fb
0e
fe
12
02
f2
06
fc
f9
08
f6
0f
f9
0a
00
09
ef
02
f3
10
05
eb
05
12
f9
06
0e
00
fd
f6
01
05
fd
0d
07
04
10
ef
f6
00
f2
fb
da
ee
fd
f3
0a
19
fe
06
fc
0f
ed
f8
1d
f0
0f
07
e6
df
10
05
07
fc
02
00
00
07
07
03
0c
10
07
04
f4
07
00
fb
0b
f4
00
1a
02
f9
1f
0e
1d
01
f4
07
00
fc
0c
fa
0b
fe
f4
0f
ef
09
f7
fe
f1
0b
f5
fd
01
0b
10
f8
f5
0a
f5
fd
fb
16
04
0a
e7
00
f3
fc
ff
fc
fc
07
fe
f3
e9
05
f0
07
06
f9
f8
fd
fa
14
ee
0a
17
e8
fc
00
01
ea
12
f5
01
fe
fb
fe
06
05
0a
0c
05
fb
0d
fe
06
fe
00
e7
08
0c
0a
fc
00
19
f6
ee
04
04
fc
17
0b
fd
e9
f5
03
ed
0d
fd
f9
eb
e6
f8
0a
fe
04
fc
00
05
03
05
06
f5
e2
00
00
00
fb
0c
f8
03
1e
0b
f4
07
1a
e1
f8
13
02
f4
f8
1d
f4
f0
fb
eb
08
f8
f8
f5
fd
03
e2
08
ed
f2
e7
f5
00
02
f4
04
06
e1
f9
04
f6
fc
10
02
ff
01
03
09
e7
df
fd
03
ff
fc
f9
ff
e9
09
04
f2
fb
ff
ec
02
ea
ed
f9
db
02
03
fc
e8
03
0e
0f
e7
fb
05
06
f8
ef
02
f3
06
e4
f7
ea
fa
00
fc
13
ec
fa
f6
16
09
ec
0e
02
07
fd
f5
00
ed
0b
f5
fc
01
fe
ff
fb
fc
e0
f7
ec
fe
07
f5
f2
fe
0d
0b
0a
0b
00
ff
f3
0f
00
ee
fe
fb
f9
07
fa
f6
00
f6
ee
fc
fd
03
e6
19
01
e5
f2
eb
fc
04
01
0a
05
f6
fa
04
fa
06
02
01
02
14
11
14
09
fd
0b
0a
09
13
03
0d
f4
ff
11
00
e6
f8
03
fb
fa
f0
ce
ed
0b
f3
1b
01
05
0d
f3
f9
05
fa
fb
0b
0b
10
f8
0d
03
ee
01
e6
0d
08
03
f1
17
0e
13
0d
0b
e2
f6
09
f9
f5
ff
ea
f6
17
ee
17
0a
ea
e6
1d
14
1c
01
03
f6
0a
0b
0b
fc
0c
0b
fb
fa
f8
07
10
08
0b
00
f3
0e
e9
04
12
ff
12
fa
0a
f8
fd
fa
05
07
0d
fe
e9
0b
f4
09
0a
fd
16
0e
06
f8
fa
ff
01
fb
12
f5
fb
f4
f2
ef
fa
f3
f1
f9
fd
f1
05
0e
07
f6
07
fb
f8
02
18
0f
13
fe
00
fd
ed
e7
f3
18
1c
f3
ff
13
f4
e7
0a
fe
e9
f8
fc
f5
ed
f6
fe
f1
e9
fe
fc
f1
fc
fb
fc
0f
fa
fa
0d
f7
03
f3
0d
01
fd
e8
e7
06
f3
fa
fd
0e
f4
fa
00
f8
25
03
f8
ea
0d
1d
0c
02
ee
00
03
f2
0e
06
f9
03
02
f6
fd
f5
fe
14
0c
1d
03
15
f1
09
08
0b
05
00
f1
f9
fa
fa
fb
13
fe
04
02
04
fa
04
f8
ff
1c
02
fc
fb
1a
0b
fc
f6
0c
0a
07
fb
03
fb
ff
f1
f2
ff
00
f3
14
04
fd
0a
0a
10
06
f5
03
f1
05
fe
f4
f7
f2
e8
02
01
04
fd
e5
09
f8
f7
f5
13
fd
f7
08
e5
0f
e5
12
06
ff
fc
04
f1
06
f8
06
01
f3
fe
01
10
ff
08
f4
04
fd
08
ec
ff
03
f2
f0
ec
18
f1
03
ec
05
e0
f5
21
02
0b
11
e7
ff
02
f6
f7
f2
fe
07
fe
f4
e5
fd
fa
d6
f5
e7
06
f4
ee
1a
02
07
ff
0d
f5
12
00
ff
1c
fa
03
11
ee
f6
14
0a
f4
f4
f9
0a
02
2d
03
fc
f2
ef
03
f5
09
09
e3
f6
0a
09
00
04
f1
10
11
f6
ef
00
09
ff
09
fc
f4
f7
16
08
f4
fe
0a
f1
02
05
f9
11
fc
09
fc
f0
0c
f4
f4
f4
13
fe
f5
ed
06
f3
ef
ec
ef
01
ff
f5
0f
03
f0
f4
f8
04
0a
f1
f6
e8
0c
0a
09
f8
ee
ff
eb
ff
03
00
fb
f5
01
f5
fb
ec
fe
fd
02
e8
f0
e9
02
fa
09
fa
07
ff
fe
0d
12
00
ec
fe
00
08
eb
f6
f1
f2
fb
09
08
ee
00
04
f8
f0
04
f1
0d
f7
f4
f4
01
08
ee
f5
f6
01
14
11
06
ec
05
f2
10
0a
03
02
08
12
f4
07
fc
ed
00
0e
f9
fe
05
fc
fb
0b
0a
fc
fd
fd
18
09
11
09
0b
f7
0c
03
f4
ed
04
fb
06
fb
ed
f7
09
ed
fc
01
00
07
05
f6
04
e4
e9
fd
00
e5
1a
f0
03
03
f7
03
01
2c
04
ee
f8
08
ff
f6
eb
fa
e2
f8
ef
19
f7
09
03
f1
eb
dd
05
0a
02
0f
f6
f9
03
00
fd
04
fe
f7
e6
fe
05
16
fc
fe
ef
f5
09
f1
09
09
ff
0d
fe
08
fc
07
fd
ef
09
1b
ff
f7
f0
02
f7
f9
fc
04
fe
06
f2
0c
05
01
ed
13
fc
f6
e3
f6
09
eb
02
fa
02
05
04
08
f2
0d
1f
02
00
16
f3
04
14
0b
f1
ff
f9
01
f1
0d
f8
17
f1
08
02
ea
06
da
f5
25
fd
f6
f0
0b
0f
07
ff
fb
06
1f
0a
01
1a
10
08
fa
05
e0
03
01
09
03
1f
00
01
ff
f4
f9
02
fe
09
f4
00
08
ef
f6
07
f3
cb
ea
14
fa
09
13
ed
f0
eb
00
05
07
f6
f3
0a
f2
dc
e5
02
eb
f3
18
02
f6
e0
02
fb
fe
04
12
fc
09
f4
05
04
ea
02
ff
f9
fc
ff
ff
fd
de
fb
15
08
16
02
fa
02
fa
ef
ee
fc
02
db
04
f4
00
f6
08
e9
07
10
d5
ee
f8
03
02
15
10
f2
0b
03
10
f3
09
0a
e9
06
08
fb
12
05
14
fa
07
e8
de
00
f6
f8
0e
04
f8
f4
0c
ef
ec
04
fc
f2
eb
07
07
f9
0e
fc
f3
f7
00
f3
e8
10
0f
01
06
f1
f0
ec
0a
fa
f8
ff
e9
fd
06
f2
ef
14
f6
03
fa
f0
fe
e0
ee
fe
17
ea
f7
0e
ec
e2
0c
0f
f7
fa
11
f9
fd
f3
10
11
f4
12
fb
f3
08
02
14
0b
09
f7
0a
e9
0b
08
02
ff
08
0f
10
04
0e
fb
01
18
fd
e1
fe
f9
fd
f3
03
f9
13
eb
0c
e6
0e
f2
ec
06
0c
0d
0c
0f
0f
f9
00
09
f7
10
21
fd
00
0f
07
09
fc
f3
16
f2
ff
ee
16
0e
0a
1c
0b
1a
11
11
00
0a
08
0e
1b
0a
fc
08
11
05
00
12
08
10
20
f5
03
fb
00
ec
07
11
09
0d
0c
f7
fd
03
fa
01
09
fe
02
0c
fb
f8
f9
00
09
f3
03
17
fc
f2
04
07
04
ec
f5
f1
0b
f9
19
01
f3
fe
10
f8
01
02
08
01
f5
11
f7
02
fa
0e
05
fe
04
12
f7
f4
0a
04
0f
ff
f8
f9
f2
10
01
f5
02
fa
09
0a
1c
fd
fd
f5
10
fe
14
f5
ee
19
fc
f7
10
ee
05
05
e7
07
f1
ff
fa
e5
17
f8
06
03
f1
04
f9
11
fc
fa
fd
e8
1e
e1
0f
01
14
0d
e8
0e
01
ec
0f
0a
02
de
06
06
de
f1
f4
0b
20
0e
0b
f4
f7
05
ec
fb
19
fa
f5
03
02
f6
f9
08
16
fb
fc
1a
19
fe
19
fe
03
14
fb
0e
fb
23
12
ed
10
fc
0a
04
ef
1a
01
0a
fe
07
00
00
1a
e4
0c
0c
f8
0c
10
04
0b
ee
0a
06
0d
e8
0c
fa
09
09
e8
f8
e6
0d
ff
0f
e7
08
fd
04
11
03
09
ee
f4
09
ef
fe
14
dc
0a
29
0c
0f
0a
de
0e
07
02
ea
08
f9
05
0e
0e
e5
02
16
e0
01
e3
0a
ff
ea
24
03
16
d3
0e
06
31
0c
14
1f
0a
f4
f8
e7
fe
f5
f2
04
f7
07
f5
1b
26
13
08
f2
ee
0c
f8
09
09
05
ea
04
1e
fd
f7
ee
13
fe
0a
01
11
03
19
06
0a
fe
10
0d
fc
0b
04
ed
fc
f9
fc
e8
06
01
ed
06
05
fe
07
06
07
09
ff
f8
03
f7
0a
0f
02
0b
05
03
fe
0a
11
f8
08
0f
04
fc
f5
0a
ed
0a
f4
0c
fb
03
0f
03
ef
fc
04
f3
00
ee
04
f9
f2
f6
10
fd
46
05
09
f0
fa
11
06
fc
f6
f0
02
fa
0a
fa
0f
fb
fc
14
08
18
f4
f1
f0
ed
05
04
f7
19
fe
02
03
fc
f5
05
eb
f5
f0
0f
f3
e9
fd
ec
06
f9
e8
ef
1e
fd
03
e9
0e
f8
0d
0e
03
10
fb
09
0c
e6
ea
16
f4
ff
ff
ee
14
ee
04
f7
fe
04
03
19
f7
de
d3
18
0d
f7
1b
f3
10
f9
18
06
f9
01
12
0d
03
e7
0b
04
fe
f8
00
e3
08
01
f4
02
0c
13
f0
02
0a
fd
f7
10
eb
e1
00
f6
f7
04
22
db
ff
f0
fd
eb
08
16
f6
de
0e
f3
0f
fc
04
05
d3
04
f3
1b
fb
f4
07
1b
21
fb
fd
09
00
0b
f6
01
df
f9
0b
d7
ef
0d
05
fe
14
fa
fd
fb
12
06
fc
01
00
ef
fb
f3
e7
02
04
fb
04
0a
01
0d
f4
fd
fa
0d
00
ec
0d
19
e5
0b
02
f8
0c
fe
fe
11
0b
fd
15
fe
02
f0
f8
15
0e
00
ff
f2
fc
fb
fc
01
fb
0e
00
04
f8
11
0f
f6
09
01
12
ff
17
0d
0c
11
01
00
fd
fe
0c
f4
05
07
1d
08
ed
01
f7
03
02
fc
03
fd
08
fd
10
fc
05
ff
1b
f0
0c
0b
06
f3
fa
00
e4
01
fb
0b
ff
0c
df
0a
05
fa
04
1f
18
0a
13
fb
19
f8
03
f5
fb
f6
f6
13
f9
20
f0
f4
0a
f6
07
00
00
0e
00
0b
07
e9
05
fe
0c
11
e4
e7
15
0d
0b
08
ff
f0
fa
0c
1a
e6
09
07
07
01
ff
f6
07
f0
0a
fb
f2
fd
06
e7
04
09
00
0a
05
02
f3
f6
04
00
fd
f9
fc
07
08
f3
ff
fa
02
07
f9
f0
fc
01
fa
07
f0
f4
03
f6
f5
10
10
05
f0
f4
f9
fd
01
fb
03
f7
05
f2
f4
00
f3
f6
f3
fe
0a
f9
e1
f9
0c
06
05
ef
01
f9
f2
00
e9
0b
0f
0a
fe
ff
11
07
02
08
fd
04
fe
f4
0a
01
0e
fd
f7
00
07
01
f4
05
f3
dc
04
fa
f6
fa
fb
fd
fa
12
00
fe
ef
f8
04
05
f1
f2
01
02
0e
05
01
f6
0e
f4
ff
f3
13
fe
fe
f6
11
f4
fc
03
f2
03
ef
10
f8
05
02
09
f6
0c
0b
fd
eb
f2
fb
13
12
f4
1d
02
f6
f2
06
05
03
06
11
04
08
0b
15
08
fe
ea
fe
16
07
0a
07
23
fa
0e
08
15
09
06
00
1c
06
fe
fe
fc
0c
ea
19
fc
06
03
04
e6
f2
03
0d
0e
0a
02
00
00
fd
02
04
06
08
01
fe
f4
fd
f7
f1
f1
03
05
e5
f6
f6
ff
0e
07
0a
02
e3
fe
17
f2
02
fe
05
10
fb
ee
ff
ff
11
f5
06
fe
f8
fe
03
04
01
13
f6
0b
fb
16
00
01
02
f8
16
fc
08
ef
f9
18
fe
e0
1f
17
02
0a
07
06
ec
fc
fc
fc
05
02
00
04
16
07
07
11
f6
f4
0a
ee
df
f8
06
e5
f9
06
fd
fb
fd
07
15
fc
09
e7
fd
f7
08
fc
01
e2
f6
10
f1
f1
fd
f8
05
10
fd
fe
f8
07
08
e2
0b
0e
ed
02
0c
07
08
f5
09
17
00
08
00
fa
00
f8
0e
f2
fe
f5
f3
15
04
ee
07
fc
0d
fc
fb
f0
04
f4
fc
16
fb
01
ee
f4
ec
f2
f4
e5
fe
03
fa
f5
02
0d
e2
fa
06
f9
e8
07
05
0b
07
1b
f3
ff
02
0f
11
ff
f3
04
f6
0b
fa
0f
00
f1
19
04
06
00
ff
0e
f5
0b
05
18
0a
fa
02
0c
10
e4
f9
ed
10
ff
f0
f6
f7
ff
0f
03
0b
e7
01
03
00
fc
f2
f2
08
03
f7
f4
04
ed
ed
e9
e7
00
1a
09
e9
f4
04
07
fd
eb
07
fd
02
00
fd
0f
ed
14
0b
f9
f7
0b
fa
16
fb
ff
03
fc
13
00
02
12
04
f5
fd
01
01
00
03
fc
ea
fa
04
f1
06
10
0c
f2
21
f3
02
01
12
13
f8
f5
0e
09
00
f3
09
fc
eb
0b
f7
05
fb
22
fc
01
06
04
03
f8
0d
03
03
d4
18
eb
11
f6
19
f3
fb
12
15
0c
0e
f6
11
f9
fb
fe
fd
0b
06
ec
25
0a
f7
16
f5
fd
0d
fd
0c
ef
09
01
0b
eb
04
0f
16
04
21
09
ff
10
1e
f5
02
f6
03
fd
fd
0d
03
11
0c
08
fb
10
05
ef
09
08
09
0e
fb
08
f7
f8
04
0f
01
09
fa
fe
14
03
0d
fc
fc
eb
11
0b
03
ef
f3
0d
f4
03
f9
08
12
09
fc
07
09
f8
05
f7
f7
ff
fe
f7
08
0e
fb
fb
eb
ff
fa
fd
f6
06
ee
04
f0
f0
0e
fc
0c
ea
f5
fe
07
fb
fa
f9
eb
fb
09
09
f0
06
fa
0c
ff
f1
f8
fd
0d
01
08
fa
fd
f0
07
03
f9
17
03
09
08
03
06
16
f2
02
04
07
f4
ff
0a
0d
01
f9
14
0c
17
02
08
11
09
ff
10
f5
18
f8
06
f0
1f
0b
ff
fa
17
fb
0d
f2
f8
e9
00
0c
08
0a
ff
05
fd
fc
0a
0e
07
fa
02
0a
00
ef
f0
fc
01
fc
fb
0a
02
03
0a
f3
f5
f2
f4
12
09
f2
f9
f3
fa
04
0e
0d
f2
02
ff
f5
fb
1d
0d
f9
01
fe
ff
0e
0c
03
01
0f
0d
fe
01
14
ed
10
02
f7
fc
fe
fa
0a
04
f6
f5
fe
0a
fd
02
f9
16
0f
fd
fb
f4
0f
09
ec
11
e9
ef
06
f9
f9
f5
03
08
fc
0a
ef
0f
fa
06
f3
eb
fc
22
01
02
06
07
12
f8
17
05
f4
03
fd
03
05
02
06
06
10
04
19
06
ee
ec
eb
fb
fc
1c
ec
fc
05
fc
11
fb
18
de
ef
fa
06
fb
e4
f1
18
f3
f2
fd
e6
fb
f4
f0
0d
f4
fc
11
f2
f4
db
e5
ec
0e
ff
0c
fc
e5
17
24
00
f1
ff
ed
f6
07
fa
08
fa
02
ed
10
0b
02
ec
02
f2
ee
0a
fa
f8
ee
f5
ee
10
fd
0d
ef
e1
f1
08
02
ff
07
00
16
f2
17
13
0a
f6
fd
05
f2
04
fe
04
ff
f2
01
f7
eb
fe
09
15
07
ff
09
ec
09
fc
06
f3
fd
fb
fd
09
ee
0a
e7
fc
f8
f0
fa
da
fb
ff
fd
00
03
fb
f6
ff
fd
ff
f8
08
0f
09
17
19
f3
ff
01
14
18
07
0f
0f
04
01
08
08
ec
20
ff
f2
f7
00
f2
fe
04
12
fe
f7
0b
0d
0a
fe
fc
0c
09
f1
0e
f5
fc
f7
02
00
fb
01
00
03
01
0a
f7
0a
fc
04
01
0a
fe
07
16
02
05
11
02
00
0c
ff
ef
1a
0a
f2
f8
f4
f8
ed
1a
f9
03
f7
15
fa
ff
df
fe
19
09
ea
fa
f8
08
fb
e6
07
02
fb
00
fc
0f
06
0d
e8
ca
fc
e0
f8
e9
ec
f3
f8
fd
df
08
03
1d
00
06
0c
f7
f5
fe
08
f0
12
f4
e6
00
e2
e4
f5
25
0c
e5
fe
e9
06
f6
f7
01
ff
c3
fd
09
01
0b
fc
02
04
05
17
01
0c
f8
fc
fc
09
0e
fe
0b
f4
06
f8
e5
fd
01
fa
03
f8
f7
f8
e5
15
0b
fc
ff
01
12
fa
0d
0c
04
07
01
ff
fe
fc
05
f0
02
ff
f5
05
fd
07
fb
1c
ea
0f
02
1a
e6
00
03
f0
03
fa
02
0d
0b
ed
0c
d0
e8
0e
02
07
fc
e2
fd
ef
09
fd
0f
01
fd
0c
f3
cd
01
fd
ef
00
0c
12
01
0b
1a
01
fc
02
16
f6
02
37
11
01
ff
f9
fa
17
0f
08
0e
14
ef
1f
09
23
07
f6
07
0d
00
e8
d7
fa
fb
f5
fe
0b
fc
f7
0b
e7
ff
01
ee
fb
0e
00
ed
03
f9
fd
03
05
05
eb
13
02
f1
fa
03
03
0d
f1
ff
ff
fe
f1
ec
f6
f4
f3
fe
fd
f9
0f
00
f8
f5
06
05
0c
f3
03
04
e2
03
02
eb
0a
fe
01
ff
0a
01
fc
07
ec
0b
f0
06
02
fa
03
f7
0a
0c
0f
f5
f9
fb
04
e8
0b
fc
e1
fe
11
f9
05
fe
14
f2
15
01
08
1c
f2
07
fb
05
00
01
02
f8
05
05
0f
e5
f7
f9
ea
05
f7
09
f7
08
09
02
02
09
00
0c
11
ee
f8
04
0f
10
f8
ef
06
03
02
0f
fd
0c
e5
05
fc
15
fd
0a
0e
0e
19
12
10
16
06
1b
fd
1d
f8
2b
01
04
f6
03
10
02
ff
f8
fd
14
fb
28
11
10
0c
18
01
08
f6
03
10
07
19
12
08
01
09
14
08
ff
08
0e
16
0a
fc
00
f9
09
ee
0c
0c
05
02
ff
f9
09
fc
e8
e9
01
e1
ea
0a
fc
03
03
ed
0b
f7
ea
04
05
f9
16
17
f5
f0
05
04
de
04
13
05
0a
09
30
01
02
f8
03
02
0f
0b
0f
01
05
e3
05
22
0c
0e
08
f2
04
fe
00
0a
11
08
ff
0f
f6
e6
d7
0e
fa
04
e9
1a
0a
f7
11
f5
10
f2
e7
0a
09
0e
00
02
0c
00
fb
fc
f7
f8
0d
f4
0d
f5
fb
ee
f9
01
03
ff
fa
f6
36
03
00
f0
05
0a
02
03
fb
1b
0c
1e
0b
03
0b
01
05
ea
06
1f
08
fa
0c
05
f4
f1
f5
ea
09
f5
0d
0b
07
f7
08
f1
17
08
1d
03
07
11
0c
09
00
f9
05
04
07
fd
00
01
f4
0e
1b
fb
00
06
df
f7
07
fe
eb
fe
07
02
16
ec
12
f0
07
08
03
12
fb
ff
08
0a
08
fe
05
f9
e9
fe
f1
12
0f
fd
01
07
fd
03
e4
fe
fe
fe
0f
f0
03
0b
00
11
01
01
00
05
10
08
07
fb
f3
fc
0a
07
02
f7
fe
11
ea
12
fa
f4
f7
07
0d
f8
fe
f9
fa
f2
04
00
01
09
09
fc
1d
0c
ff
f9
f4
f7
09
14
eb
fe
09
e7
02
07
19
07
fd
04
16
04
14
fd
08
f4
04
07
16
02
f0
f7
12
0b
15
12
0d
ea
fe
f5
0f
0b
08
07
f0
0b
01
05
05
00
fb
f9
1a
0d
fb
fc
11
12
0a
f3
08
f2
04
f3
0d
05
fa
11
f8
13
15
09
fa
06
0c
03
05
06
ed
fd
0c
18
00
f9
f6
19
00
0e
17
0c
ff
01
09
fe
ec
f9
08
d5
f7
09
11
ed
06
ec
11
09
ef
09
ee
ff
ff
da
13
00
1b
df
f1
13
e1
ef
f7
09
ff
fb
08
e6
f5
01
16
f8
07
09
13
18
0c
f4
0b
ef
f9
f4
06
fe
ee
ea
24
16
da
f4
f6
14
15
f0
09
07
d8
0c
0b
0a
e6
0e
0d
0e
e3
e3
09
03
f4
0b
05
ef
fe
11
06
f6
07
14
fb
0f
04
fb
00
00
14
09
03
e0
eb
fe
02
f6
09
19
e6
f4
17
ed
f6
fb
ff
f7
f0
13
f9
f2
f8
e7
ef
04
0f
f6
08
09
fd
ff
03
e7
09
f6
10
df
09
08
e0
0d
02
00
f6
04
08
fc
f5
fc
18
09
f7
00
f3
f9
08
00
0f
13
25
ec
0b
1d
13
01
fe
ff
ef
00
10
f2
0c
fa
fe
06
07
f9
0d
09
0e
03
16
ff
fe
06
fd
07
fb
fb
03
fd
04
1c
fb
04
07
fe
f2
f5
27
ef
f2
0a
00
fe
11
0e
ec
e8
25
f0
12
02
0b
f4
f1
fe
f7
dd
0f
05
02
02
10
fb
08
fb
1b
f6
e9
d3
01
f5
19
d6
00
09
16
da
14
05
f6
00
1a
ed
0b
26
fc
fd
e7
f6
df
ea
32
02
f4
f7
05
00
e8
ff
0b
fa
0d
15
03
01
f4
0c
02
0b
fd
fd
f7
f0
f9
04
fe
09
fa
fd
e5
0b
fe
05
03
17
0f
0b
03
0a
14
08
0d
fe
fb
02
f4
05
f7
12
f3
fd
f3
fb
f9
03
02
06
fb
03
fd
f1
03
14
00
fe
ed
eb
09
16
0a
05
03
f7
fd
05
16
e8
06
07
fb
f7
0e
0d
14
f9
03
0e
ff
06
02
01
0c
04
fc
f7
00
11
ea
10
0d
e9
02
ea
07
02
f8
fb
07
e8
f9
0f
ff
01
fd
06
fa
00
0a
de
ff
0b
fc
07
fd
fc
f5
f5
fe
f3
fc
04
fc
01
0d
06
f5
07
fe
f9
0a
00
0a
f6
fa
04
f8
ff
ff
01
00
00
02
09
fc
f0
f5
01
f1
01
f8
01
f1
11
03
f8
04
ff
f6
fa
fc
fa
f0
f6
f7
f3
ff
eb
0a
08
f5
09
f4
f4
01
0e
f9
08
0a
f2
f5
e3
f8
fa
02
03
03
f8
01
12
ea
07
fd
00
f4
f6
20
f6
f2
fe
0d
f5
eb
ee
fd
05
04
17
f9
dc
02
04
0a
f7
09
1a
fe
f9
06
04
f0
0d
23
03
17
f6
e5
0a
e6
04
07
ff
05
f9
14
02
0e
f4
06
10
03
0d
0c
f7
f7
e6
f1
11
f7
f7
eb
ff
03
f1
f8
ec
f9
fe
0c
ff
19
fb
1b
ff
00
f3
0a
09
fa
ea
06
f0
18
f8
16
ee
e5
02
ff
f7
08
ea
f1
f8
0e
fe
f7
fb
0c
ff
0c
01
f4
fb
04
ee
04
0b
06
01
f7
f4
02
f5
04
ef
05
09
0d
04
01
02
f4
fc
03
14
eb
fb
f9
06
ff
03
08
0b
fc
f4
00
f6
01
eb
f4
17
09
fe
ed
ea
fb
08
04
e4
f9
ef
17
fb
05
ef
eb
f8
06
16
07
ef
fa
07
15
00
f6
ee
19
ea
fd
15
fd
fd
02
03
04
03
11
ef
f8
0b
fa
17
eb
09
f8
06
0b
07
ec
01
0c
02
06
00
12
ed
fe
fc
ef
fa
fd
00
fb
0b
03
eb
0b
fd
ff
f5
e5
f4
04
01
04
ff
fe
fb
d6
ec
f6
ff
f1
f4
f5
ec
fe
f9
fb
f8
02
ed
12
fd
fa
0c
ec
e9
01
04
ee
08
fb
f5
f2
f2
f7
f7
10
0a
04
ee
f8
f8
f3
02
02
fb
ee
f4
02
03
eb
09
0a
e6
fd
00
08
24
f8
0b
1f
07
fb
f5
20
f4
14
1c
fd
e5
fb
07
03
f5
fa
ed
fa
fd
1d
16
fc
08
12
f5
fb
fe
fb
05
0d
01
13
fd
07
f9
0e
07
fe
fb
ff
fa
ee
e9
ea
ec
f7
ea
0c
00
f9
fc
01
fc
f5
f8
0d
00
0d
ef
fb
e7
0c
03
f3
06
03
08
02
0b
1c
ea
08
04
e2
e6
ff
f6
f0
ff
ea
f8
11
07
f7
0e
00
ff
21
f6
0e
e9
0f
0f
14
f9
06
05
0a
0e
1f
0b
f6
d5
f8
1f
01
07
f2
e0
03
02
ee
00
0e
f5
e6
f2
0f
f6
f5
e6
20
f7
f7
05
1b
f8
0f
fb
0c
f9
f1
0a
00
06
1a
f3
f3
f2
f5
0b
f3
14
f9
f8
12
02
07
0f
02
13
0c
f9
03
1d
26
f8
eb
2f
23
f1
fe
00
f1
fe
f7
e7
13
1b
0f
13
00
f6
06
f7
1e
02
09
00
f6
f0
18
fb
0e
f3
fb
05
f7
f2
07
f1
15
f5
f3
ec
fd
12
ea
fa
f1
20
ec
01
ff
ee
06
f5
fc
02
fc
fa
ef
dd
e0
ed
03
fd
15
2d
fc
0a
ed
ee
fc
fc
dd
04
e8
03
f9
e3
fc
0b
14
f4
ef
f6
1c
09
fe
f8
00
f3
f0
0a
15
0a
f1
08
07
04
01
ff
21
01
08
f4
fe
19
fa
10
12
0a
f8
fb
10
03
07
02
f8
1a
ff
12
f9
03
04
0b
1c
0e
07
f6
05
ef
0d
0d
03
14
0d
f8
1e
f0
f3
f5
f3
0d
09
15
08
f8
03
00
e7
07
07
01
0f
fd
f6
02
ec
05
f3
05
0f
f4
1d
0a
05
09
ff
0e
01
01
eb
fc
00
e9
0b
00
f0
f6
e5
fa
0d
0e
ee
f6
fe
03
01
01
03
06
09
e2
0a
05
00
f2
ff
ee
08
06
fe
fd
10
f6
06
05
f6
f5
03
f2
05
ff
f1
0b
f6
06
04
f6
ec
fa
09
f1
fb
e9
04
f6
f7
0f
07
f3
f8
00
06
f6
09
0e
ea
1a
fb
fd
fe
e4
f7
f5
07
fb
03
f6
f7
09
ff
06
f7
fa
fd
f9
fa
1c
e5
ee
ea
02
f9
1d
00
04
f7
fb
0f
fb
06
f7
f1
f6
f1
04
f8
ff
0c
ef
f4
ea
02
1f
f5
f0
09
e8
f7
fc
ef
f4
03
07
16
f8
00
ec
ed
04
fc
04
f5
05
f3
ed
fb
ef
01
fd
f3
05
07
10
fb
fe
ff
05
fe
fc
16
0a
15
01
02
11
04
12
fd
ea
0f
fc
10
f1
03
1a
03
ee
dd
f6
03
f1
ff
e9
f7
de
fd
fe
0d
01
01
e9
fe
0e
0c
04
f1
01
f7
0b
ed
00
ec
f5
07
0d
04
01
11
fc
05
e9
19
12
08
02
f8
1c
f8
f7
28
fb
f0
f8
ff
18
f5
fe
0a
18
00
13
03
04
10
05
ef
0a
ea
f6
f8
fc
eb
0b
f5
0e
ea
0b
0a
fa
f6
ec
f9
0a
ee
fb
06
e5
fb
19
fc
22
f8
05
05
0b
04
07
0a
e8
13
1b
fa
03
f0
02
0e
04
22
1b
04
01
11
07
0b
17
fa
ff
00
10
01
f5
fd
f1
01
18
f2
f7
04
fa
e6
01
0e
19
0c
e8
08
24
ff
f3
df
02
00
ff
0b
06
08
f5
04
22
fb
02
05
11
f2
ef
0c
fe
02
0c
fa
fc
fa
f4
08
fd
fb
f7
f8
f5
11
f1
ff
f7
e8
0e
f8
02
f8
e6
02
eb
04
0a
05
05
02
0d
f8
09
02
ef
f1
f9
f3
06
07
ff
e6
f9
ff
fc
04
fc
f2
04
01
04
06
08
fa
f0
01
09
08
ff
0b
2c
05
ee
1a
0e
f6
13
14
04
f5
02
0c
f8
06
ec
eb
f4
04
f1
fc
01
ed
07
f7
06
de
01
fe
ea
02
06
02
fe
f2
f7
fe
fa
fc
f6
fb
0b
06
0a
f4
fa
fa
23
01
22
f5
1d
00
fe
fb
f9
fa
10
0f
f0
fc
ee
ff
c6
f8
1d
00
0c
0d
f1
00
ef
12
fd
05
1b
f4
10
f9
dd
d6
02
10
f0
02
17
f1
13
1e
08
fe
0d
09
fb
09
20
fc
f4
ee
ed
fd
1d
fd
e4
f9
fe
0d
15
0a
04
00
fe
ff
15
f3
f7
08
f0
f9
f1
f8
06
f5
f5
08
e6
fb
f0
ff
1a
f9
f9
02
02
0a
03
15
ef
00
e3
14
fd
f0
e8
db
de
11
f1
f4
03
06
16
0b
f9
ff
f7
ff
e3
0c
18
04
f9
e7
13
11
14
f3
f8
f2
f0
f6
25
06
03
11
0c
ee
06
fa
