01 e8 fd e0 f9 de 04 fc 00 0b 05 fd 14 1c f9 fb de f8 f7 03 f9 03 26 f2 f1 23 23 d9 10 fd 04 03 0c fc fa 12 04 e4 f9 f4 e4 fd fd 05 fa 03 f6 00 06 04 fe f8 f7 fb 0c f6 ff f8 0a e2 f7 fa 1c df
fb f4 f9 08 08 3d 07 fa f9 fc f8 01 30 fd 05 03 21 04 01 06 01 1e fb f8 fa f1 dd f0 db 06 ff 03 13 fe 16 25 1e 34 ff 1a f7 14 26 05 fd 1a f7 04 fb 0a 0a f6 2a ff f4 09 fe ff 24 33 18 12 1d 37
19 12 00 bf f6 db ff 03 06 f8 03 f4 03 53 fc 05 21 04 03 01 fc e0 7f fd f6 2a 20 35 10 06 05 02 00 fa 45 24 1e a7 fb f8 13 17 f2 1d 05 39 fc 04 fb 02 f8 03 ef 02 30 3e fe 04 02 02 d5 c1 e6 f1
0e 0e fa a0 fc 28 06 00 04 35 f7 07 e5 ed 02 fb fa f7 00 00 06 2e 13 02 f5 d7 b1 1d dc fd f8 04 0d f5 16 d0 d7 0c f8 cf 16 f6 22 fb fe 1d f7 f9 f8 ef 48 fc ea f9 df bf 00 f7 f8 ed 1d 04 23 0f
ef b9 fe d4 f6 d5 fe fb f8 1b 01 04 ed ca f9 fe 18 fb 05 fd 02 d0 25 01 f8 f9 00 0a b1 fc fe f8 e0 f7 03 dc f4 d5 f6 26 19 ff 14 1e 02 26 f9 fe fe fb ed fe e4 04 fe 2b f9 05 b6 f0 c3 11 f6 f9
09 53 f3 c1 01 17 fb ff 02 f8 02 f4 fb 51 f8 02 0b 04 fd fe fb 0d 1d f9 02 21 ff 44 e1 04 fb fd 07 06 42 ea 0b 0a 00 10 0e 2b 0a 21 f9 ff 01 f8 f7 da 3b ff f6 05 5f 1a f7 fe 1b 2f 39 dc 19 01
26 fd 00 0d 01 03 08 00 01 06 ff fd 2b 19 fd 02 d3 01 01 f9 fd fc 22 f8 01 64 3b 08 bb 02 fb 04 f2 06 42 09 3e 0e 06 02 2f 45 ee 49 f7 7f fa f7 03 f0 01 fc e9 f6 2f fb 02 02 be 3b f3 f8 f9 fe
f9 fd 07 07 02 ff 07 f9 08 09 07 fa fd ff 07 08 ff fb fa 01 09 06 fa 08 01 fb ff 00 ff 04 01 03 fd ff 00 09 07 f6 00 fa f9 03 fb ff 00 ff fa fc fa 07 05 08 05 fe fe 03 fd 06 ff 05 fa fe 07 fa
ea f1 fd e8 02 15 f9 fe f8 2d 02 fd e5 c3 fc fe 15 02 f4 05 fc 1d fc fc fa dc fc 0d f5 f9 f3 f5 d0 f5 1d e2 c7 03 fe f6 00 00 30 01 02 2b f0 f5 f7 f3 0c 04 08 01 f1 10 fa ff fc ee 1d e1 25 09
08 18 fd db 00 29 fa f3 01 0f fd f9 dc c5 06 f9 fa 02 f7 ff 03 3f b1 fb f4 de 81 07 21 ff 01 fd 39 f9 d0 c1 e1 3d fc b8 06 e2 09 e1 00 d0 05 fe 06 02 5a 02 21 fd e8 e2 02 f5 1c 07 ec f6 17 1f
15 ea 09 f8 04 f4 fb fd 00 fa 00 f8 05 fd fd 08 f3 02 f7 f9 fb e8 18 07 06 1d ff e7 f8 f7 06 ff f6 00 1c fc 29 02 00 0f 18 27 0a 16 ff 01 05 07 08 ff ed 02 fb 04 11 ee fa 01 01 e9 01 0a f8 04
fe 13 ff ef f7 fc 04 ff 00 14 f6 07 20 ed f7 f6 26 02 fb fe fc 0a f7 05 f7 d3 f1 00 49 01 05 fc 20 05 0f 11 10 1b 02 f9 11 1e 1e 24 05 ff 01 01 ff 00 24 05 34 f4 17 fb 00 04 15 36 15 fa 1d 06
f7 df fc 0c f7 02 03 02 f8 d8 fe 04 24 21 09 f7 b5 04 ff 06 f9 f7 ac fa f4 5d f3 bf b9 02 ff 02 ce fb 20 28 4a 01 fc ab db 28 f0 e9 fb fa 02 00 08 ed 2a f6 c4 fc 3a d6 fc 05 00 0f 39 eb ac e4
13 f7 00 e3 fc 16 04 fd 00 20 f2 fc 02 e1 f9 fe 15 fc fb 05 fd 03 36 f3 03 18 01 36 ff 01 fc f4 96 fc 15 03 fd f7 02 1a fa fd f6 03 01 4f 00 fe 03 24 f2 f7 f0 05 fc 2b f9 08 ac 03 14 ea 08 1e
18 13 08 03 08 f9 f8 03 f8 f6 f8 f8 10 08 fc 04 f5 04 04 fa 06 0d 18 f8 fe 19 14 f5 08 f7 08 03 0f 06 14 0a 19 0c 06 13 ff 11 04 0e 06 11 03 f7 08 0f 12 fd 07 fe 01 00 07 fb 15 06 fe fd f7 10
07 0d fc bf 04 08 fe ff fe 0a fe fd 09 f4 f6 ff 01 f6 00 f3 fa fa e7 ff 03 f1 a4 0e 1d 03 fd fb 26 fa f8 dc fa 1a f5 c2 f3 0c ff f2 f6 ce 03 f5 fc 05 7f fb 0f fb f7 d8 fa f8 35 fc f6 da 27 1d
14 f7 f8 e3 fb ff ff fc fe ea f6 f6 05 fe f5 f1 ea f5 f8 fa f3 07 fd fa f5 03 fa f4 0b fe 02 f2 f7 ff 05 11 1e f9 03 ff 02 0b fb ef 02 f2 ff 00 ff 06 f5 00 05 fd 0f ff 01 fd fd ef f2 09 f7 fd
0c 53 fe e9 f5 32 02 04 06 ca 02 fc e1 ca fd fe dc fc 01 09 f4 22 d7 ff 0e 15 80 12 57 fd fd 03 4c ff bc 13 f7 89 00 ac 01 fa f9 f4 f2 80 08 f7 03 fa 4b 01 47 03 ab ea fa fa 52 42 07 2b 01 23
13 e6 fd d6 f6 17 03 fa 01 17 05 f5 f1 e5 04 f3 01 00 05 fe 02 f8 ed f6 f9 dd d6 0b 0b 00 00 02 14 01 fe f8 ec 09 fe df f7 ed 03 02 fd ee fe ff 01 f4 ed fa 18 06 e9 ed 02 03 10 c9 dc fd 08 e9
f6 f8 01 f9 fa 09 fc 00 02 01 06 ff f9 fe f8 00 f7 02 f8 05 fe 02 03 f9 01 05 f5 00 fb fb 05 03 01 f5 fa fb fa fd 06 04 02 f9 01 03 fe 0c 04 08 01 ff f6 04 f6 02 fe f9 04 f9 f0 ff 05 f9 f8 f8
11 0a f5 e3 f6 f1 f7 f8 fb e0 f5 07 0f f2 fc 01 d9 f7 00 03 f2 f8 0f f7 ff 33 03 12 c8 00 f9 f9 dc 00 2d 05 03 be 02 19 38 eb 05 1a 05 04 fc fe 01 1b da f8 d1 f4 12 27 fd f5 b7 cc f9 1c eb 15
0e 02 fe 16 01 ed f8 fa fd 99 02 f7 54 ca fa fd cf 02 fb 02 02 2c a0 03 f5 24 24 e9 ba f9 fb f9 d5 07 15 f2 33 f6 fb ae c1 f1 fb fd 02 14 fa f8 00 e4 1a fb d8 03 08 c3 ff 00 f4 5c 2f 31 d5 e5
2c 0b fb 1c fd 06 00 fc fa 21 f8 08 17 23 f8 04 02 fc 06 f7 f8 f8 46 01 03 45 3b 33 00 01 fd f8 30 fe 37 06 0e 10 08 26 1a 2f fd 14 01 47 03 fb 06 ff 02 03 29 ff 72 ff fa 04 23 f2 1f 1d db 15
04 03 02 f2 05 14 f8 fc 02 09 07 04 ff 01 05 f6 ff fb 04 00 01 05 ff f8 00 01 0e 03 08 fc 06 04 03 f8 00 ef 03 0b 08 07 fe f6 17 0a ff 0a 06 05 ff fe 05 08 ef 05 f7 08 00 08 fa 03 07 fe fb 05
32 5e 05 e6 02 38 fa fd 00 f6 f8 fc 1b ee 01 f1 f1 fd f8 06 ff 16 e0 fc f6 56 ec f5 da 06 02 f6 f7 07 f8 29 3a 42 fb ca 10 f7 f5 dc f8 e2 03 f6 03 f9 5d f6 0d fd 16 f2 fe f9 dd 5a 34 22 18 2b
fb d7 02 f6 fc 04 fa fc 00 01 03 f7 f1 07 f8 fd ee fa f4 f5 03 23 05 ef f5 f3 1f ee bd 02 f6 03 05 04 0f fb e6 0b fb 0e 1a 13 23 0e fc 17 ff 02 04 f7 f5 f7 13 f6 0e 03 f6 f8 00 d6 cf 15 00 dd
00 fd f9 f9 06 ff 06 05 02 ff fd 02 fe f8 f8 05 05 f9 fe fb ff 0a f6 08 06 fb f9 05 00 fe fa 06 09 ff 05 06 f9 05 ff ff 05 fa fa 07 fc 07 03 f8 f8 ff fd 01 02 05 08 00 02 02 fe fc 04 ff fd 03
52 28 02 3f 06 6d ff 04 fc f9 f6 f8 4f 3d 05 02 c7 04 fe f8 01 7f 21 f8 f3 1e 56 28 84 fe fe 01 d5 02 28 15 7a 49 05 04 d3 11 30 0a 04 7a ff 03 05 cd 36 fb 80 05 4b ca 01 f9 07 f6 38 33 73 f3
02 49 00 e0 01 2b 00 f7 f7 71 f9 ff ec c5 f6 f7 e5 00 f8 03 f3 2c 0d 00 fb 00 29 03 c9 fc f9 f8 ff 02 4c dd df ec 03 dc 2f 10 4c 05 f7 3b fa 03 07 00 16 fe bf f6 14 e9 fb fe e3 23 47 30 2a df
30 24 fc 34 02 2f 01 f5 fb 20 07 01 f8 f1 fb 01 0b 08 fb 02 f8 61 c7 03 ff 00 dc 26 f7 fc fc f9 9f 03 d2 e8 37 32 fa c9 d1 eb 30 f5 fd 43 fc f7 07 27 13 f9 f7 fb ed 0f fd 04 bb f0 19 3e 65 14
25 0b ff e8 f7 0a 06 ff f8 f9 03 f9 0b 39 ff ff e1 fd fe 02 f4 4e 0c f8 fc 14 14 fc 16 fb f7 fe fd f9 36 fe 07 e9 02 12 1b 2f ec f8 fb f4 ff ff 04 f2 f8 fa 00 f7 08 22 01 f7 0e 04 2c ba fd e3
35 0b fd 0e 01 ee 04 04 01 37 fc fc 16 13 fc f8 ed 06 01 f9 ff 34 31 08 f3 32 1d 18 d2 01 0b fa de fb 1c 62 35 07 05 09 08 0d 32 44 fe 37 f3 f9 f5 c6 02 f7 b5 fc 30 04 ff fe e4 01 1a 3c 0f fc
fc f3 f3 f7 ff 1e 01 fd 02 13 f8 fb fa 05 04 fe f3 f8 f6 00 ff 0b fb f6 f9 00 06 fd ea fc f8 f7 04 03 f9 fb fa f8 f8 ec 05 ea 18 e6 fc 0c 02 03 03 f6 e9 fe f9 06 d7 05 01 fc 1b e1 e6 12 1c fc
3c 30 fc 2a fc 0e 02 f9 f8 c9 03 f7 68 c3 02 f0 a3 fe fc fe fa 03 b8 05 fa 30 d3 d4 be f4 f8 fc e9 03 fa fd 29 42 01 9e d9 c9 0d cf 06 eb fe 01 00 cc f1 fe e2 05 db a2 f5 06 02 e3 ff 23 e9 d4
2d f6 fa cf fc ea fd 07 00 32 f2 f5 06 fc 06 00 00 01 00 f4 03 07 0c 01 f8 02 2f 65 38 05 f2 02 49 f8 5f 34 fd e9 f6 ef 01 5f 23 16 fb 1b f6 fe 00 2b da 03 63 ff 51 31 03 ff d4 ec f2 13 18 0a
1e 0c 04 c2 f6 05 fa f9 01 dd 03 fc 27 32 06 f4 d9 fc 02 ff f8 ff 02 f2 03 20 f9 12 09 fb f3 fb 11 ff f3 14 18 0b 01 01 0e 0f ee 1e fa f4 02 06 00 fe d8 f9 0c 04 14 0a fa 00 0c de cc 02 f9 16
fb e2 04 d2 f9 df f7 f7 fd 7a 05 fa 15 d9 fe fc 33 fe f9 fb fa fe 14 07 fe c2 fa d3 fb 04 04 fe a0 fc 36 15 e8 c7 f6 c8 d4 2e 02 eb 01 dc fc f8 f7 13 2b 02 ed f7 f2 26 fe f6 21 b5 28 f7 d4 17
ee 09 f5 08 08 f8 01 f9 01 f2 fb f7 44 9e 07 04 08 08 03 01 f6 e2 d3 fb f8 c9 03 42 5a 04 02 fa da 06 ce 43 0c ba 02 f0 fb c3 cb e8 01 7a f9 f9 04 2d 41 03 27 01 e2 3d fc f8 16 45 19 d8 02 07
28 65 03 00 06 19 fb f9 f6 ac 00 00 ef 05 f6 f3 b1 02 f6 fb f7 14 fb fa fd 32 ca 24 1e 02 03 07 18 f6 dd 1d 2f 10 f7 f7 1c 3c 4e 0e f6 ae f7 05 f8 36 16 00 21 fc af 13 f6 01 42 dd 0f 1f 47 19
02 0c f8 07 fd 18 05 05 fc f1 02 fe 01 f2 fb fd 04 08 fa 04 00 07 fa 01 f5 0c f3 05 ee 07 05 fc f5 fc fc 04 05 0c 01 01 ff f3 00 f9 03 02 fb ff 05 fb f3 03 f9 fc 02 ec 01 04 fd fc e9 0c 0d 02
15 31 ff 2a fa fa ff fa 02 2b 06 fb fd 2d 01 f4 ed f6 05 00 fb 10 02 fb f7 fc 08 06 d4 02 fd f4 95 f9 30 28 f4 d9 f3 51 f7 2b eb 02 01 41 fb f9 f6 fc f9 f8 c7 04 16 1a 07 03 ce f7 05 fc 3c f6
09 d9 fc f9 f7 ed f8 fc 04 fb f5 fd 03 1a fe ff 0a f6 03 f4 03 d5 f8 03 fa 01 15 da f9 01 04 06 15 fd fb 01 03 0d 04 03 03 0e 00 0f 02 f8 02 03 f5 11 d0 f7 ed fe 04 f4 f7 00 ef e8 ef 15 19 17
15 0e f6 72 f9 f6 fb f9 fa 89 07 fc 34 de ff f5 db 04 05 ff 05 40 b6 fe 04 fc 21 c6 9a fc 08 ff b7 07 fa 22 3a 25 f7 ce ee 18 1c 15 f8 10 f6 fa fa d2 da 00 b1 0a 03 c1 00 01 f9 54 50 10 53 e5
f4 04 08 c5 f6 aa 06 01 00 f9 03 04 38 16 fb 03 0c 05 01 f9 fa 8f 18 f9 fa d5 0a d0 6e fb 01 02 aa 03 dc 7f fa ee 03 c3 dd f5 b6 d8 04 25 fa f7 fe 1f 22 fa 45 04 f0 60 f5 fd ff 6b f6 fc 10 e6
f8 3b f9 15 07 06 ff 00 f9 e8 fe 00 32 cf fa f5 e1 fb 06 05 02 22 de f9 f8 1a e6 fe fa 03 02 02 e6 f7 fb 0a 39 0c fb 07 ed ee 00 e9 f7 09 f5 06 fe 1a 35 01 fc fc ca e5 ff 05 f9 e1 1a 14 fb 07
d1 c7 08 e5 02 2a fe 05 fb d5 03 06 ee 08 f7 fb 36 fb fc f7 01 11 e1 fd f6 fe 2f e3 10 f8 03 08 08 fa ca 51 02 dc 08 e2 de d3 4e 0b f6 7f fa f9 03 05 36 fb 06 03 19 12 02 fd f0 2d 04 4f 3b ce
05 f5 00 0a f8 2a ff 04 f8 dc ff 03 0e b8 fd fc bc 06 fb fb f6 15 89 fe f9 0a e2 eb a2 fc 07 fd f6 f9 e9 0d 0f 16 f8 b1 e8 f1 05 e2 01 00 fa ff 03 84 fb 03 fe 01 c8 8f f6 f9 08 ec 0f 17 fc db
11 f1 fb 02 06 f2 02 f8 f6 ee f5 04 0b ff fe fb e7 f6 f6 f5 00 e4 0b fd fa 0a 0a f3 f2 fc f3 fc 00 f7 f4 21 fd 0d 03 01 09 06 ed 12 ff 09 f9 f9 fd f7 cd f7 e5 f8 fd 05 01 04 0a de dd ee ed 16
26 18 04 c7 02 fe f9 ff 05 e9 f3 f9 11 19 00 01 eb 01 ff f4 01 ea fe f8 fc 18 f6 03 0d fe f4 03 0f f5 13 01 07 0d f4 02 f6 00 12 e5 fc 04 00 f8 02 f9 0b fe eb 00 fe fa 03 fe f8 1d 22 09 0b 06
01 21 f3 00 fa de 07 01 fe 1e fc fd 10 1e f6 ff 07 01 02 fa fb 01 f9 06 fe 0a 10 0a 03 fc eb fc 32 f6 f4 15 24 f4 01 fb fc 11 f0 08 fa f1 05 f0 f9 20 fc fe 09 f7 09 0a 00 f9 23 19 f1 17 ea 09
0c 12 04 d4 fc 0c 01 f2 01 0a ff f9 20 0e f9 f0 e9 00 f6 f4 fb f1 16 fb ff 21 14 03 09 fa 04 fd 09 fb 12 f7 fc fc f9 fe 0e 19 15 06 f6 f4 ff fe f6 fe c0 fb 11 f5 fc fc fb ff f3 c4 cd 0c f4 ea
1b 3b 00 e2 fd 55 07 03 f9 c5 f8 00 1d 2f f9 fb b1 00 06 f8 01 5b a9 02 06 64 73 f9 87 05 fa fb ae 04 05 cc 4e 3d 05 d2 ef f8 66 ee fd 43 04 f7 fd d5 98 07 88 fa 04 d1 fb f8 80 0a af 38 67 d9
eb 18 ff d7 01 2e fc f4 00 30 f7 ff f5 10 ff f9 0a ff ff 07 f2 53 2d f2 f7 07 cc 4a 40 fa f1 fe e2 fb e1 f4 ea cb fe 03 e8 ef e8 f0 f4 e1 01 03 fa f5 3a 00 42 ff dd 31 f7 ff c9 35 6b de 27 18
10 1c fc 29 08 0f f7 06 02 e7 00 fb 04 9e 02 f3 d2 07 f9 fd 01 36 be 04 fb fb fe f4 d5 08 04 05 ee fe e4 0e 28 20 00 f5 05 d3 f5 cf 08 21 f4 01 03 d8 03 01 e2 ff e8 92 f5 fb d6 eb 2f 25 0f fc
26 e0 f6 19 f7 2b f9 03 fb 12 ff f7 3b e5 06 00 f9 fa 06 fa 08 20 dd f4 f9 08 29 0c c7 f7 f9 fc fd 07 03 fe 0f 08 f7 f7 fa fe 4d 06 fb 55 fd fb f7 f5 8f 06 e4 fe 37 00 ff fd d2 37 29 39 39 d8
fc 26 00 25 f7 1e ff 06 f8 e0 04 f6 44 1b 07 f1 06 01 fa 06 f7 7d c6 07 f5 36 4e e2 cb fa f9 fa d3 f6 0a f5 26 e5 f7 e4 f0 1e 2a 34 fa 4e ff 05 fe cc f5 f5 c3 02 fe c7 f7 04 c4 7f 75 11 5a e0
d1 e6 f8 e0 01 15 fb 06 03 30 f8 05 e7 e5 04 fb 03 08 f9 01 f8 a4 f2 f6 f7 04 18 fd 44 fe f7 fa 29 03 e5 24 02 dd 00 e5 12 cd bd dc 02 ff 05 07 f8 23 0a ff 15 f8 c2 4e fb 05 fb 24 fa 18 13 eb
41 48 00 fc 05 35 05 03 fd e4 fc 02 02 18 fe f5 06 f6 f9 f7 01 f0 31 02 fb 1e dc 1a 61 03 f4 ff 6b fa f1 39 22 1c f7 0b 01 06 f3 1a fe bc fb fe f7 07 f9 00 3b 01 02 f5 fa f6 5f ec ee fa 03 21
47 2d 07 93 fd 24 05 fa fb 04 05 fa 5b ef 08 f5 a4 f9 07 f9 ff 27 c8 03 fe 55 a8 eb ff fb 02 00 39 02 f4 08 45 55 f9 f0 05 e2 30 fc 08 96 04 ff fd 08 80 02 1a fb fe 92 fc 02 2c b1 a1 13 ff 1b
14 e3 00 f9 f8 fa 00 02 02 0b 07 00 f4 06 00 fd c1 03 04 02 f9 16 e1 fc fb 28 13 e4 b5 04 f8 08 dc 02 08 d5 15 05 00 e7 0c f8 2c 0f f7 15 ff 06 fa e1 12 f6 dd f9 2d c0 f9 07 df 09 06 39 1a e0
e9 05 ff 13 f5 47 00 f8 03 4d f6 ff ae bd f5 fa 1e fd fd 00 f6 1f ff f3 03 c8 05 3b 13 f9 fb f7 e3 fe e4 0b ee 1a f6 ed e1 ed 38 a7 04 1d 01 00 ff c2 f4 f6 1d fb 05 ea 02 f9 a0 65 ca 52 1a 09
d3 28 05 1d f8 35 fc 04 07 c0 fc fc b2 da fa fd 17 fa 04 04 06 61 c0 ff f6 f0 b2 29 41 f6 ec fc 05 fa f7 13 d5 28 fc bd 0e 2a eb ce 08 d0 fb 01 05 3b 76 02 5c 04 02 e8 fc fc 5d 0c 3c 46 3d 11
f7 06 f6 13 f7 df fd f0 05 1e f6 f6 0c 03 fa f8 2e f6 f6 00 03 fd 15 f0 f8 e0 f5 07 09 f6 f0 fe ae 03 ff 03 12 00 f7 24 11 27 df 0b f2 f7 fd fa f8 10 0d 00 d5 01 16 1f f7 fa 00 12 10 e2 f8 06
27 07 f6 1f 04 30 fa fd 06 df fe f7 11 de 03 07 ed 01 fb 03 00 23 0b 03 ff 25 00 f1 f4 03 fa f4 2c fc 39 13 0d 2c 06 f9 15 26 16 0f 02 f8 ff f7 f8 04 01 03 1c ff 0c 21 03 05 37 da bd 2c 20 f1
db ee ff 12 f8 24 05 01 02 2e 01 f7 c5 06 fb f6 15 f7 03 f7 03 14 20 f5 01 f5 17 0e fa fa fc fb 03 04 04 d6 cc d8 fe 15 08 08 1f 16 fa f0 00 fa f4 c8 f1 04 fd ff f8 eb f7 fb fd fb f1 0f 09 fe
0f 22 fa f7 f7 0a 04 ff 02 1a fc 04 2a e4 fe fc af 01 fd fd 02 0f cc f6 f4 05 2b e4 cc f5 00 01 02 01 ef f8 28 f6 00 d6 ee bd 0b ec 03 0a f8 ff f9 87 e9 fc f5 fa 00 b7 f8 05 fe 03 e7 2c 19 e1
ff da 03 e2 06 cf fa f6 05 2f f7 01 07 15 02 fb 32 08 07 08 fa f7 18 00 06 e0 f0 f4 03 02 ff 01 18 05 1b 1d d2 50 f6 0d ff 0b de e0 f8 0c 07 05 05 39 ea 04 01 fc df 26 09 fd b7 01 0f e0 fb 00
df f1 08 d0 04 fc 01 06 fb 4b fe fe 07 12 fb fe 51 00 fd fa ff 02 1f fb ff cc e5 23 17 01 fd f9 0c 03 02 b2 99 80 06 28 fa 0f d7 18 05 f3 01 00 fc 0f 09 fb 20 f6 e8 21 fb 07 52 3f 0d cb de 20
0b e2 02 28 ff dc f9 fa 03 2c f8 f8 07 19 fd 00 24 02 fe 08 01 f3 fb 00 fa 1d d9 0a 94 fa 00 05 a7 02 3b 0d 0e 23 f9 f7 3a 16 e1 0a 04 1a fa 04 fe 04 14 f7 ce f6 10 f2 f3 00 c0 06 e4 1b d0 eb
ea 22 02 f9 05 f3 05 f4 f6 dc 03 fb 05 ab fc fe 61 f3 05 03 f6 19 12 02 f6 bc d9 0b 5e fe fa fb fa f6 c6 49 d5 de 01 e9 e6 00 bb ea f4 28 07 ff 03 2c 24 fa 08 01 0d 33 01 f9 03 f7 47 ec 18 dc
2b 18 f8 e7 04 03 00 fa 02 f6 fc fd ee 1b fd fa e8 ff fc f6 f6 0e d9 ff f8 f3 10 12 fd fd fb fa 00 fe 00 d4 0f fb f5 fb f4 f7 fd 23 04 f7 fb 06 f7 02 15 01 f4 00 0b 12 fe fa f3 01 df 1a fa ee
23 4a 08 3c 07 41 02 05 06 06 fa 06 38 3a 00 fa 2c 03 fe f9 f9 f7 f9 f4 f2 38 5f f5 a2 fd fb f8 ba f9 0d 03 3b 5c 00 03 19 48 63 1d 02 5a f9 ff f5 e9 d2 fe a5 06 38 ea 06 f7 c6 32 d9 35 44 f6
23 00 f9 f7 04 05 fc f7 ff fc f9 fb fb 06 fb f0 ea f3 f8 07 f8 f0 e7 f0 ff 16 ef d4 1e fb f8 05 37 fa e8 fb 1b 33 fb ed 04 ed 26 ea fe cf f8 06 fe 0d bf 01 03 01 f7 ec fa f5 1b 0e c2 03 0c ed
d1 f7 fb 0c 05 0e f8 f4 fa f8 f6 00 f8 2b 01 f8 cc 01 03 fb f5 e9 0e fd f6 42 09 f0 34 f9 fd f9 03 f9 f6 39 c6 e1 f8 25 fc ce 05 ec ff 1a fd f6 06 17 f2 02 09 00 0c 09 07 fd c2 01 e9 fc 20 db
1b 18 fe 19 fe fb 01 fc f9 dd fc fc 0c 0d fa f5 d8 ff fa 00 f8 0a fa 03 f5 0e 56 f8 fd f7 f9 04 f4 f8 e9 0e 67 17 fb 15 11 fe ef f2 03 ef fe 06 fe 0f da f8 07 01 01 f6 fb fe 07 e2 23 2a 0a ee
04 0f 04 ba 03 f0 01 fa 04 34 07 f7 3f fb ff f5 17 f4 01 05 f9 57 c9 00 07 fe f0 1b f4 f7 06 ff f8 fc f1 24 fb da f3 d9 f7 1e 05 d3 04 2c fd fa 06 22 d0 06 c2 02 fe 30 f7 fc f4 10 0d dd 22 ee
dc f4 06 0e 05 15 06 01 fc 07 f3 ff aa c2 07 fa f4 f8 fa 08 f9 0b fc f9 f8 b9 f3 f1 f1 00 f6 02 f8 fa 0c dd e3 fb 02 e0 02 e6 01 09 fe 0c fa 04 fb ee 24 fd e4 04 d1 b9 ff ff fc fe 10 3d 18 06
eb 04 00 f3 fc c8 fd f6 f8 1b 02 02 f2 12 02 fc e9 f6 f9 00 ff f3 16 05 f8 ef c4 a9 0d ff 06 fa b2 00 d1 6f f1 ff 04 1a f1 03 28 17 fe 63 00 07 01 d6 ef 06 12 06 20 ef fe 05 80 41 4d 1c 24 c3
07 2c f7 17 05 22 00 fd fc d6 f3 f7 15 a7 05 f2 f5 06 fd f8 f9 f3 bb 03 f6 fb 3c dc e4 f6 f8 fa f6 07 1e 12 fd 1c fd f9 e6 03 0b da 01 13 f8 fc fd ea 0d fc 08 ff b3 fb 07 fc 1d 1c ea 3f 05 14
0a 32 fb fd fd 13 00 f7 fb fc f7 f6 34 d0 fd f7 ff 01 05 f8 fd 16 d4 02 f6 fd f5 c8 df f4 07 00 fe 04 fe 24 20 26 fd bd e4 f8 0b db fc f1 01 fc 00 21 e2 f6 2f 02 e1 17 03 f9 16 26 11 1f e2 ec
de 05 04 16 fa 24 fd fb fd 26 ff fc da 12 01 f6 26 fc 01 ff 04 11 fe f5 06 30 f3 09 ed 04 04 04 03 fe 28 e2 d2 e6 fe 0e 08 0c f4 09 f6 d5 02 03 03 00 12 fa 08 f5 10 11 03 f8 02 2d dc 14 ea fc
01 f9 fc 19 06 12 fd fd ff 0c f6 f6 18 05 fc 00 ff fc fe 00 f6 07 14 f7 03 07 14 bd fe fb f5 f7 ae fc 02 3b 1a 1c 03 38 db 03 26 fe fb 6b 00 f3 fe ff e7 f8 f5 f4 0b 23 fc 01 ff e5 29 e9 19 b6
02 dc f5 08 f5 fb 04 04 f7 d9 f8 00 02 17 fa ff cd fd 06 ff f9 e0 ea f3 01 e5 2b cd f4 fc 03 f4 02 00 f8 de d0 fb f7 0b ec f5 dc f3 02 f1 fa 06 05 10 c5 01 00 f6 f8 f5 03 05 fe eb da ed e5 d1
16 f6 f9 12 02 15 07 f5 fb f4 03 04 08 ef f7 fe b6 fb fe f6 05 0a da f3 00 20 13 0b e8 fd fb f9 dd f9 ea fc 1f 0d ff d4 14 d7 09 f5 fe 20 f4 f7 09 b7 eb fe 06 01 01 ee f6 fc 23 04 e7 1e 29 f7
eb 05 01 3a 03 29 fb fb 01 e9 fe fd 10 d3 00 fa 2e ff 04 fb fc 2a 27 fd f8 ce ab d6 f2 f7 03 fc d0 05 e7 27 2f 24 fa ed 0a fb d7 ea fd 20 fe 03 fc f1 13 fb 68 f5 21 2e fb 03 ca 56 4c 43 43 14
0a fc 01 07 fd 28 f6 01 fb f7 f5 05 d0 ad fb 01 e7 f9 f9 05 fd 0e fd 01 04 d7 d8 ee 05 fb 00 fb 04 fb d7 0a 07 3c f9 f2 e0 e7 04 01 fd 08 00 fb f7 e9 0d 06 e5 00 aa a0 fe f9 11 16 0d 24 29 04
d5 0b 03 9d fe 02 00 02 07 26 08 03 fe e9 f8 fc 05 f7 f8 05 fe f3 26 f9 fd 1a f5 b9 08 f6 00 f9 ee 03 ee 06 cd 16 01 30 d9 f4 fb f3 01 d7 fb 02 ff c0 d3 f9 04 f6 08 f7 03 01 d7 1c c6 13 e1 df
02 05 f9 01 07 ef 05 05 f7 eb 02 08 10 e2 02 00 df fc 06 f8 04 11 f2 02 00 14 dd 05 05 04 04 fe ef 06 dd 18 3c fe 00 ce 00 1e cf b9 06 ff fa fb 08 22 f1 04 fb ff e0 e3 00 fb f2 e5 20 10 ea 0a
d7 0b fb f6 f7 11 03 fb 00 0f f9 f9 2f f9 f6 f4 18 08 fd f7 f9 e6 f7 f7 fa 08 eb 12 30 02 f6 00 b3 01 e9 2e f2 07 00 0d 02 07 05 e4 fa f1 03 ff fd 08 00 04 3a fa c7 28 07 09 ff 10 fb 05 0e f1
ee 1c 04 e7 03 f3 ff fb fb 02 fd 06 0c fe 02 f3 02 05 03 ff fb 0d c9 f8 fd 08 f7 1f 13 05 fe 01 34 00 e6 0a 29 00 f7 24 ec ed d4 03 fb e7 ff 05 fb ff fc 00 fd f5 f6 ef 03 f7 f2 d9 03 fc 00 13
0f 11 f5 d7 f9 27 fa f8 fc ee f4 f8 29 16 fa f8 b1 f4 fe 01 05 15 f7 04 f4 17 1a fc 1d fc f8 fc fa fe 08 2a 2d 05 fe f6 e8 05 13 e3 fb ed 05 04 ff f6 de f5 15 ff 27 f3 fa 05 0c 19 d7 08 05 21
fa e1 f8 f1 01 10 fd fd f7 18 f5 f6 c3 04 ff f4 e4 fc fd 04 07 ff 04 f2 fc 12 f2 00 00 fd f3 05 0d fe ea dc d2 f8 00 f5 0f e8 1e 1e fb 08 05 03 01 bf 1f 01 05 fa 07 ef f9 fb fa 17 0e 1b ea 01
f4 1e 03 0f 04 f6 f7 fc 03 ff f6 05 fd f0 04 fa 0f fe ff 02 f6 ed dc f7 01 27 e4 ea 15 fe 05 00 c3 00 01 eb da f4 00 09 d7 02 02 ea fc 30 fe 02 f9 0e 08 01 00 f5 02 03 f6 f4 19 08 da fd 2f e6
10 e2 f8 f9 f7 20 05 fa fa 03 f8 06 d9 09 f9 fd 1e 01 f6 05 ff f2 1c 00 f7 14 12 0c fe f6 02 fe 13 07 1a 18 03 09 00 03 00 25 02 1e f7 33 04 00 fb f2 0c 02 f4 fa 09 0d f5 fb 28 2b f8 fb 2d ff
f9 d7 06 25 03 01 fd 01 00 e3 f7 03 14 19 fd 03 da 04 f8 01 00 2b 48 f2 07 1a 53 38 06 05 fa fc 85 f7 fe 19 27 10 f4 06 e8 f8 29 f6 f5 4b f5 f8 ff f5 f0 f7 d3 f5 1f da f4 f7 b5 e4 19 1a 0d c0
21 14 f4 c9 00 e0 fc f7 fb f0 f4 fb 0e 1f 06 02 ac f8 03 f6 fa 0a e7 ff fe 34 d8 ef 2b 02 fa f5 3a 00 26 55 fe 10 01 37 2d 2d e3 04 fc de f6 f8 f9 29 25 00 3a 03 2f ea f8 f5 1d e7 f3 05 f0 fd
f0 f2 f7 e9 f8 dd f7 05 00 1f ff ff d4 0b 07 fd 19 00 fe fd f8 e9 10 fd fa f6 fd f2 01 03 f5 fb 16 00 d4 d9 e9 f8 02 23 1d ee 20 1a ff e9 01 f9 fc dc 09 06 d2 f4 d8 f1 f3 fa 1b 15 d5 fa e7 f6
15 22 01 03 05 26 07 04 ff fe 00 f8 26 ba 01 fb bd 03 fe 00 fc 19 f9 f6 04 06 10 06 b9 ff fe fc f8 f7 19 f8 2a 27 ff cf e0 bf df d4 fc 0b fa 07 f8 8d 14 01 dd 04 ed a0 f5 07 f9 2a 39 0c f2 e9
ef 07 03 d0 01 1d fb fa f6 01 fd 00 04 01 f8 fd ff fc fa fa ff c1 d9 f7 03 15 de 14 e1 ff 03 f5 dd fc 16 f2 e1 06 00 fc f0 1c ef e4 fd e5 fc 01 05 09 14 fb f6 fa fd ec 03 05 df 20 ca dd ea d5
33 0f f8 e5 fa e7 04 0a fb ff fa fb 33 0d 02 f5 28 fb fb 00 05 ed 13 05 f4 27 f8 f8 32 f6 fd ff 15 ff 18 f8 0a ef f8 f9 fa 1e cb 00 f8 dc fb fc 05 2a 19 fc 32 02 ee 32 fa 00 fe 3b f8 ed f7 f0
e9 fe fe 36 fb 0d 06 f8 04 53 fa 04 d3 00 f8 ff 04 fa 00 f6 f9 e5 00 05 05 d2 e7 c7 0b 00 fc 05 bf fc db 13 0b e7 f4 f7 1e e8 ff 0b fc 29 02 01 fd 05 e7 04 ed 02 f9 15 f4 00 20 04 10 f5 1f d8
a9 29 07 e2 04 13 05 fe fc 08 fa fd 12 c7 fc f9 3a f6 fb f5 07 d0 cd f5 f5 d1 c4 19 ec f9 f6 00 11 f8 ed 11 e2 c7 f3 dc ca f9 e3 da f7 e9 fb f8 f8 2c c5 fa 1f ff d1 2c fa 02 fd fa f5 e8 4f f5
2f 1f f6 02 fe ec 04 f7 fa d8 f4 fe 14 f8 fb ff fb 03 fd f8 02 b7 17 fa fa 08 08 01 d1 fd 00 f6 08 05 1c f9 2e 0f f4 f0 d2 21 0c e2 f9 08 fa ff f5 fd df 05 06 fd 25 04 f7 ff ed f6 ec f2 ec ea
54 f9 07 f4 05 1e 06 fa f8 e9 ff 04 3a f1 06 fe b5 03 04 fb fc 00 ce fe f1 15 63 eb ad f6 ff f7 e6 02 e0 1a 35 02 fb c3 ca b3 37 be fb 47 07 ff f9 c5 26 fe bb fe 12 a2 fb f6 dd f9 f2 21 1f d2
f8 ff fa 05 f9 22 04 f7 03 0e 05 05 1a 05 fd f5 de fa 01 f4 fa 0c eb fc f7 10 f8 09 da f5 fd f8 11 fb 07 18 27 0e f4 00 10 02 01 e7 fd 09 00 01 02 ec 0c 06 f7 ff 0d d6 f8 f5 d3 2a cf 03 e7 11
f0 0a 07 c5 f6 f9 f8 fe 04 15 f5 02 05 f4 04 02 2f 01 fb fe 01 e7 30 f7 f9 f7 04 0f 4c f9 fd 02 22 fa b4 1f e8 c1 05 3c 0c d7 2c ca f8 16 fb 01 07 0f 08 f9 33 f5 b3 f0 fa f9 04 1d b7 0e fc 1c
14 08 03 41 04 15 f8 fe 02 c7 f3 fb 10 ec fd 03 f2 02 00 02 04 24 da 03 f7 dc 37 f1 fc f9 fa f6 bb fa 16 18 61 26 06 18 02 01 15 12 fe f9 f7 03 04 eb dd fa dc f6 02 f9 fa fc 06 0d 0d 25 26 fa
04 13 07 d0 f9 1a f8 08 06 f1 03 00 22 21 02 f4 ce f3 ff 04 fa eb dd 04 fe 27 f6 ce 28 00 03 f7 2e 04 ff 15 02 01 01 f3 f1 18 ef f1 04 dd f4 f6 04 15 1b fe 12 fd fb 06 f2 fe 21 10 eb ed e1 16
f2 0f fe 11 f7 35 fb 05 00 01 f9 f8 b9 c7 00 f9 eb 01 ff f5 f8 0e 05 f7 fe f0 02 fa ef 05 f5 f6 ea ff fc 06 15 19 02 f8 df 24 f1 da 02 12 f2 fb f7 e3 0b ff dd f4 15 f4 ff f9 df 1c fe 22 09 e7
b8 cc 00 29 fe 19 07 f8 fc 32 07 f8 b7 1e f5 fe 5a 00 09 ff fa 10 13 f5 01 da 05 d2 1f fa fa fb ac 06 f1 00 ba ea 09 32 21 0b 1c 23 01 46 07 fb 00 0a eb 05 0b fa ce 19 02 f5 0b ed b4 0b 00 e2
37 0c fb 08 ff 26 07 fa fd f0 fe 05 14 c1 00 f3 e0 f9 fe fd fc ea ed fb 00 ee 11 f5 f5 f7 ff f9 04 03 12 fd 28 23 02 f1 cd d6 fc e0 02 16 f5 02 04 f7 f3 02 23 f5 ea d1 fb fb ec 2f 14 1c 0f 13
cd dd 01 fb f6 d2 00 06 01 00 f9 fa 1e 0f 04 f5 4d fd 07 02 02 f3 52 03 fa ca 98 1e 7f 01 f8 f9 55 02 0e 16 aa b3 ff 22 17 fa 9e 15 fb 20 fa fc 02 4e ea fd 5d f6 04 59 f8 f7 ec 5b 2b d0 24 06
ca 0f fd 23 fb 1f ff f8 03 5b ff fa d7 00 02 fe 11 f8 f8 01 fc 75 19 f8 03 f6 02 24 1c fa ff fd 15 f8 d0 17 e1 0d f5 f6 2c 0c 4f e3 fd 1d fa 05 04 b8 2b 01 b0 f6 f2 f3 fd fd e6 15 07 27 30 e6
df db 04 07 fb 31 07 fe f9 f5 05 ff f8 f1 00 fa 2a fd 00 07 00 9d 39 fb 00 ce 06 9a 22 ff 00 00 d0 f8 05 4a e5 3a ff 3d 04 0d 57 e3 fd 43 f6 02 fb e6 df 05 0f f6 fb 20 fe fb f9 e9 ed 10 0c f4
de ca ff 03 fb fa 03 03 f7 3a 01 f8 e6 09 f9 fe 14 03 06 01 fd e7 25 f8 fe e4 d0 11 2b ff 08 00 e8 04 b4 e5 bb df fd f8 0a 0a ed 02 04 09 fc fd fa 04 1f 03 e4 fd f1 e4 05 ff 09 34 b4 08 f5 08
1d 0c 03 19 02 01 03 01 fa fe 01 ff e1 18 fe f7 95 00 01 fa 07 fa d7 02 fa 14 32 ea b7 fc fc ff de f9 e2 0d 11 29 00 e8 f8 d3 fd be 04 34 f7 f7 03 a5 0c 05 e5 00 f0 c9 fe 01 06 04 15 fe 06 dc
dc e7 fe ee f8 34 ff f3 05 e1 f8 01 0e 17 01 05 ef fc 02 f7 f6 3b fb 08 0c 0a ae 0a 52 ff 00 07 61 07 cd 4f df 80 fb da 08 17 ca 05 f9 e3 fa ff 00 21 1e 06 7f 03 da f7 00 02 39 12 19 ec 21 36
10 11 fc 1a 04 25 06 00 f9 da fb f6 ad c2 f8 03 eb 00 01 03 05 0e e1 00 f8 cb fe f3 fa fa fd f8 f8 fd ec fe 14 34 04 ed dc d6 08 e7 f8 09 04 fb 05 ec 08 f5 e2 fa eb db 02 fd 04 29 0d 2b 19 eb
0f 2e 01 fc fe fe f8 00 fa fb f6 f9 fb 10 fb ff 30 05 ff f7 03 04 1f fe 02 3b 0e 2b fb f7 fb fe 10 f9 1b 0e 20 f6 f7 ff 23 0f 2a 43 fd 12 02 ff 05 d9 ce 03 0b fa 1c e5 03 f7 1e f6 0b 03 23 db
fa f7 fb 0d fc 1d fe 04 fe e5 01 fb 14 ad f7 f7 e3 04 06 f6 06 fe b4 fb f4 0d 12 04 fc fd 02 ff c7 f7 09 26 22 0c f8 d5 ed c4 0f db f7 16 02 01 08 ed 02 03 4a f5 15 d8 fb fb 11 e7 20 23 35 f9
e0 e8 02 17 02 02 07 f7 fd 38 f9 05 e9 26 07 f6 26 07 01 02 05 e7 1f 06 f7 f1 25 ba 0a 05 f6 fd de fe 46 2e ba ff f9 0e 01 10 2e 04 04 31 f4 fc f7 fa 18 ff e7 f7 16 62 f2 02 e3 1c 15 08 3a bf
1e 05 08 20 fe c1 f9 f9 03 10 fe ff 10 dc 06 fd 13 ff f6 fb 03 f4 dc ff 05 06 6c ea 04 ff fa 02 b1 06 14 eb 0e 37 01 d0 0a 17 28 3c 07 26 fb f8 04 2a fa fa 22 03 f5 eb fa f9 f2 aa cb ef 13 de
08 2e f7 f2 fc f5 f6 04 00 dc fc 07 f1 04 04 f4 ec fc fe fd 00 ea fa 04 01 14 15 14 10 f5 ff 03 1b f9 ea 06 2c 01 02 eb eb d9 e9 dd f7 f2 f8 03 01 f7 f6 f9 1d fe d6 d6 f7 fd 21 1d e2 24 de 21
1a 07 00 15 fa 21 f5 07 06 ec f6 f5 e9 f9 f9 f3 e8 f3 fb f8 05 f8 e7 f9 fd 18 10 fd 09 f6 f5 f7 10 fa 09 0b fa 0f 03 fb 0a f3 16 09 02 ee fc f6 f6 c0 f9 00 fb f8 d9 d4 06 fa 21 11 c4 08 1c eb
1d b1 03 28 06 f7 02 00 fe 45 02 ff ef 3e fd 07 20 02 02 f6 00 eb 1c f8 00 53 3d d7 33 fc f6 fd 15 fb 22 d9 13 eb f4 fc 1b 34 1f fe ff 3d f5 fe fe 0c dc fb e0 ff 3a 17 f6 04 f2 03 f2 0a f8 00
2d 13 fa 08 f8 fd fd f6 f6 02 f8 07 0b 0f f9 fc 0d f7 f4 00 02 e9 e7 03 00 2a 36 ee b1 f5 00 04 f2 f6 0f d9 ed 0e fa 27 fb 12 de fe 01 13 fa 04 04 0c 00 f7 15 04 1c 12 00 f5 f0 e5 04 1a f9 d7
4b b3 ff f4 f8 b3 02 fb f8 0d 03 01 00 17 fb f7 30 f5 fb 02 04 ac 3e fd f7 1f f0 e1 37 05 f2 f5 f5 fa 2e f1 48 ff f4 32 e0 38 01 0c f7 1f ff f8 01 56 f9 f7 c7 f6 25 07 02 00 f3 e4 ff d7 b6 d9
20 28 f3 17 fb 12 00 ff f8 02 f3 01 dd ec fb ff f9 f6 02 f5 f5 41 ed 05 fb 35 fd 3b 0a f8 f9 f3 1d fb fb ff f5 0c fe 00 f5 f8 08 e7 fa d6 f4 f4 ff f9 f5 f6 01 03 f4 f0 fc fb 11 1e 09 f0 12 1a
0e 0e 00 fc f7 1a ff f5 04 f7 fd f7 f5 f4 fe 05 dc 00 03 f4 f8 0b 20 f9 06 10 08 f5 06 02 05 05 01 fe fb 13 fa 08 f4 ff 0b 05 03 0e fa 1e fa 07 f9 f5 f8 fd fe f8 f7 ee fd 00 15 16 cd 1a fd f2
00 38 f7 6a fb 14 fc f9 01 b9 f6 f9 28 eb fc f3 d8 ff 02 02 fe 46 f3 f9 fc ef 21 d1 ea fa 00 00 cd 03 f6 d6 22 38 07 e7 14 e0 ff b9 01 de fc fe f9 d4 e6 01 d2 03 23 dd f4 f9 c8 e7 ec 39 09 dd
0b 15 02 0f fa fc 02 00 f5 af f9 04 42 12 fe 06 03 f7 07 f6 04 ae b7 f6 00 31 d8 d6 01 f7 fa f7 27 04 24 47 23 11 00 bb e4 fa ea e0 fd 02 f6 00 fb 30 1f fc 36 fe f4 f5 fa 02 f3 08 e7 eb ae 07
cb 1d 06 d0 03 14 06 f7 f7 f2 fa f6 dc b5 03 f4 fd f9 04 04 04 1c f4 fe 06 05 b0 02 26 f4 fb f6 e6 ff d4 11 c9 03 02 c4 01 05 eb dd fe ee f4 fa fe 37 21 f6 20 03 bf 26 ff 03 0c 18 24 07 08 ff
1a 17 02 12 02 0a fa f4 fb da fe 07 2c d6 00 f6 27 03 f8 f9 00 f8 e2 fd f8 f6 1d ee 01 fa fd f6 fb fb 0c 10 04 28 f4 f0 13 0b e4 fd f2 e2 f8 f6 fb 26 0b 05 0a f4 f9 f6 f3 04 f0 19 01 1b f6 0e
05 0d fc f1 fe f0 07 fe fc dd fd 05 1e 17 ff ff f5 fb fe 01 fa f0 ee fa 05 f4 e9 f3 13 fb 01 06 21 00 09 16 0f 11 f9 fb e0 17 ed 04 00 d7 fc f6 02 0b 01 01 12 fa fb fd fb fc 12 02 a1 f0 00 05
ee f7 f4 32 f7 ee 01 ff fa 23 f8 fb fd fc f9 f5 3b f2 02 ff f3 0d 14 00 05 f8 ee 02 2b 05 f3 f9 d7 02 0e 37 03 f2 fd 10 19 07 ff 24 02 33 01 fe fc f9 ed 04 06 f8 f5 24 f8 04 f2 21 07 0a 05 0c
02 dc f9 49 fe 01 03 05 f6 d1 f6 fe f6 21 fd 00 d0 06 fa 02 01 c8 f8 f8 fc 06 1e dd 16 ff 02 fa 62 fe 00 5e 0e cf 02 17 10 18 e5 1a fc dc ff fb fe e0 ef 04 49 fc fd dd fb f9 5f d1 f1 3c b9 32
ea ff 01 c8 f6 0e fb f9 f5 9b f8 fd 1a f3 05 ff d0 f9 08 fb 06 1e 08 f8 02 02 1c 23 c8 f8 f9 07 db 01 1d 46 e9 e7 f8 11 12 0f e3 0c fa 4a fd f6 fe 0b 03 fd 11 f5 10 18 f7 f7 d8 1e f2 12 04 f8
e1 d2 f7 e5 ff 0a f7 f8 f6 25 04 fe b4 ec 02 ff 16 05 ff 03 f8 2e 1b f7 ff eb 14 39 0c f9 f8 fd c7 ff 2e fb 81 bc 08 25 ee 0f 06 27 f5 47 f2 fc 04 13 27 fd 19 00 ea 5d fd fa 16 36 06 ec 16 db
00 0d 02 18 ff fa ff 00 01 d7 04 fc 46 24 07 fe bc f8 fd 03 04 f0 e2 fa 06 05 0b 02 07 f6 06 06 cb 02 23 0b 3a 12 07 0d 14 1c f0 e0 fc f5 fa 03 05 17 ca 00 f0 f6 62 d7 fc 06 fd d3 be f8 f0 f1
1a 34 f7 1b f6 0f 04 f8 f9 da fd f9 0c 0b 00 00 01 fc fb fc fa f4 f4 fb fc 28 f4 2d 1c f3 f7 fe 23 fc f6 1d 20 2d 02 e6 ea 10 b8 0a f5 ca fe f6 f7 fc 19 f9 2b fa f5 f2 f6 05 3f 09 13 fb a1 29
1f 2a 03 fc 00 05 01 fb 03 f9 f4 03 f8 1d fb f4 de 01 fd f5 fd a7 d4 04 f9 31 d4 d4 fb f9 04 fb fe 05 10 0d 1a 0b fb 0c 0d 17 bf 03 00 e7 ff 03 f7 20 fa 05 05 f6 f7 c2 f2 00 0c df 85 01 c0 fd
e6 d9 f9 de 07 16 fd fc fc ee f5 01 ef 10 fd 02 d4 08 03 fd 00 da 07 f5 00 da 1a ba f4 00 f9 f8 c8 06 fc 41 09 e9 f9 06 09 17 21 eb fb 4b 00 fc f9 dd d8 06 9b 01 2a 26 fb ff a2 f0 dc 28 1c cf
ff 22 fe 29 f8 19 fe 01 f5 f8 fd 00 df f1 02 fc da f9 f8 fb fe 24 02 f6 06 fd 03 ef 24 fa fc 06 0f f9 21 04 09 f0 08 de d2 eb 06 c4 f5 db f1 06 fd 01 e2 fb b8 02 2a fc fa 05 e2 0a ed 21 ff e4
56 f1 f9 03 06 e7 fb f7 03 a6 f3 f9 02 23 f8 f5 cf fd 02 f5 fa 0f fb 00 fc 20 08 ce e3 05 0a 03 e8 02 2e 1c 3a 17 f8 16 f9 53 23 06 06 1d fa fb fd 0c db fe dd f3 67 2f f4 f4 b2 fe c6 27 c9 fc
06 f3 ff 5a 04 02 06 fe fe 6b f7 fb f2 c5 04 ff 30 f9 f3 07 00 3c 0f f9 04 e1 e0 d8 dd f9 00 f5 80 01 01 10 e4 fc 04 20 d4 f1 22 d8 f6 72 f5 fa f4 0e fd fb ac 04 f4 48 00 fd 98 21 0c 0f 0f d4
0d 1a fb 83 ff 01 05 fa 06 09 f8 01 fc fe 03 f8 df f6 04 f4 f4 ff e5 f9 05 2a f1 28 0e 01 fc 05 d1 01 25 da ea ec f5 18 fe 12 0b 04 04 02 f8 ff f5 05 ff fa cd fe 18 f1 04 f6 e0 07 e6 d9 0b eb
2d 1a fd 06 f9 32 02 04 01 e1 ff f9 d8 de 01 05 06 03 f9 fd f9 2f 0e ff 03 13 20 15 f8 01 01 fb b5 ff 06 ff fd 04 fb f9 02 c6 fa 1d fe 1d fe fd fe 15 01 05 d7 fa ec 13 fd 04 d5 20 1b 42 2d fe
2e 49 f8 01 08 30 f7 05 fe 00 f6 00 0e 0a 02 f4 99 06 06 f5 f7 f4 12 ff 05 ee 13 e0 a5 fc 07 fc ad f8 09 c2 1e 51 00 2d fb 03 10 08 05 22 04 00 f9 ef 0c 01 ea 03 3f c9 01 f9 0b fc 31 10 fa ef
24 d3 fb 03 fb 1e f6 07 ff c9 fc 03 f7 6f 04 f9 f0 f8 f7 f6 fb 0d 2e 03 f7 2f bc e2 5b 02 01 f8 54 06 38 70 17 e8 03 0c 4e 25 3f 7f 02 d1 01 fd ff 0b f8 fb 3f f7 1b fb ff fa 67 e5 54 4f 09 1c
2f 3b 00 1e 01 3b fc 07 fe af fd fb d4 84 f7 f4 cd 02 02 ff fe da bd 08 f8 ee 17 e2 b3 ff f5 01 02 06 18 fc 10 54 fa de e2 e0 ef ee f8 fb 03 f7 f9 c8 26 01 f8 f9 d3 b2 f6 fe 09 ef ba 20 f1 f1
f3 d4 f2 f4 fa e9 fd f6 fb 11 06 00 20 22 fa f7 e1 f1 04 04 f7 e1 0d fb fe fc 05 c4 f1 fa 03 03 2b f6 f5 cd f7 d1 00 27 0c f3 01 da fa ff f5 f6 f4 0a f4 05 c0 03 10 18 08 05 d9 04 e4 15 f9 ee
28 0e 03 19 06 11 f7 f7 04 eb 04 f8 f0 06 fc fb c4 fc fa 02 f7 a6 d0 fb fa 0e 0a f4 f8 f9 03 07 fc 06 fc fa 0f 1e fa e6 e1 ff e6 d1 02 e9 fe 01 04 fe 11 ff 05 f3 00 bb ff f7 04 ee b9 07 d6 02
2b fc fd 13 01 2a fc 06 06 f5 f5 04 16 e9 03 f8 c0 ff fe 04 03 d9 c4 03 f8 18 22 fc f3 04 f3 00 e5 03 1f 0e 0e 12 01 c0 19 fc ea e1 02 01 00 00 f8 ed 2a ff ec 03 fb c3 fb fe 04 12 04 e9 dc 13
01 f3 f9 23 f8 36 fd f0 f9 21 fb f6 12 24 02 f9 cc f9 f9 fc 02 36 ed f8 fa 12 30 f3 b7 00 f8 00 a6 05 24 30 05 07 04 01 1b 17 0d 12 f9 60 fa f8 04 fd 0f fe d2 02 12 13 fc fc 8f ff 17 10 08 f1
24 13 f8 36 f5 37 fe 06 06 e3 00 01 28 ed f8 fe e4 f9 06 03 03 df ff 07 fd e1 2d ca a2 fb ff ff 90 06 c1 13 1d 59 05 d8 01 e4 ed cd 01 34 f9 00 01 e5 fe fb a9 f5 fc 0c f7 fc b7 5b 2a 37 f1 e9
17 08 fc 08 fe 25 02 f9 04 06 fd 00 dd f7 f8 f9 db f8 fd f7 05 f1 f8 fe 07 f9 0b 1a fc fc f4 fc 06 fa c6 f3 eb 0b f8 01 ed cb 19 f4 f8 f9 03 fa fd d2 1c ff 08 03 cc cf 00 fb 02 14 c8 0d fb f4
11 58 00 c6 06 0d f7 ff f7 fe 02 f7 0f 18 fb fc fd 00 fb fd fc 37 05 01 07 1a ea 1a 50 ff fa 01 40 f8 da 2c 12 1d f4 db 05 0f fc b7 f6 d1 f8 00 ff 21 d8 f9 2f 02 e4 14 06 03 69 17 0e 1f 18 50
d4 e1 05 df 00 c6 02 f3 f7 fc 03 04 07 e5 03 04 02 f7 f5 f5 ff be 39 f8 04 0a 19 f0 25 f9 f7 f4 2f 06 f0 0f 09 b5 03 26 01 0a 26 fa f9 43 f5 00 fb fc de f6 05 f8 f9 14 03 04 d2 09 ec 03 00 10
13 80 02 c7 f5 af 04 03 f5 d0 f9 fd 30 3a ff f7 d3 f8 f6 06 f7 9e 35 fe fd d7 2b 82 fb 01 fc fc b7 f8 3a 7f 47 ee 05 35 f7 17 c7 05 02 5c fa f9 02 2d 93 fa ff 02 2d 2a 03 03 95 bd 81 99 9a 9b
d9 e1 fd 09 f9 f2 fe fd fd 19 f8 fa fa fb fc 03 10 03 05 fd f9 cb 12 03 fb 95 07 1e f5 fd 01 07 ae fd e3 4d ee e0 07 ce f5 01 f2 ce 08 33 0a f6 f8 1d 42 01 12 fc f1 1e ff fa b2 5c 32 30 1d 06
db e9 00 1a ff 0d f7 f8 04 ee 00 fa d9 c4 04 05 db f8 ff 07 06 04 d1 00 fd d5 e7 e6 e1 05 ff fe fc f8 dd 24 f5 fb f9 f2 10 d2 05 e9 f7 14 04 fa ff f8 f7 04 fa f9 11 bf 00 01 e1 03 e8 f0 e0 e1
e9 fa ff ed fb 2e 05 f5 06 0f 03 01 34 1f 06 fc 23 fe f9 06 06 16 1c 05 04 fd f2 49 09 00 f9 fc ec f9 15 00 5b ec 06 3c fc 1a 17 0f f7 23 fb fb fa 04 04 06 17 03 08 f2 08 fa 0f 13 f8 f4 03 06
11 16 00 0a f7 e1 06 07 05 dc f3 02 f4 0a fa fe c0 02 05 fe f6 0d e1 fb f8 23 f9 ec fb 05 fe 03 15 ff 03 1e 18 16 f7 e4 22 f5 ea 1c f7 ec f4 02 f7 c8 24 f5 08 fc ff c2 f7 01 1f 04 d2 05 cf ef
f8 f5 03 fc f5 e2 00 05 01 0d f6 f6 07 0e fd 01 eb f2 fc fb 02 e7 de f9 03 f3 f2 f6 12 ff fb fe 07 04 f3 e6 0d 03 fd de 03 1b cd da f5 05 03 f9 ff 18 1e 05 e2 f5 f0 df f6 fc f0 06 e5 e8 03 fc
43 4e 07 11 ff 43 fc fd fd d9 03 fa eb ba fc f8 d6 02 f7 fc f7 29 e0 f9 09 19 f7 14 20 04 f1 02 0f fe 0e d4 ec 2d f3 cb f5 f9 e3 db f2 e0 03 fd ff fa 3d f7 11 fc 0b c9 f7 f4 df 22 4d f5 33 f4
f2 db f8 ee 06 10 fe 02 02 e9 fc f7 f3 fe ff fe dc f5 01 fc f6 d7 cf fe fb b7 c6 e1 1f fb f5 01 16 fd d3 f9 ea 0f 04 ea 11 04 b8 07 f8 ec fe fd 03 10 4f f8 06 04 db f1 f5 02 21 24 fc ea da 05
08 05 03 eb fb 24 fa f3 03 ef ff f7 00 d6 f5 05 0a 02 f6 fc 01 13 f2 f5 08 d4 ba f2 49 fc f7 f6 4b fe ec f0 f5 13 f6 d2 ec f8 ec f1 f2 d2 06 f8 00 0b 3a f6 24 02 f6 d4 fe fa 2d 16 2b 05 03 0c
01 f0 04 e4 fa ea f8 fa 07 f0 04 fc ea 2c ff f4 04 01 00 fb fb 13 14 fd 01 13 1e d7 17 fa 00 fb 38 f6 20 23 f0 04 fd ec dd 18 02 08 f8 ee 04 06 fb 2a 0c fd 02 f6 fb 16 08 f5 0b ba ed 05 f3 fd
12 da f7 f3 fa b0 00 04 ff b3 f4 fb 45 3d fe f1 d0 fa fe fb f6 b3 fb f6 fb 37 30 ad be fe fc 02 f2 05 24 3b 56 ed 03 f4 1b f8 cc 17 f7 0c ff 02 fc e0 b7 06 d0 f4 35 f7 07 f9 0c ae 94 e2 9e d6
d8 11 fe 1b f6 48 05 04 05 27 05 05 45 ce fa 01 e3 01 04 fa 06 43 c3 ff 08 0b fc 1d 02 fc fd 07 fa 00 ed 62 03 fe 00 e9 ce d2 0f b2 fd 27 f5 f9 06 11 f8 ff 1c 02 e4 ea f6 ff 3b 10 05 02 34 0e
1e fa f8 e4 01 ee 07 fb 01 f8 f8 fe 10 2a 02 f8 db f9 f8 f6 f9 b7 f9 fb fc 05 01 e5 de 00 03 05 03 f6 10 f6 1e fc 05 ef 17 f0 d6 42 f3 06 fe 03 fc ef e1 fb f8 00 34 07 f7 f8 e2 c7 80 d1 ab f7
f2 28 07 f3 fc 61 fd fe ff ca 03 f9 e5 0b f7 f6 00 fc 05 f7 f8 2f 27 01 fe 08 d9 0e 2c f7 fc 05 61 02 eb 5c 00 dd 03 ec e4 ff 14 1c fb b1 fb f7 02 0c 04 ff 66 00 bb 00 fb f7 4e 1b 06 0c 51 4c
b7 39 02 e5 06 fe 03 03 f6 ae 01 fe 0f e8 f9 ff e8 06 01 03 fd e8 01 06 02 3f 16 d2 dd ff f6 03 b4 06 1f 38 18 ee 01 fa ff 05 ed ed 02 ff ff 06 fa f7 12 06 fa fc fe de f9 05 e7 db e7 f9 32 e2
fc 0b fe e8 fc f5 f7 f6 fb e3 02 fa 07 00 fa fe ea f3 fc 01 02 ee f8 f5 f8 f4 eb fe ff 04 f4 fe 12 f6 f2 10 0a 0d 04 01 0c f7 e3 f0 f8 ed f5 00 f5 f6 fa f5 1a 02 06 e9 f7 fd 22 18 0f e8 f9 00
05 19 ff 4c fe 30 06 fc f9 d8 06 03 e3 ed f7 fb fc 07 05 fa f8 e1 05 fa fc 4d 19 fb 06 f7 fd 05 9c 04 1e 65 15 f1 fe 01 11 e3 49 28 fb 4d f6 f8 f8 cb 08 05 26 03 15 ef f7 05 3b f2 f7 1d 17 f9
0a e4 ff 07 03 c4 03 ff f7 d9 01 fb 0c 24 fb fb e6 f6 ff f8 02 d8 26 f8 f6 06 20 e0 e4 ff f4 01 f8 02 19 19 15 f6 f2 1a 10 14 fc 14 fe 2d fd 01 fa f3 d6 fb e8 fc 2a ef f5 fc e8 e8 c4 00 cb e6
24 a8 ff a5 05 e2 00 ef f9 ce 01 02 09 1f 01 fd ec fb fc f6 fb a1 0a fc fe 0d ff 80 c3 f4 f6 fb f8 fd 13 fb 23 b5 fd 11 f4 17 04 06 f7 0a 00 f3 f3 26 b9 f7 cd fd 17 16 fd 03 9a bf c4 c8 d7 c9
e8 cc fd cd 03 f8 06 f7 02 d0 fe f7 fc 1c 02 f8 16 01 f3 f2 fb 22 27 fa fe 19 11 00 08 f6 fe f4 05 f6 24 2c ef 02 f8 0f 16 17 06 28 ff 09 00 fa f9 f6 f5 ff 1a f3 22 12 fb 01 f7 15 ea f4 09 ec
49 06 01 b9 03 16 02 00 fa 1d f8 01 0d 00 fa 00 16 02 f8 04 fd fa 17 08 00 e6 fd e6 2a f8 08 fe 16 f7 10 05 27 f8 fb 25 05 f7 02 f4 04 3f 05 f9 02 19 1a f7 f4 f8 07 0b 06 f4 2f 63 eb 1f f7 f1
f4 01 06 09 07 04 fb 08 01 03 02 03 fd fe f9 fa 08 01 06 09 fe 04 f9 00 fe 09 ff 02 0d ff fe 05 00 04 01 f6 07 f6 09 fc fb fd f8 fc f9 02 fc fa 02 fb 03 fb fc 02 fe fa 07 08 fe 06 00 fb 00 fc
58 ed fa e6 00 a6 03 03 05 9d ff 03 3c 53 fd 00 ca 00 fc f6 fe c0 2f f7 06 4c 7f b0 9f fc fb f9 a3 fa 1f 47 4f e2 f9 23 34 3a 2a 26 06 52 00 00 ff f2 ae f6 c8 00 17 3b 03 f9 80 d9 cd eb c4 e3
ae de 07 cf 07 fa 03 01 fa 00 fe f9 23 f5 07 ff 3d f9 fd 07 09 f3 7f fa 05 16 1d 09 a8 f9 fe fb bd f9 65 ef 22 c8 09 47 11 1e 29 54 07 3e fa fc fb ee 35 fe ca ff e2 15 fb 03 dd 27 c2 d7 3b 0e
0b 08 fa 27 fa 11 04 f9 f6 10 01 f3 f0 df f6 fd 15 f2 01 f3 02 f4 e1 f5 f9 04 f5 fe 14 05 f8 fe f3 f6 d9 39 23 22 fc 08 18 f1 f7 ef ff 06 00 fd fa d7 16 f5 15 01 e4 f4 fd 05 31 12 20 f6 14 08
18 eb 01 f2 03 ef f9 06 fa 00 f4 f7 20 3a f8 02 ea 01 fe fc 00 a9 f6 00 04 04 fe c0 f1 f9 00 fd 0f f9 d3 f5 13 fd 06 0f 0f 0a bd f8 05 01 f5 f6 f7 15 e7 fc ff f5 10 f2 fc fd ee e8 80 bf 89 f8
14 02 f9 03 06 03 f7 f9 f6 f5 fc fd 0b e7 ff fd ed 07 fd 05 f8 0b f0 06 06 f1 e8 0d 01 07 fd fc 18 01 ed 0f 03 0f 02 04 f7 f3 03 07 fe ec 00 fe 07 07 f8 f5 f7 09 e6 f1 f7 f7 0b 08 f9 fe 01 02
df b1 fc ed 06 9f f7 03 06 1b f8 06 f8 43 05 fc ff f4 fc fc f2 c2 21 fd 05 00 05 11 ec 05 f7 f8 12 02 e9 19 0a af f4 0c fd 0e b8 fe fb 0c fc f5 01 d7 ce 02 e0 fb 20 0b fa f6 17 c7 ca df ce ef
50 42 fe 1b 07 5d ff fe 04 0e f8 02 6f de f5 f8 19 f8 01 f7 fe 28 ea fb 00 37 32 30 cd fb 0c fd e9 f9 4a 02 70 3f 04 32 30 db 00 0f ff 72 fe fe f8 ef 4a 02 e1 06 06 47 fa fa 19 71 5d 7e 25 35
01 08 04 08 fe 1f fd f4 07 de 02 f5 f1 db f6 fd e8 fd f7 f3 fb f8 e0 f7 06 e7 de 05 e6 f3 ff ff 19 00 fc 0e eb 08 01 f7 f3 ef f2 eb 02 f8 fd f8 ff 10 16 fb 09 fa e7 d5 f2 f9 fe 10 07 f6 e6 00
06 1a 04 cc 00 2a 03 fa f8 ec 00 fe 10 e1 f7 05 01 f8 fa fa 03 f1 07 f6 04 1a c9 fa 44 f8 05 fe 14 02 fb 23 10 c0 f8 f5 04 e5 dd 00 03 c0 0a f3 f5 16 2d fe 11 01 d9 db ff 00 1d 24 09 0b cd 07
fb 1c fc e8 fd 32 f9 fb fc 02 01 05 e2 cd f5 02 fe fe fa 01 f2 20 f3 f9 00 f0 d8 24 2a f7 ff ff 11 f7 eb e0 de 16 fb e3 ff fe f8 e0 02 c7 01 fd 03 0a 51 f8 20 04 e3 fd fa 05 05 24 35 f0 2b 05
cb 80 f4 80 fa 8b 03 fc fd e2 04 00 fa 3e fa f8 18 f1 ff 00 f2 9e 52 f6 f9 dc 09 94 0d 04 01 fc fb fb 26 42 0b d9 03 1b 00 15 e8 08 01 4c f4 fd fd 1f b0 fa dd ff 19 20 00 fd b4 cd bd ad d1 a0
52 03 fb f5 fa 1d 00 02 fb 55 f6 08 0c e8 fb f3 23 02 09 fc fc d1 f4 fb fe 28 17 26 fc 08 00 03 ef ff 50 eb 23 1b 02 f4 15 35 08 2b 04 12 f7 fe ff 0b d4 01 db f8 35 2f 01 05 45 e2 02 19 e2 e6
0b e2 f8 15 02 e5 fb 01 03 1c f5 00 f1 31 fe f3 e2 f7 f8 06 06 ef 29 f4 f7 17 3b e1 14 fe fe fb 01 fa da f1 f1 e3 01 fd fa 0f 15 fd 04 12 f9 01 f4 eb dc 04 e6 fa 14 f5 f6 03 f5 e2 fe fa f7 ed
ed bf fa 28 04 19 fe f8 ff c1 00 ff cd d3 f9 fa dd 01 fb 05 03 13 d7 fc fd d0 07 d6 0d fc f5 fa e9 06 1a db 1c 41 00 0b bf 12 ef c0 01 0e f7 fe f8 fe 41 fb c1 f8 33 d8 f4 f9 10 48 13 0f e2 f1
01 db 04 0c f9 0c f6 01 f7 0b f3 fb f2 ff 05 ff fd ff 01 02 04 1c fe f3 08 17 e4 1f 06 fd 04 fc 07 fc 2f 39 ee d1 fa c0 1e 0a f0 ef 04 01 04 f9 06 33 fd 04 3d fe 23 23 02 f8 33 ff 0d 02 36 18
11 0b 05 e7 fc 9e 02 01 01 e6 fe 02 10 66 05 fa fa f7 07 02 fc c5 29 f7 f6 63 27 00 33 06 06 ff cb fa 58 23 12 1c 05 f2 e8 23 ee c5 ff 49 fc ff fd 41 2a f9 fd ff 4f 50 fe 02 0f 0f 15 12 ea f6
32 da 06 30 fa d3 03 ef fc 08 fb fe 0f 0d ff fe 0c f9 03 03 fe d9 09 fb f7 47 36 de 03 04 f6 f8 dc 01 3c f6 18 df f9 2a 27 24 13 45 f3 26 04 f9 01 05 b9 fe e8 fe 2d 17 f8 02 f6 f5 df f6 ff fe
4d 47 f8 f7 03 0c f6 fa f8 d4 ff 03 48 23 fd f7 ef 02 f7 f9 fa d6 dc fd fb 4d e9 ce 49 ff f8 fa 53 fe f3 24 54 45 f9 a3 e7 fb 19 07 00 a1 fd 07 06 0e 12 f6 42 00 b5 ed 01 01 4b b6 cb e9 0d 17
20 cd 02 e0 06 26 fb 00 01 09 01 05 d7 05 01 f6 10 05 00 f4 ff 05 00 02 fd df 4a ea f7 04 ff fa f4 f8 0b 1d 13 fb fa ec e7 36 3b f7 f9 37 04 07 f6 e1 07 06 cf fd 22 e8 ff 02 f2 0c dd 1c 2a e2
62 2c f9 04 fa 29 01 fe fd d8 06 fd 50 1f 00 01 e7 fc fd 06 00 54 fe 03 ff 5e 10 11 ad fa 03 06 eb 05 f7 0f 5a 67 00 0c f8 0c 3e f5 ff 41 fd 01 04 09 1f f7 aa 02 25 eb f9 01 e1 0a 20 7f 6b f7
0d d5 02 e5 ff ec 00 f5 03 3c ff fa 0c fc f6 fd 1f fc 04 01 f5 05 09 fa ff 08 11 e6 f0 04 f9 f8 d2 fa ed 38 43 cd 03 0d 23 ed 06 00 fe 2d f5 fc fc 1d f0 fc 06 00 10 0f fe fe da f2 3c 1b e5 0e
12 e8 05 1f f9 f6 03 fd fb ed 04 ff 12 06 02 fc e1 fc fd fe 01 e9 e8 fb f4 fb 01 c4 15 f7 fb f7 1e 04 02 08 1b 15 f6 dd fb 09 02 03 03 00 f5 04 04 f8 d3 02 12 05 15 e0 f9 f5 0a cb fd 03 f5 fd
0c c9 f5 53 00 01 06 ff f7 ac 03 02 1f fb fb 06 a1 fb fb fa fe 33 f1 fd ff ce 4a b9 9e f8 07 fd c7 f9 15 fe 48 45 f8 ef d1 1a 08 d3 00 0d fa fc 00 e6 f5 fe 8a 08 23 d1 04 03 d6 04 2c 40 26 ec
ad 30 fb f3 f5 8a 00 f8 03 e4 f7 fa 1e 22 f8 f3 62 06 00 ff f8 eb 40 f9 fe ce d4 ec 7f 04 04 02 eb f6 06 57 ea ef fb e1 d5 ef b3 e1 fb 15 07 fb fe 15 33 04 44 fc 0c 3c fe f5 f9 fc 07 bb 19 e7
ec e9 06 fe f9 19 04 04 fe ff 03 03 db 9d 07 fe e1 f7 06 03 00 16 17 07 f4 e6 06 1a 18 07 fc 03 ee 06 28 fb fc 1e fe 18 fe fd 28 f1 00 04 fd ff 03 f4 03 fd f1 f6 05 0a f7 fe d4 02 08 17 0c f3
78 47 f9 e5 f9 52 f7 01 03 af 02 07 17 03 f7 02 c9 fd fd ff f8 40 bf 00 fb 53 f6 01 f9 0a fa fe 16 07 12 f5 31 31 05 bc 12 1a 1a 1c f8 d0 08 f7 02 21 32 ff 0d 07 e6 be 00 05 31 28 f5 29 05 29
30 fd ff f6 00 20 07 04 04 e7 fd f8 25 fc fb 05 b1 fa fc fa 00 ed c2 08 00 15 e4 ec db f9 fd 01 09 fd 1e 06 41 34 04 e9 d8 fd 06 fc 07 e2 fc 03 02 ae 3a fb dc fa fd af f5 fb ff 98 f5 d8 f6 0b
11 fa f4 f8 f9 0e f6 fb ff 08 f7 f8 f6 f5 04 fd eb fd 01 fe f7 11 e3 fc f8 f2 09 0b cb f7 f7 f4 fa 05 ee f1 f3 00 00 ed 01 f9 05 ed fc ff f3 00 06 02 01 fb ea f9 fb fb 01 fe e4 e0 1e f4 f3 01
2a 05 f8 06 fd 01 fb 02 00 fc f9 02 0f 00 f7 05 e8 08 f9 ff fe f0 07 f3 f3 1c ec 02 ff f4 fe f6 01 06 e2 10 0a 10 fa d6 e7 03 e2 d6 05 da 01 f9 04 10 e5 f6 10 f8 cb 10 fc fc 0f dc 08 00 fa f3
03 f2 fb 2e 00 e4 fa f4 f6 ef 00 f6 f3 ed 00 fb 35 f8 f3 f7 fc dd 00 03 f7 d0 0a 14 22 fb ea fd c7 01 03 f4 d2 e4 f6 f1 ed 03 1f fd f5 10 fc f1 f5 3f 33 02 38 f5 ed 41 02 ff e7 36 fb 10 16 ec
fa 00 fc f7 f8 10 ff fc fc f1 fe 06 f7 13 06 f0 01 f5 f9 f8 f7 01 15 f6 fd f5 fe f1 ed fc ff fa f4 f8 00 01 e1 ee 03 12 15 09 00 07 fb 05 ff 03 02 10 f2 03 0e fe ee 06 f4 f6 ea eb 03 05 0c 03
0c 18 fd fc 00 f3 00 fd f5 e9 07 00 ec d1 05 ff e3 ff fe 03 fe 3e 09 fd f6 ff 1f e6 e2 06 fa 02 ca 00 f5 f1 0e 32 fd 16 ea f0 35 04 fb 36 f8 f6 f7 d4 08 f9 b6 07 0a db f6 f8 c0 ff 04 2a 0f ad
da 34 00 e5 01 d6 f6 fb f6 16 04 f8 1d ff 03 fc 39 fc fa ff ff de 2b ff f7 04 db 49 ef f8 03 f7 09 fb 1c 01 ea 13 00 0b 08 28 2a da 02 34 fd fa 05 59 28 fa 3e f4 f8 64 f6 ff 15 77 f3 fc 1c 03
fe e2 03 15 fb 0f fa 08 fd ce fb fc cc ac fb f2 c3 fa 00 fc 01 15 ed 06 01 d2 04 fe f8 f9 f6 04 f7 03 29 f3 10 38 fc e7 e6 f5 18 cd 02 f6 ff 05 fb f6 fb 07 ca f8 0e 0d 00 ff e0 f9 fa 16 19 e0
24 63 00 0d fa 49 fa 07 fc 17 fa 06 2e dd 04 f6 d5 ff 03 ff 04 13 cc 04 f7 59 47 2b c8 0b f5 fa ca 03 f2 34 43 3c 04 fb f0 f3 5e ca 02 f8 fb 03 fb c7 da 03 d1 f9 fc a0 fe fc e1 b6 f3 07 2d ed
1f 18 ff e6 03 39 07 02 07 16 ff 04 1f c0 06 02 ee 08 fe 05 ff 08 0a f9 fb 26 34 23 d8 05 06 f7 f5 00 16 0d 62 3d 03 d0 f3 e7 61 e4 fe f7 00 00 04 21 1b 04 da ff 00 32 f9 f8 e3 11 2f 3a 3a fe
ff 09 00 18 f9 03 f6 f8 03 07 f5 fd f6 20 f7 f8 09 05 06 02 fa 16 24 f4 f3 e6 14 e5 09 ff fb fc 0a 03 33 ef 03 0f 01 df f7 23 0e e0 ff 03 01 f9 ff 03 d5 00 15 01 1b 06 00 f9 f3 dc 0a f1 1d ec
f8 0e fe f5 f8 2c fe 01 fe 20 fb f9 1f 0b f6 f9 f6 fa 07 04 03 26 f5 fb fa ed c5 0b e1 f6 f9 fa c2 f8 fe 41 f7 0f 00 f7 da 17 1a ec fe e4 fe 05 fa 12 29 ff 05 fa f9 ea fe 05 eb d8 fe 0a 0b 0e
1e 22 fd c5 ff d0 01 06 ff 16 f6 ff 2c 15 06 00 e9 fb 00 05 fe 05 c1 fc f4 2a b1 f8 13 ff ff 00 f5 f9 f6 dd 26 04 00 e1 f0 f9 ef f4 f7 df 07 f8 01 0b ea fd f3 f7 09 a5 f9 05 ff b9 cd c4 fe 27
26 cd 07 f5 07 f8 07 fc fc 17 03 fa e7 51 02 f9 db 02 f8 fc 05 0d 0a 07 f9 06 73 ff 9c fa 01 ff 80 02 ee e5 1d ea 04 d9 0a d9 2f e7 fc 67 04 fa fa b4 07 fb c4 03 07 00 04 fa 9b 14 fd 19 32 dd
0e 08 fc fc 03 1d fe fa fd e2 f5 01 eb f9 fd 03 05 05 fb fb 06 1b f4 fc f8 00 fd 10 f3 f4 03 fc f5 03 db 12 ec 15 f9 f0 e9 02 36 f3 02 04 fd 00 f5 e4 ee f9 0d 03 e7 d4 00 fa 07 e5 fe 20 1b ec
b8 8f fa ee f6 1e f7 01 f7 04 07 03 fd 0c fe fb 1b ff fd fa f9 20 fe fd 01 dd 0f ce 16 f6 01 04 f3 f5 f7 30 02 dc ff 17 f5 f4 10 27 06 f1 fd 04 02 18 dc fb 03 fa f9 06 05 02 22 ef 47 df e7 e6
ca ed f4 dd fa f5 06 ff fd 3d fc fd 1c f0 02 f6 33 fb 05 f6 02 5d 31 f2 f6 cc 1c 31 e8 01 05 f5 8b 06 37 2a d8 ce f6 03 f0 2b f8 4a f7 3a 03 fd 01 4a f9 f7 a8 f7 0b 61 04 f5 dd 57 00 e2 1d 18
36 16 fb 12 05 f3 05 ff fb 20 04 f5 15 d6 06 ff 21 03 fd ff 02 06 e7 f8 f8 40 02 1a 0a f7 fa fc ca 03 08 15 09 0d 04 eb 08 05 30 02 ff e6 f4 f7 f4 01 fb fd fb 03 0b fb f6 fb dc f2 fd f3 d0 06
eb d8 f8 fe 01 29 00 fa 06 3c fe 04 bb eb fa fe 0a 02 ff f7 f6 06 fd 03 ff ed f1 cc f9 04 f3 00 20 02 db db c6 bf 08 f0 03 dc 5e 1d fe e6 06 04 fc d6 02 f8 14 02 cd f0 fb 02 06 bf fd 10 22 ee
fe 2d ff fd 00 0d 02 f8 09 dd 03 00 d9 86 f8 f3 3b f8 01 fa 07 0c 12 05 fb ea 99 45 32 07 04 08 fc f8 d0 f7 12 00 fc f9 2e c9 f1 26 fa fb fe fb ff fc 06 03 3d 03 df 3b fe f8 26 0a 23 19 10 0f
e4 5e 05 ed fb df 04 fb 04 2d f3 f7 ff e3 05 fb 49 fe 03 01 f9 01 fd fc fa e4 dd 1e fd f9 f9 03 0e fd 33 db fd fc 04 e5 17 2b 13 fe f9 0b 06 f8 f8 61 2a f6 16 fd 03 7f 06 f6 f1 fa 08 bc 48 f3
ea fb f7 f3 02 ea 03 f8 02 ea fe 02 1c e5 f7 f6 05 fd 03 fe 07 f6 d1 01 fb 1b e6 10 21 f9 fd ff 04 06 01 e5 f2 fd 02 b5 c7 d3 ec c3 f7 fa fb fe 03 2e 1e f7 e2 f9 11 e2 05 03 28 a0 e3 0b 1a fc
3d 05 f7 e9 01 f6 f9 fe fc ed 00 04 0a 11 f7 fb ff 04 fe fa fd f8 f9 f8 f5 0f 04 32 13 00 f4 fe 1d fa ff 2f 2c 14 05 1c f9 00 e2 0a 01 18 fb 01 02 f8 d3 fa 18 fa fe 23 00 fb 3a e7 f9 07 db 17
e8 22 fe ff 02 1a 05 f8 f9 2b fc f5 33 f9 06 f4 0d fe 01 fd f6 f6 d0 00 00 f7 d0 f6 f1 f4 f9 ff 13 f7 ef 2e 0a fa f7 c4 b3 f6 08 be 02 09 01 f8 00 28 2b f5 10 05 d7 1d f7 fb f0 dd 0f c3 29 f1
f1 d7 00 f9 f5 12 fb 01 f8 11 f9 fc 0c 17 fe f5 e7 f9 fe 03 fa 07 09 01 00 db f7 ac ef 05 02 fe 2e fa fa 43 fc 0a 06 fe fc 02 db e6 02 f2 fc 01 fc 29 02 f9 2d 06 1a ff 05 07 02 41 1f df 2a 15
ea a9 02 fd fd 02 fd ff 06 17 f9 f9 d6 13 fb f4 07 04 05 03 fd 37 1b fd f4 e6 4a f7 fe fd 00 00 eb f6 d4 2f f1 e8 07 ef e1 c9 21 fb 04 52 fc 05 f7 d3 fe fa c1 fd 0e e0 f4 f7 dc 13 11 0a f5 d0
09 e6 f7 f6 ff fb fa f7 02 15 fb fb e6 e2 fe 01 fb 07 06 fb f7 20 fd f2 fc e5 f1 f4 fd 06 f7 f6 e0 f9 fb ef e0 0b ff cb ff 07 10 f0 06 1c ff 01 fc 07 ff ff f3 fc e1 f9 09 f8 aa 20 f7 12 f8 1a
12 dd 01 dd f6 db 07 f6 fa fc 00 fe 09 2e 00 04 2b f7 fa fa f6 fc fc fd 05 0d 2b 06 cb 02 fd f9 e9 07 1a e0 0e d4 f4 fa 03 0e f8 ff 00 f2 fe fa 01 ef d7 fe 09 f8 09 fe 01 f8 26 bb fc fe ed f2
15 d6 02 16 fe f4 fe f5 06 be 01 f7 04 c6 03 fd e9 fd fc 07 f8 1d ca f8 fc 9f f5 2a 21 07 05 05 c2 fc d9 1a 30 fc 04 fa 10 f9 1a f8 f4 10 fa f9 03 01 d2 fa 2c 04 05 03 f7 01 05 22 29 31 27 10
dd 51 06 c2 01 a1 f7 f5 f6 eb 04 05 50 ce fe f8 21 fb 03 fa f8 dd ba 01 05 cf d6 e2 18 f4 fd 07 a2 ff 04 44 fb 0d f5 f8 da 16 c8 be 03 41 ff fe 03 4d 11 f5 18 fe 06 54 f5 ff b0 00 04 cb 23 ce
f6 cc f8 0c ff f6 04 f2 ff 16 f6 fe d6 e7 00 f5 07 f7 06 fc 01 02 44 fb 00 80 db 09 ee f6 f7 fa 01 f9 e2 f4 e6 05 ff 21 25 cc 1f 03 fa 00 fa 03 fa d2 07 00 0c 02 f7 21 fd 07 e1 b5 fe e9 09 07
fe dd 06 28 ff 1d 01 ff fb 3a fa fe 04 15 fd 00 1a 03 fa 00 fd 24 15 04 fd fa 23 c6 36 01 fe fa cd f7 f8 3f ed c2 fd 0c 20 eb f2 f6 fa 2c 03 fb fe e0 1a f6 58 05 09 11 03 fa e6 ac 29 1f 0c d4
11 fb 00 f5 fe 15 ff fb f8 00 05 fb fd ca 08 f9 ff 03 02 ff fe 08 d8 01 f4 10 f9 30 0b 06 fc 06 00 05 00 0c 17 13 08 1a 11 c8 21 0a f8 e4 01 07 02 a5 04 04 1e fd bf d2 f7 f8 3a b3 de 29 0d 0e
f6 02 00 f9 fd af f8 08 f5 03 f2 00 f9 01 06 f6 4e f6 03 06 f3 d8 1e f4 f3 00 0b ea 59 05 02 01 e4 f6 eb 31 c1 ca fb 36 f8 e9 d3 e7 04 4f fb 06 f6 04 1c 00 25 f5 c5 2b f8 04 04 e9 23 fd 09 0d
f4 f3 02 2d 07 2a 04 f3 01 44 f4 ff bc ec 01 f5 e8 03 01 f6 02 07 fc f2 08 0e 37 f7 e1 fb fd f3 20 fb 0d 05 ec f4 ff 0b ed 14 62 19 06 3d f6 ff 00 d1 07 07 e5 f8 0a d3 f8 02 14 d1 06 37 24 ee
07 e8 02 e4 fb f9 03 f3 fd 1b 06 06 08 0e 06 fc 16 fc fc f4 f4 ef 13 01 f8 07 f9 ec 15 f9 f3 01 b8 f9 ef d3 f6 e8 f6 19 12 d9 da 17 f9 2a fc f9 fd de 1c 00 0a f8 fd 14 01 ff ea fb 17 23 09 d2
0c 0a 01 09 02 e4 04 f8 fe 00 fe f8 11 fc 05 f4 ff 00 ff 05 fb f0 ea f6 f3 e7 fd f2 fb fa f8 fb eb 06 e6 e7 e9 f9 f9 09 fd fa 20 e9 04 f6 fc ff fc d2 c6 00 12 f6 0f e0 f6 01 13 bc e5 fd f1 e9
ea e6 00 08 07 02 03 fe fe 45 f6 fa be cd 05 00 07 ff 02 fa 02 34 0a fa fc f4 1c ee 02 ff fb fb 0c 03 04 f3 d8 e0 08 f4 0e a7 0a 11 ff 27 fd fc fd f5 01 f6 26 ff b1 f8 ff fe f3 0c 42 19 1d f4
c4 05 01 ea 05 0a 02 fa 04 0d ff ff f1 b0 fb 06 11 fc f8 fb fb fa e3 f7 fe d4 e2 de 00 03 fe f8 2b f8 c0 f6 f6 fb 08 0b e4 ea e1 12 ff 10 fd ff 02 19 0b fb 1b fc c2 11 fc fb fe f4 3a fc 29 e3
f8 ef f7 0b fd 1e fb fa 07 0b fc f6 92 bf fb 00 f4 07 fa 04 02 26 09 ff f8 bd b8 16 13 04 f6 fa 03 03 c4 ff ee 13 02 f7 25 c4 24 05 06 eb f6 fb 01 cf fd fe 04 04 e5 f8 f4 f8 e0 e7 14 19 0f f7
e9 0b 04 0a 08 23 00 03 fb 2a f9 05 d2 ec fb f3 3e 08 03 00 fb 28 24 01 f5 d3 f9 f8 2c fb fd fd d6 ff dd 25 bc 04 f9 09 f8 d6 30 1e fe 1d 0c f9 f7 e7 05 ff 26 fb f0 f3 0b ff e4 7f 73 0f 08 c2
f8 ea f5 2f 08 2f 07 05 f7 0b f7 f8 00 ee 00 fa 00 fc 04 f9 06 ed e4 fa ff 01 cf 0c 49 f8 00 fa 11 00 c2 1c f1 e9 08 fe d3 b7 00 ce fe f3 08 01 f9 2a 09 00 10 02 e9 19 00 07 d7 2d 0a f0 3a e4
d5 24 fa 06 f5 07 fb ff 00 59 ff fa e6 cb 03 f5 6b f8 07 04 fd ce 01 ff fc c2 e0 fe 15 fa f8 fc 29 01 cb fd be de fb f1 04 f1 eb ea fb ea fc f6 f7 1d cc f5 42 f7 bf 2c 01 05 03 00 cb e0 40 f8
07 f8 f7 0c f9 0f fe 02 f8 20 ff fe d4 01 f7 f8 29 ff 03 01 fe 0a 23 fe f6 dd e2 07 09 f9 05 f9 f2 01 e6 24 df 06 f7 21 eb 02 e1 ff fa e6 01 f9 fc ed fe 02 0f fa ec f6 fa fd fe ea f1 f1 e4 09
b6 1d fe e0 fb 0b 02 03 fa 18 05 02 14 e0 fa fd 1a 01 fb 02 fe 1d 11 04 fb e8 da 0a 34 fe f9 fd 09 fa de 38 f2 f5 fb 1c df c7 0a e3 06 ff fb fc 06 02 17 fb 2b 04 f8 ef 02 07 f6 e3 f6 e5 1e 01
01 da 02 0a ff 68 f8 03 ff 14 f8 07 b3 ef 02 fa 00 f4 fb 09 f9 21 19 03 f6 33 0b 0c 08 fe 02 00 10 01 fa 15 e9 f7 00 01 16 d4 4e 31 fa 24 0d 02 06 b7 2c 07 39 fd cd 02 02 01 d9 55 08 7c 37 f2
ce e8 f6 df 05 05 04 05 f9 3b ff 00 e4 f2 ff fc 2d 03 fc fa 00 e7 3b f5 fd e8 1d dd f3 f8 fe f8 e6 07 fe 17 0b be fc 35 ec ed 00 04 01 1e fb f9 fe eb 2b f8 00 f9 d8 1d 02 04 11 0b 0c 17 d9 c0
cd ea f9 0b 04 20 f8 06 f8 e8 ff fc 27 05 03 fe 20 01 04 fe fc 03 03 fd f9 03 1e 0c 1b ff 06 03 e8 fc fd 56 0d c6 ff f8 d9 39 e4 14 03 e4 f8 01 06 1d ee f5 fc fe f8 36 04 f9 0f 41 f9 2a f7 e3
1a d8 ff f8 04 2c f6 03 05 02 fa fc ff c8 f9 fc 2a 04 ff 00 fd 0d 14 03 fd 16 de d0 21 fa f6 03 fb ff f8 f9 ef d2 f7 f5 cf d7 f9 e4 03 df 00 ff 06 23 00 f7 3c fb cf 19 fb fb df 03 10 34 ff d7
e1 23 fb d9 04 10 06 08 fb 1e fe fe f6 0f ff 04 13 03 f7 fc 04 0c eb 00 fa 01 28 23 f3 f6 fe f6 e6 06 1b f6 ee 08 fa d8 08 17 0f fc fc 0f 01 05 f9 30 f1 ff f9 fb 10 03 fd f8 f0 ad 01 e9 40 f9
eb d7 f5 06 07 37 fb fc f7 14 fa 01 f9 2c f7 08 0a 03 02 02 08 07 16 fb 04 ed 32 f8 10 08 fd 03 f7 fc e3 13 1a f4 01 f9 08 b4 34 27 02 21 f4 01 f9 a3 09 05 29 03 f7 f0 fa 08 14 f5 c7 dc ec 0f
e2 22 04 0b fb e4 f5 03 f9 fa f7 04 fe 00 04 f6 08 fb 05 f9 fa ed e5 00 00 f5 f9 f6 e7 f9 f1 ff f1 fa 33 04 21 fa 00 04 fd 1a ec 29 00 e3 03 fe 05 19 f2 fa e3 f3 14 ec 06 06 f0 e8 ee ea e9 fb
c8 17 fd 05 ff da fd f4 f7 05 01 03 ec 11 06 01 05 05 fe 04 05 09 15 00 fe 19 1f f4 ee f9 f7 fc 3b 06 cd 1a ca fb f9 3b f3 1b f1 2f f8 0e f8 f9 fb 0c 1a 00 ee ff dd 02 05 f9 29 2d 2d 09 04 e8
c8 1f f9 11 f7 fb fd ff 01 eb f7 fd df f0 fc f8 18 fb 07 fd f7 e9 05 03 f7 10 fa df 0f 03 f3 fd c7 07 02 0a e9 e5 f7 2a e6 9d 06 0e 01 23 03 04 f7 15 08 06 f5 04 c8 ea ff 08 f5 a9 f0 c1 e7 ff
08 f5 01 f8 f7 14 03 fa 00 ff fd 06 f8 27 fc 01 1b 03 fe fb f8 ef 0c 02 fa fa 05 2b 04 fa ff fe e1 fa ed 16 1d c6 fc 0a ec f2 5e f2 ff f4 03 fb f9 f8 e5 fb 0d fd ea 01 f6 fe e8 14 29 28 2d f9
ce 3d fe ea ff cc 03 fe 00 de ff 07 23 e8 f9 02 69 07 02 02 00 0f 16 fe 02 eb d4 13 42 07 fc 07 ea 05 0c 3e fb c8 fb c3 d8 f9 05 b0 fd e4 07 06 fe 35 02 fc 2d f5 fa 66 f8 f8 99 29 05 d5 3e ff
f9 03 05 08 f8 15 05 01 06 17 08 fa 24 f0 fd f5 fb 00 07 fc 05 9b 1e 02 f6 03 f2 e8 e1 fc fc f9 22 fa f9 15 bf dc f7 0c 2b e7 3d 1f 04 f3 f8 f7 fb ff f6 f7 1b 04 e2 14 01 02 17 18 04 1c 25 f0
21 e3 05 1d fb 28 fc 04 fd 0b fc 01 cc e0 01 f5 11 f9 07 f9 fe 47 0e 05 02 f6 c5 80 f1 ff 03 f9 f8 ff ed 21 e4 35 fb e0 f3 a6 23 fa fb 15 f9 01 ff c7 08 f9 20 07 e6 06 fc fa bc 25 45 1f 16 c7
f4 19 08 ef f8 28 f7 03 ff 2e f8 ff f4 04 fc 03 1c 02 f6 05 09 f8 3e 03 02 ef 1e eb f4 02 f5 f8 05 fb 0e d3 e9 dd 04 14 03 22 e0 17 05 17 fd f9 ff f2 b2 ff 56 fb 0e 18 04 fd bb 1d f1 ef 39 05
0b fb f7 00 02 12 fa f5 f8 b4 01 fc fb 23 01 00 02 06 ff 06 fb fc 3f 00 fb 02 19 29 2e f8 05 05 22 fc c9 0e ea 28 06 e6 14 16 14 11 05 ea f4 04 fa 03 e8 fb 29 02 c0 0f 02 f9 08 ea b0 06 1e 10
f2 e9 f6 ef 05 da fc f9 fe da f6 03 37 cc 04 ff de fb 03 08 ff ea e4 fc 03 d3 d5 f8 df 05 f4 fa f1 f8 e6 28 06 f1 03 e5 23 d4 04 f2 fb f6 f5 04 f9 f2 bd f8 13 fd d6 fb fe fe 02 ea 1f 19 f7 0b
d7 38 fb ff 05 0e fa fd 03 0d 03 fe 3d b1 fc f6 04 06 03 fa 06 f7 c9 01 04 dc f2 e9 17 f4 f6 f7 cb 00 1a 41 f4 c4 fb d3 eb 30 d7 ce f5 10 fa fe f7 43 cb fa 24 05 ea 69 f6 fc c0 01 83 dc 32 d6
1a ae 01 f1 05 fc 05 f5 ff 1f fb fc e3 30 fb ff e5 02 03 f9 fd d1 19 fc 00 aa f5 d3 df fd fe fe 26 ff ef ee d4 09 f8 06 dd 08 11 0c f9 fd f3 f6 f9 dc f4 01 f4 fc 12 f4 00 ff fc b8 e5 f5 0c ec
bf 07 fe 64 fa 1c 06 fb f8 db f6 fd 23 06 fd f6 1a 08 04 04 00 42 3f fb f3 de 0d 25 ec 02 00 02 fd 02 ed 53 1c 18 00 1f 17 2c 32 35 fb 2a ff fd f8 0b 16 fa ec f7 ec 5d fd fc e7 ea 04 25 34 0d
f5 d9 06 f6 ff fb 06 03 06 18 05 fa ef f3 fc fe 06 04 06 06 fc e0 00 fe fd 0e ca 01 12 f8 00 fd 1d fe f6 03 d3 07 fb 03 f4 dd 0a f5 fc f1 fb f6 09 06 32 fa 18 fa fe 09 04 04 f3 dd c9 01 1e f2
2d be 04 39 fa ee 06 f3 01 ee f8 fc ff fd fc 03 20 00 fb 06 03 e9 a8 08 f9 23 20 cb 30 08 fd f7 0a 04 3d cc 37 0e 07 1b f8 ed f9 f7 ff d0 f9 f6 ff 05 5f f7 12 f7 1b d0 f8 05 28 82 eb d2 32 c5
b7 f4 f9 40 fd 59 fe 03 f7 44 03 f8 c8 0b fc f9 40 01 03 03 04 15 1f fd ff 07 e4 39 13 f7 05 fa 07 fc 13 18 dc 0b f6 27 0e dc 5b 29 f7 26 03 f7 f8 e0 14 07 42 ff 00 11 07 f8 f3 2a c1 1e 41 e6
be 16 fc e7 fd 1f 07 00 f7 16 f2 04 36 0a fb f6 08 04 f7 f8 03 02 10 04 02 d0 bf 27 0a fe fc 05 fe fe 1f 36 39 11 03 fb 14 12 07 f7 f7 21 05 fc f9 f3 ea fa 24 05 fd 09 f9 f5 dd ff e8 24 16 f8
b2 f3 f8 de fe 09 f9 fe fe f0 00 00 c6 d3 04 f7 2e f4 f7 f8 f6 03 26 01 04 e7 e3 03 0a 04 fa 05 d5 06 ec 04 c3 95 fc e9 ed f7 33 ee fe 0f f6 05 05 f1 07 02 31 ff e1 dd f8 fd 14 bf e4 11 2e e2
e5 de fb 10 03 4d 05 ff fa 1c f5 01 c1 e8 fd 00 0a 03 f8 fb f8 19 2d f5 00 11 04 29 2a fc f8 06 34 fc 01 0e c7 f4 08 10 13 a3 52 50 ff 23 f4 00 05 d6 20 fb 01 fb a1 e4 fb ff ea f2 12 1a 13 ee
c2 de f8 fd f7 f1 fe 02 fc fd 03 fc 0a da 05 f7 0b fb f9 fa 02 e1 16 07 07 b5 cb c5 29 fc f9 01 f6 00 b8 44 eb ee 01 e3 d5 9f db c5 f7 3a 08 02 fb 34 e4 01 00 f7 e7 33 f6 06 c8 0e b0 ed 17 d4
03 c7 f6 ef 06 12 fe f9 fc 1a 05 fd 9e d7 00 f6 ff fe fa 00 05 e0 10 f4 07 d4 d3 ed 18 fa ff f8 24 02 e6 fd e7 0e 05 02 f6 f8 2e f5 f7 fb 04 fb f8 aa f7 00 26 03 03 b7 07 fb fe de 0b 0e 1d 02
00 c4 06 5f f9 28 07 03 08 e1 fe 02 d6 e5 05 f9 15 fc 07 fe 03 e0 09 03 00 f7 da e7 0b 0c 01 f9 46 05 d7 d6 f2 05 08 cb fc d2 29 04 03 ed f8 f7 fa 06 02 04 4a f6 0a 1b fb 07 cd e4 d6 ff 0a ff
ee f1 f7 f3 06 f7 fd f4 01 2a fe f7 bf d6 06 01 13 f4 03 06 f6 dd 3a 04 06 04 bc ef 1c fa 00 fa 21 f8 fe 13 ed 26 05 e8 f3 de 0f dc f5 e6 04 fd 00 0c ff fa 31 03 d5 2f ff 08 d5 dd f3 e9 20 05
a3 11 01 eb f6 f1 ff 03 04 10 08 fc 0f f8 05 fd 2a fc 05 04 05 e0 22 03 09 d4 cf 16 46 ff f6 01 3e 02 d3 27 e1 ca f7 17 f1 d7 ee d8 01 20 04 f9 f9 11 ec 03 35 01 e8 3c fb 07 9b da a7 fb 2f f1
cc 3f 07 18 f5 f8 f9 f2 04 05 07 00 06 05 fe 03 1c 03 fa f9 02 3e 0c 05 05 e3 00 05 5f ff f7 06 9f 00 05 0b e6 f1 fd 33 2e fb c0 16 ff 30 fd 00 f7 13 14 00 26 03 1b 15 fd fa 17 41 1a c3 f4 e5
db e3 07 f7 f8 fe ff fb 01 1b fa 04 ea 01 fb f6 09 f5 05 04 fc 19 03 fb fb fc c4 fe 40 07 04 fd ea f5 22 06 c5 d7 fb 0f f5 fe f7 fc fc 0a 03 ff 02 34 35 f7 02 01 0c 24 f7 f9 ea 22 13 f2 fd df
c3 01 02 33 f8 5c fc fb fd 0c f9 fe db 20 f6 09 18 f5 04 06 f6 15 0e 05 06 39 35 1b f7 09 f5 fe e2 00 10 11 f3 cc ff f8 0d d7 2b 28 fd 3a 05 03 00 b6 1a 04 0f f6 c8 06 f6 05 f7 e9 e3 ec 0d 17
00 f0 fe 0e 06 27 f6 ff 03 df fc 01 e4 03 fd 00 29 02 03 05 ff 0d 1f f6 fc 1d ec fa 1b fe fa 01 21 f9 f1 10 fd 25 f8 56 13 e5 1d 29 03 41 f3 06 fd f4 f9 fd 66 ff ea 18 05 fe 2a 0c 05 0d 0f 02
f7 ed 06 0c fd 2a 01 fb 06 1f ff f7 12 01 fa 00 16 00 05 f7 07 1b f3 fc 02 04 f0 42 ff 04 fc fb 3e fa e5 20 2e 38 fe e8 f5 13 d6 12 fb 25 fb ff 01 d8 ef f7 13 03 e9 01 fb 01 24 2f ef 17 12 00
09 e7 f4 0e f6 09 f6 05 00 0b 06 f4 ce 07 f9 fa fe fe 02 fe f8 12 2e f7 fd 09 f7 f8 1f f9 f3 f5 0f 03 f4 ea 00 2d 00 01 24 c4 39 36 ff 2b 03 f0 05 cd 2d 01 09 06 fc d5 f9 fc 02 f9 31 34 e5 13
c3 ec 02 fa 08 05 00 f4 f9 1b fd 03 0c 0c 00 05 25 f4 f9 f8 f6 35 ec fe fb 13 ff c8 f4 03 f4 f2 c6 07 eb 08 06 f5 f5 00 d7 34 16 cb fd 21 f8 f9 f8 05 b8 00 07 0a 0d 17 04 fd 05 1e eb 27 24 de
f8 e9 05 fb ff 20 ff f7 03 3f 05 fe d1 ef f5 00 f4 fc 06 f9 ff 23 12 f4 fc 07 0f 22 f5 ff fa f8 11 04 c0 06 f0 2e fc f8 f1 b6 11 1b fd 16 05 00 07 a9 18 06 02 03 e0 c2 01 ff 31 22 f1 06 0a 10
cf c2 07 f9 00 db 01 f5 03 03 06 fc c4 ba 01 03 04 01 05 00 fe 04 39 fc 01 bf 98 08 0b f9 01 fb 09 fe e5 1d f9 e8 08 f5 0b eb 10 07 f8 ff 04 04 ff c0 ef f6 ed fa 0b d7 f8 fb d3 0a e9 1a 2c 03
cf 0e f5 e8 fa e8 fa fe 07 e9 02 f3 e2 cb fa 04 3b 07 fb 04 fc e9 e4 ff 02 05 ed f6 2e 06 05 f7 d4 fc cd 18 ec 31 fc f9 d5 ed d5 de 04 07 0d 04 fd 44 22 f9 dd fe f3 08 06 f6 07 0d f8 27 fe 14
c8 f5 08 e8 fb e9 ff fe f7 e3 fe f3 12 df 04 f8 e6 03 fb 07 f9 16 e3 f3 08 eb de 16 20 02 f9 f7 b0 06 f7 31 e3 dd 06 f4 fd d1 cb be fa d5 03 00 02 1e f3 f7 ea 04 de fa 04 08 f0 d3 ea c4 e8 ff
e5 06 fa f7 fc 21 02 f9 04 f2 fb 03 f1 06 f6 fe 09 fc 07 04 01 33 d3 03 fa 11 ec 14 f7 05 f3 f7 d0 f8 e1 2a 0d e8 fe 05 01 ef fa dc f9 00 03 fd fb f2 e1 fb 2d f4 d9 09 f6 ff 4b 48 ee 0e 3b f5
c1 18 f8 f5 04 06 f8 fb ff 0a 08 f9 34 c5 fc 05 41 01 ff 07 03 f5 2e f9 fa 9f a1 01 07 fa fe f9 1d ff a1 52 d3 e3 f6 dc e0 d6 d4 01 04 1e 00 05 fd 3d 1d 04 0c fc a9 34 fa fe f1 27 2b ce 48 0c
02 02 f7 1a fa 3e fd f8 01 d4 f9 fc 15 02 04 fb eb fe ff ff ff 3c f6 fe ff f1 eb 27 02 f5 fe fa fb f6 ea 0e 28 04 02 ee 28 20 32 08 00 01 00 fd 06 f5 d6 fc 46 fd ee e6 08 f7 ef 25 d6 03 eb 01
f7 be fa 17 fc 02 fc fc 04 27 f3 06 a0 02 07 02 26 fb fb f5 fd 2c 3a f9 ff 03 f7 ab 21 fd 05 01 08 04 ad e5 e6 f1 f6 fa 26 cb 4b 50 05 08 fb ff 01 ee 02 fe f7 fd ed fe fd f8 11 f8 f6 2e 2c de
28 e1 fa 55 f7 28 fa f1 fd 37 08 06 a7 e9 03 04 fa 02 fb fd f8 20 e8 fe 03 00 26 2e 1d 04 f7 06 da 06 00 d5 c8 18 fb 0e 19 0e 13 14 f7 dc fd fe f8 ff dc 02 df 01 11 c8 fc 01 f0 e8 d8 4f 2a fc
07 f2 05 1e fd d9 f8 fb f7 07 01 03 16 0e 01 f8 f2 f6 f7 fa ff e7 2a fe 08 dc 31 2d f2 f9 03 02 08 f5 f2 ed fa f2 f9 ff e8 0f 15 0f 05 30 00 06 06 f2 09 f7 d4 ff 3a da fc f7 df 06 dc 0b dd e0
ce bd 07 06 fd e0 06 03 f5 da 03 f9 f2 c7 fc fe 0a fc ff f7 fe ea e2 ff 07 f9 01 f5 01 00 02 01 c3 fb f4 27 24 f8 fe ff 0c e3 ec ff f6 ed fc f7 fa db c7 fc 09 04 f5 9a fa 01 06 fc f9 12 13 07
00 11 04 fd 04 e5 f9 00 06 fd 03 03 38 fa 02 06 38 fc 06 05 fd fe fe 02 00 fc eb e9 59 fe 04 fb ec f7 d8 11 0c c7 f9 e3 eb ea f8 0a 01 0a fa fb f7 29 f7 00 1a fc f7 16 f6 04 1c 0c 13 d2 0a f0
11 d5 06 e9 fe ed 03 04 f9 1b 02 03 e5 1f fa 01 ec 01 04 04 02 d3 03 02 f7 ca ed f9 dd 06 02 fd 14 f9 ed ff e7 f1 f8 fa e6 10 ef ea fe f6 01 fd 00 de fe fd da 01 01 bf ff f9 16 f6 d8 e9 0d ff
aa b2 03 1d 02 1b fc 06 01 fa f7 f7 f1 ce fb fc 41 f6 05 ff f6 f8 72 03 fb d1 02 54 3d ff 00 f7 15 f9 cc 1a cc 02 f9 18 f8 b8 12 05 fb 1f f8 fd fe ee 19 f6 f0 fb c3 14 fe 06 cc 00 d0 0f 04 e4
03 e8 01 d8 fd e6 06 f4 05 0c fd 04 13 e3 fc fd 07 fb f7 02 f7 d8 1d f5 07 d8 16 27 e7 fb 03 03 21 f6 e2 fc 0d de f7 fd eb 13 fe df fe 01 fe fc 05 1a f4 f4 e9 f9 e3 db 00 00 fd dc ef 17 26 00
e5 03 fe 01 06 e6 f8 00 05 db ff fb 5a f3 02 02 31 ff f7 f9 07 ff 31 04 04 e6 ee 4e 1a fb ee 04 3e 03 e6 04 0b fe fd cc 1a fe 0a e7 fa f2 01 03 fa 22 f7 fc 4d f7 ec 54 ff fe bd 02 d6 af ef fb
3d 03 fc 5d ff 4d f6 fa 02 b2 f2 f9 f6 f7 fc 00 09 01 07 fe fd 01 12 f5 f5 76 0e 15 cd f6 03 f9 28 02 23 3d 0a 50 ff d9 09 06 56 21 06 3b ff 05 fe f2 fa fe 64 fd e9 19 fe f9 c5 49 1f 2b 33 1d
e1 f1 fb 32 f7 46 fa ff ff 01 fb fd 03 fb fe f7 f3 fd f6 05 03 ce ff f9 f9 f4 0a 0c ea 04 f5 fb 3c f6 e1 5f 00 e1 f3 d6 fd f4 0a f0 01 06 05 f5 fa 00 f8 fd 67 05 de e3 fc f4 ed 04 c3 04 dc dd
bd 03 fb fe 05 e0 fc fb fb d8 03 f6 02 b7 f8 06 22 fc ff 00 07 eb 1e fb 01 13 a1 f2 fc f8 03 01 07 fc ee 14 d5 f4 fa dc e0 af fa e8 02 e9 f6 fd fb 08 12 08 2d fe 9f 00 f9 06 f3 4d d6 01 31 01
e7 ee 03 fa f7 f2 f7 f6 02 12 01 03 c4 f6 02 07 1d 07 01 f3 00 29 1b 04 06 ea da 1d 4d fa f8 fc 19 fc 93 01 f0 e8 05 0f f8 a5 3f 65 f8 fc 01 f8 fb d3 f7 f8 20 05 a3 01 f9 02 36 03 e5 0e 02 13
f0 e8 f9 0b f8 07 00 f6 fb 14 04 02 00 b1 fa f4 06 01 f9 03 fa e5 1a 06 fd e1 f8 09 29 03 f9 f6 fe 06 d7 4d d7 f5 05 b5 f5 9e e5 c4 04 02 f5 f7 fb 13 29 00 f2 02 ee 1c fe 07 e5 20 3d e1 fd d0
f1 fe ff f5 06 e6 01 00 05 2d 05 f7 cf fc 02 01 f5 00 fa fe 06 de 18 04 fd dc c6 13 f6 fd 01 04 12 f7 d7 00 19 fc fe 0f f5 03 fd f8 fe f8 fb ff 04 c3 ff f9 e5 fe 08 c4 ff 04 f5 f9 e6 ff 06 02
d0 06 fa 04 f7 fd 07 07 04 36 05 f9 2a 03 fc 04 40 fa 09 04 02 15 0f ff f7 da 18 09 47 f9 fa f7 c7 f7 ce 3e e1 c4 08 45 2e 17 07 dc ff 42 06 04 01 1f 59 ff fe f9 ef 0d 02 03 f3 1f 4b 00 f2 31
f0 ed f8 0c 01 1c 03 fd fd 1b 02 02 d1 c5 ff f5 15 05 07 f9 00 e5 f1 05 07 0d 09 c7 11 07 ef 00 e4 f7 0a ed 1a fd ff f9 d4 de 0b fa f5 09 03 05 06 f4 e7 03 28 fe 09 e6 05 f7 08 e6 0d f7 2d e4
ec 36 fa dd fe 13 04 f9 04 f1 04 00 41 f0 06 05 26 fa fa fc 02 f0 2d 04 ff 18 d8 2a 35 00 fb fd 0f fc 0d 17 10 f1 05 d3 f6 d8 0b 16 04 03 02 01 00 0f e5 fc 27 f2 f8 45 f3 fa de 34 bd 08 33 27
f6 f5 f8 de f5 08 02 04 f6 ec 00 02 06 15 00 f6 d9 04 f4 02 f8 ef f9 f8 01 46 00 1f 06 03 f5 fc ff ff 02 0d 23 f5 f9 ca 0c 2a ef eb fd fb 05 fd 02 17 31 f5 38 03 05 0a f8 00 db 31 10 1e e4 0f
f7 e2 02 f5 06 1f f7 06 06 f0 fd f9 fb d9 fe 00 0a f9 02 fc 04 ef 16 fe fc e1 ff fd 1d fe ff ff 34 fd 89 f2 de 08 04 ca e0 d1 f1 e5 fd 17 f3 03 05 33 0a 05 ff 01 b3 f3 fb 03 ea 0d 00 e8 f5 f6
b9 f4 fa 05 04 18 03 04 f8 2f fb f9 d9 f9 fe 00 2f ff 02 fe 07 09 05 fe 05 f0 f4 20 13 fe 03 01 e9 04 ea f1 d7 f8 00 f8 fb f7 12 35 fb 1b fe 01 08 b0 fd f8 f7 fb f4 cf 00 fb 38 05 06 c9 09 0c
19 d4 f7 10 04 01 fa 07 f8 f1 f9 03 18 7f 04 fb 19 f8 03 00 f6 f0 4c 02 fb 45 11 10 1d f6 f8 03 24 f9 2d 02 0a f1 03 f0 fc 43 fe 39 f7 e4 f4 f8 06 f1 ed f9 0b fb 30 06 fd fd fd 03 aa f7 e3 e9
0d 09 05 c3 fa 1d fe 03 f7 d9 f9 00 d8 18 f6 f5 0f 00 fd fc ff 0b f1 04 fd 3a 4d 2d 18 fc fd f5 eb f6 01 ee e6 ff 02 4b 22 11 f8 fc fb 0a 04 fa 06 0b d3 fc fe fa 07 00 01 ff 23 34 a3 1f ce f4
10 1f f5 23 02 f8 01 fa ff 10 fd f8 ff 0c 03 01 c3 fe ff fd 00 f8 e8 fe 00 08 0f 22 e1 fd f7 fe e2 05 06 fe 20 f8 fc f7 e7 04 e8 ec f7 25 fa fc 06 f2 10 f8 de f7 1b f6 fc fe ff ed 21 e4 f1 f4
40 0a 03 ea f9 11 07 00 fd d0 f7 f8 1c fd f8 f6 1e fe f7 ff fa f5 0a ff f2 20 22 e7 13 fe f5 f7 34 fe d1 29 25 38 f5 f7 cb cf 1f d9 00 03 01 fe f8 0a e2 fd 06 f4 ee e0 04 fe 20 dd 1c b9 d3 cd
e5 d8 fe 19 fe bf fd f8 fe 20 f3 fc d7 e9 f7 fc 0f 02 fc f9 fe 1b 0e f7 f4 1a 26 fe f3 ff ff 01 e8 05 d1 f1 db ff 09 07 f7 f6 36 06 03 0a 01 f7 06 c4 15 02 07 fb 0b e8 fc ff fc 3e 28 31 09 0e
1b ed 05 1c f9 01 fa f4 ff cc 04 fb df e8 f7 fe f8 ff 06 fc ff fa 12 f3 f9 30 ee f2 2a 03 03 05 ec f7 07 1a 46 09 03 ed 1f 0f 64 ec f3 db f9 f9 fa e3 ea 07 64 f9 de cf 03 f8 06 1c 91 31 19 04
37 e2 f9 f5 fb b2 f7 fa fe f4 f2 01 2a 0f fe f4 e2 fb ff 00 f6 00 be ef 05 1d fd 00 03 fd fd 07 e8 fa fb af 05 0e f9 fd 06 11 e4 26 fd dd 02 01 f9 f3 ee f7 c8 f6 f4 07 03 f6 fd b5 fe e6 f2 0e
db 1c f9 b7 06 e3 fd fb fa f6 fb fb 40 14 fa ff 02 f8 f8 fe fa 16 bc ff fe 04 cf dd 10 08 03 fe 24 02 e4 12 92 dd fc ef 07 e4 de d1 05 e4 f8 04 01 2e 35 08 d3 f8 fe 2d f9 fa 2d 0b 0e b7 08 18
de 0a fb c7 06 08 00 04 f6 0f 05 01 01 fb fe f3 2c fd 02 fe fc dc 0f ff f5 e1 03 0a fb 02 fd fb 45 f7 05 cf 0d ef ff f3 00 08 13 0f fb 11 01 07 04 02 f4 05 0f 04 f8 e2 f5 05 67 05 c8 1c d1 ea
c8 1d ff ee 01 cf ff ff 00 11 f8 f5 28 06 f7 f4 39 07 ff f7 fc 1d 28 08 f6 a4 c9 17 0e 0b fe 04 fb f9 f3 1b d1 d2 fd e5 f1 fc fb e2 fb f8 f9 fb 02 3b 1c 02 f0 f8 ea 5f fe f4 05 1b fd cc 32 db
03 e4 06 f0 01 df 06 f6 f7 07 f1 04 f5 28 00 f6 11 fc f6 05 fb b7 14 07 02 0a 31 fb 09 00 03 fe e3 fb 07 2b ed ed fa 35 eb 08 1d e3 00 29 f2 ff 05 e4 e8 00 f2 03 08 fd fc fd c3 2e a3 fd fc e2
fb da f8 2f 02 0d fe 06 04 52 f4 05 a9 fc f7 00 f8 f9 04 03 04 27 0d 03 ff 04 50 22 d5 fc f8 fe f9 f8 f9 d6 02 1a f9 08 ee b6 16 ff f5 32 fd fe 08 ce 4f 02 b9 f7 f9 e8 01 ff 8b 45 10 7f 13 c8
07 eb 07 3f f9 ff 03 f5 fd ef f7 00 c0 17 03 f5 09 03 fb 05 00 0a 0b f9 f9 1b fb f5 17 fa fc f8 c8 fd da d9 2c 09 06 34 f4 d6 35 14 fe fb 01 07 fe a5 1b 03 a8 fe 15 09 fe 07 32 da ea 38 f0 ed
de 17 07 fc fe d1 05 04 f6 17 04 00 fd 2a 03 f9 0c fa ff 03 06 1b 17 03 fb 0a ed 17 28 05 fb f9 17 fd f7 fc b8 c1 07 23 0e df 01 08 04 17 06 fb 03 0d 49 fa 1e f4 e7 06 fb 01 36 20 1c ba ec 0c
dd c2 04 16 01 fa 00 f8 06 f3 f3 f5 0f b4 f6 f4 23 01 fe 06 06 f7 f9 fe 00 e2 c0 12 0c 00 04 00 c3 f9 07 14 20 e7 fe fd 2b 0d fa 25 f5 2c 04 07 06 e7 e2 fc 22 f3 dd 00 00 ff 02 18 9f 04 13 11
c0 02 06 f3 06 04 04 ff 05 08 05 fd eb f2 04 fc 1c fd fa 03 fb ca f0 fb fb b8 d6 e4 20 f4 fc 03 02 01 c2 fb c0 ee fb 08 dc ef cb f3 02 f1 01 07 f5 fd 08 f7 10 fa f4 fc 01 02 06 19 c1 bd ba 0b
0a 16 00 f5 fc 1b fa 04 00 fe f6 fd 08 fb 03 02 0a 00 01 f8 01 d7 2b 01 f9 f4 e9 27 15 f9 ff 04 ec 04 15 0a 07 02 fa 16 0a 08 09 fc fe f7 f3 fe 02 dc 1d fd 15 f5 f4 17 ff 01 ff fa 8d 0e f4 fc
eb 1e fb 1a ff f6 f9 f7 fc cb 01 01 18 e2 ff 01 d0 00 03 f9 f3 fe d6 fd 02 03 26 f0 e9 fd ff f9 e2 f6 f6 02 f5 3d ff e3 ec fe fb ea fa ff 02 f4 00 15 fc f7 d3 f8 e3 e5 ff 05 e5 29 2d c4 ea e8
fd 01 f7 05 fd fe fb ff fd f9 04 ff e4 bd 00 fd d7 fc 07 04 fc dc 01 f7 02 de f2 0b e9 f9 03 01 f0 fd e5 22 fa 30 fc f1 dd cf 1b 14 05 fe fd 02 fe 05 04 f9 05 01 eb fc ff 03 d6 3e bc 0a 24 f2
99 f2 f7 f7 04 c5 f9 01 f9 a5 f6 04 38 1c f5 fb 39 04 00 01 fd ab 05 f5 ff a0 ca cf 33 fb ff 05 f2 00 e1 14 cf 23 06 0d e1 e8 e5 dd 06 01 fd 05 fe 49 f0 fd 18 f8 fb 2d 05 f7 26 f1 c3 c3 e1 dd
01 f7 fc 48 07 7f 00 f7 04 36 f7 f9 f5 09 fb f6 fa fc fe 02 fe 61 25 f8 02 59 55 2b ec f6 f7 f9 e4 f9 03 f8 14 1e f5 f9 00 ee cc 65 03 2a 05 f6 ff df 0c fc 05 02 26 00 08 00 39 33 11 53 35 db
d1 16 ff 05 f7 31 03 ff fc 42 fc f7 ee 1d 05 fb c9 05 03 f9 fa 14 26 fe fd e9 35 29 f5 03 fb 00 db 04 2a f0 ed 0f fb 2e f0 ff 02 f0 03 0c f6 f4 f8 f9 00 f4 04 fb 03 10 02 fd 41 e1 0d 10 00 ea
cd d4 f7 0a f8 33 f7 ff f5 fb 08 fc f2 b6 fb fa 23 fb fa fb fe f3 31 02 ff c7 e8 fc 37 f6 f5 07 2a 01 9b 1f d4 08 02 f9 e0 9c 19 e1 ff 1d fb f9 06 12 2e fe 0b f7 be 21 fb 00 d0 34 14 03 32 f1
fc ef 01 e0 04 31 06 03 05 12 f5 fd d5 e8 f7 fa df 08 03 fe ff 05 e9 fa fc 13 1b 10 f5 f3 06 fd 00 07 e6 f9 03 e8 00 02 e1 d6 10 26 f8 18 f5 f8 02 b1 2c 02 ed f7 d0 da 04 f6 00 18 d9 1c ea fb
fc 2b 06 1d f7 06 03 ff 01 13 fc fe 2e d6 06 f7 18 f9 f7 03 f4 fb ca fe 05 0e 16 17 e9 02 03 f6 dc 05 f2 30 05 fe 01 b9 db f7 a5 c9 ff 1f fa f6 02 37 46 07 fc fd f2 06 00 f6 f6 fe 03 d8 c3 10
05 08 fe e5 f6 1f fb ff f8 fa 02 fa e0 af ff f9 00 08 ff f4 f6 d7 0b 01 fe 04 ec 0e 1b 01 04 05 05 01 0a 1c 0f 0a 07 e1 f9 e5 15 0b 01 f8 03 fe f9 df 18 f8 22 fb de fb f9 02 12 03 80 0f 0d fb
cf e5 01 41 fa fd 02 f5 f6 08 05 01 f2 17 01 fb 1f 02 fc 05 00 29 29 fb 01 f6 01 25 1d 08 05 04 fa 06 e3 07 d2 e1 fd f4 f3 ce 08 10 05 0f fd 02 f5 05 38 02 02 f5 d5 26 0c 00 fb fe 24 00 07 ef
e0 ed 03 d4 02 ee 04 03 00 1c f8 fd 1c c1 ff f4 02 ff 04 07 06 f2 f6 ff f6 cb a2 22 e9 ff 03 fb fc fb f6 e8 fc e1 f9 d7 02 de ef 1c 03 10 f8 fc 02 11 dc fb 1d ff d4 47 fe f6 f0 ec de cd 0d ff
e6 fb 01 0f 01 04 f6 fb 03 0c 00 fc 05 03 ff f7 ee fe 02 fc 04 fe ee fd 03 ef c2 02 2e 05 fd 02 10 f8 02 21 fa ff fa db ef d0 e5 0e f6 db 00 00 03 df 0a f7 1c 01 de fd 03 fc 19 0d e0 e2 e7 11
b4 20 00 07 f7 e0 fc f7 fd ec fb 07 70 0c fe fb e4 02 fe 05 f8 1f f1 03 fa c6 3f fc 3c f7 f8 fc de fb e6 7b ff db 03 db f4 03 c3 f6 f9 57 fc f8 06 38 fb fa 4b fd 0b f9 fb f8 ed 06 35 b1 10 e7
d8 fd 02 e0 ff f0 05 05 f8 11 01 05 f7 bc ff 01 1a 07 00 fe 05 06 f8 f9 f6 e6 02 fb 2f fc 06 00 02 f8 bc 26 e7 f3 03 01 dc bc e7 f3 06 1e f6 05 06 16 38 02 05 fd c4 30 fb f9 e6 28 fe 21 ff f0
e4 f3 02 0b fd b7 05 fd fa 25 fb 03 94 38 06 fe 05 fa fd 02 fc 1c ea f6 f7 24 3f 11 08 ff f3 f5 09 f9 e6 cc d6 ed f8 11 f3 df 0f 38 fe eb fc 00 05 a0 ef 09 e0 03 f3 d2 02 03 23 16 ee 0d d9 fa
e7 09 fb 0a f8 0c 03 00 02 54 f8 ff 19 25 f7 fc 1a 00 fc 02 fa 27 04 f7 02 24 02 41 00 05 f5 f6 a9 fe 28 08 30 ee 03 07 f5 f4 09 21 fd 32 fd 04 05 df 00 fb dd fe 1e 2e 00 02 2d fb 21 fe 37 13
f0 06 01 ec fb e8 fe 00 05 0a 02 fe 20 cc fb f2 db f9 f6 fd fd 0f f1 f8 01 ea d9 28 d4 02 04 f7 03 ff 15 fe 15 f1 f6 b5 ef ee 25 f9 fd 2c fa fb fe 07 04 fc 28 fa 17 fa f9 fd 03 f6 d4 d8 f7 02
34 e2 ff 57 03 12 02 f8 fe 2c f4 f9 1e 00 f7 04 02 03 05 fe f8 23 df f8 f8 00 42 08 f2 f7 f5 01 f4 03 f3 18 28 c5 f5 d1 14 f2 2e ea f6 1e 03 f5 f5 d7 e5 03 cf f7 18 e8 fe f6 10 2a 20 07 41 ec
cc f2 fe e4 fa e4 02 ff 05 14 f3 05 fa e9 fa 01 11 f7 00 fd f6 02 23 04 fe dd d6 e0 19 fa 01 01 0b 03 d0 40 dc ed fa 0d 0f e5 12 06 00 f7 00 f9 fc eb f3 01 1a 06 d5 32 f9 fe c5 15 f4 c8 f9 0b
1e 2b ff 02 04 03 fe 05 06 ed f7 fe f9 d7 02 fa f3 03 02 fc fb 0b 03 fc fe 2f fd 00 fc 01 f9 03 ed ff 04 06 f7 fd 02 14 e6 02 01 bf fe fb 01 02 f9 f3 06 fc e5 ff 0f 17 01 f6 f9 14 da 19 1d ec
f4 f5 fd 04 fa 18 f9 05 fc ed ff ff 1c 13 f7 fa 40 f8 03 07 06 e9 21 05 fe cf fd d3 04 fc fa 01 cf 00 e7 fb f1 dd 01 45 09 1f 1b dc f5 15 f2 fc 03 14 0c 06 fe fb 20 36 00 04 f0 4d ea 41 39 f5
ea 2e fa 16 fb 1d 01 00 02 34 02 00 05 d3 fc f1 ef fb f6 f7 fc f2 0e f8 f8 d0 fc 2e c5 f6 f8 ff 05 04 0e 00 b2 f4 ff ed ff fa 40 ff f5 ff f6 f7 01 04 11 02 d8 02 0b 01 f8 fd 1b 31 09 2e 31 f8
f9 f6 f7 07 00 10 02 ff 04 0c 04 fe 03 13 02 f7 fd fa f5 03 07 1a f2 f1 fe d5 00 d9 0f f9 f6 ff 02 f8 d7 09 e3 16 fa 0f f0 fd e2 08 f8 07 fd f9 f7 fd ff 00 fd 03 f1 00 fd f9 04 1e ea 06 03 02
0e c4 fd df f6 f3 fb 02 f5 de fc 02 e7 e9 fe fe 26 fa fd 05 f9 f3 14 f9 00 f2 fc f2 2a 03 fb fd 46 01 f7 52 02 d9 f7 1a 44 f1 f7 3d fd 04 fb 00 f8 e9 de f6 19 fb e1 29 fa f7 2b fc 03 13 d4 fe
13 fa 02 eb 03 c7 07 fc fa 1a 07 00 07 21 01 f4 12 fb fa f6 02 fe 10 f2 06 01 18 d9 e8 fb 05 f7 fe 00 25 04 0e f1 f7 20 01 16 13 11 fe 13 f4 f5 04 0a 04 00 ec f7 17 11 f8 fc fe 0f e5 f6 ef eb
05 18 fc 15 ff 0c ff fc 02 22 03 02 fe cd fb f9 fb fe f9 ff fd fa f5 05 fe 00 eb ed bd f5 ff 03 fe 02 e7 3e 01 f7 fc dd fd d7 f5 ed f1 0b 02 00 fa 0a f0 f9 0c ff e5 fc 01 f5 f0 d3 e7 09 ff fa
e1 fb f5 f1 01 13 07 05 00 0a 01 03 fd 1c fe f9 fd fe 04 00 f7 ea 1e f9 fa df 19 f7 01 fd 05 f7 ff f7 fc e3 e6 d9 f7 0f 0f 19 05 f7 fc 0e f7 f9 fb 12 1b f5 eb fa 28 fe fe fd f3 12 f3 19 10 f1
10 39 07 43 fa 18 02 f9 fd dc fe 03 0e ee fb fb 1f 06 f6 07 fc fb d3 01 fa 54 12 34 ad f4 fd f6 c2 02 1c 4c 09 fb f5 ed 22 f3 14 1c f7 ec fd 02 fa fa 01 f7 03 f8 f3 10 ff fe ed bd ff 15 e3 0c
05 44 fd 3a 02 e3 06 07 fd f1 fe f7 10 c3 f6 fb 07 05 f6 03 05 e0 dc f8 02 21 ce de 1c 03 fb f3 01 02 ee 30 0d 20 f3 c0 ea d6 eb e2 fa e1 01 06 03 0c 11 03 3f 03 d5 03 01 01 32 df f5 eb a5 f8
24 05 02 1c f7 1d 06 f5 03 e8 02 fb 1d a1 01 00 e3 fc fc fb ff fe e4 fc fe 03 fb e7 d0 fc f6 04 c6 03 e8 07 22 13 03 e5 0e d9 14 cd f9 0a fb f8 fe cd 0d 00 ef fb 04 cb f7 01 dc fa ca f1 15 fc
e7 1c 06 f3 fa f8 f8 06 f8 13 04 07 ee 03 f6 f9 10 f6 f7 01 03 e5 e7 00 00 e6 d2 f1 ff f4 fa fd 0a fe fe 2e d2 06 02 e4 e6 13 f5 f7 07 f7 f8 04 fd 0f 00 fc 01 fb f6 0b f4 04 0b ed d0 c8 a5 11
02 16 ff 15 04 0e f7 02 03 ee fc fe 28 db ff 05 fe 01 f9 04 02 cc ef f7 f5 fa d9 dd e2 01 f2 08 f6 06 d2 19 21 1c 02 16 f5 eb a1 a4 05 f6 03 01 08 f3 17 fc 0f fa 07 00 03 f5 e7 13 8c f0 e3 ed
10 dd fa 07 fa e4 02 fe fe 17 02 fa fa 02 01 f4 fa fc fc 00 02 ae fe f2 fe 0c 0c ed c7 ff 02 f7 0f fe ff 14 fc f5 01 1e fd fe e6 04 f7 ee f0 ff f3 00 df f7 1e 01 0e 1d 02 f9 d1 d7 af 18 ef d3
fd 21 f7 22 01 2d f9 08 06 f0 fe 07 03 d5 f8 fc fb ff f5 f7 04 43 f2 07 f7 36 1d 10 f2 f6 03 fc cd fe 59 1d 21 14 fb 00 15 01 1d ef fe 2b ff 06 06 e4 34 00 fe 06 1a cc 07 f6 e2 26 22 3d 50 f6
43 0f f9 04 f9 d7 ff fa fd e3 04 f9 46 38 ff f5 2f f8 02 02 01 c7 08 06 fa 7b 46 1d f7 f9 f8 fd e4 02 3c 62 51 08 06 22 77 54 fe 47 f8 22 fb f6 ff 0f c8 05 f2 fe 56 2c f7 fe d0 ab c2 ce e4 0d
7f 28 08 61 fb 56 f8 f9 fb 23 fb 05 45 2f 02 fe fe fe f4 fe fb 55 dc 06 00 79 7f 1e 91 f4 05 01 80 05 6b e1 5c 3f f8 11 09 45 2f 4b fd 5a ff 02 f7 eb f4 fa 80 fb 34 ff fe f8 c9 f8 4e 5c 4f ed
10 fe f5 e1 02 3e fc f5 01 39 fe fd f4 ba 02 f7 ff 00 f9 ff 07 19 e1 00 02 d4 0e 16 dc 06 ed 03 69 03 bf e3 dd 12 fd cf 00 e0 09 05 02 d6 f5 fa 03 f7 fb f6 f8 01 d9 ee f7 04 c7 02 12 4d 18 f5
42 31 f8 02 f6 1c fb ff fb fe 08 04 e0 e1 01 fe 15 f8 fb f9 01 da 12 04 04 5c 6b f1 f9 fb fe 05 d8 06 2b 21 38 38 fd 0c 22 06 ef 19 f9 2f 0d 00 fb e6 df fd c4 02 13 46 01 fa 16 e0 0b 07 27 05
3b 07 00 f1 05 17 fd fc fd 09 f8 ff d2 f8 fe f8 a7 fb fb fc 04 3c a2 08 f4 2c 14 95 bc f8 fa ff d9 f8 02 ef 0f 23 f9 c2 e8 fd f5 a5 f6 30 fc fc 00 c2 40 fe ce 02 1e af fd ff b0 fc fa 07 1e 10
fc 50 fd cf f6 0c 02 03 fc 12 fd 01 59 26 f7 fc a6 06 04 00 ff 26 b1 fe 08 1f e2 0a 40 01 02 02 33 03 e5 67 30 fc 06 d7 fb e9 0e 06 08 f4 f9 f7 05 1f e7 f9 50 03 f7 ca fe f9 5e c6 b1 2f 05 21
14 0b 05 1e fd 2a 01 fc fd ca ff ff 09 b9 01 f3 df f8 f7 05 ff 0b b8 05 f6 0b 14 e5 a7 04 f7 fa e1 ff 19 0d 14 20 fb 02 0f da e9 df fe 1d f5 f8 fe 90 27 fc ee f5 f5 be 07 f7 bb 18 c3 0a 37 d9
17 22 00 f8 fc 06 00 fa 04 02 fc ff 11 08 01 ff f5 02 02 03 f4 18 f6 fc 07 fd 13 e4 e6 fa fa f7 13 01 ec f4 10 0e f4 f3 10 de f1 ec ff f9 f6 fd 05 fc 1f 06 ef 05 ea d3 04 f8 f6 0b e2 1f fa f7
2f 01 fe 03 ff 05 06 03 fb 15 00 fa 1c dd f8 f9 f1 04 fb 03 06 fa f7 05 fe 0b e3 ee f2 f7 f3 f9 03 f6 e7 fe 14 1c 03 e5 e8 f2 e5 db 05 03 f6 00 06 00 01 05 f1 fc 2a cc 02 fe fc 1c 82 15 e0 f4
3c 21 fa 23 f5 eb 00 fa f7 f5 ff 02 38 23 f5 fe b9 fb f8 00 07 18 ed ff f4 3a c7 c9 35 fb f7 fc 26 04 e6 22 42 1a fe f0 ec 09 bb da 02 f1 fc 00 fe f2 f8 02 24 01 1e 94 fc f6 16 f3 85 e2 8c 0e
c7 08 05 c8 f8 2c 06 04 fb fd f7 06 f3 d3 f7 03 2d f3 00 05 09 03 d9 fd f7 d9 f6 4f af 07 fc 02 dd 05 d0 0c f6 0e 06 db 02 fd 09 f9 f6 f8 05 f5 f9 00 16 05 2e f6 1b 20 fa f6 80 fc 00 eb e9 09
e8 ec f8 d9 f5 27 f7 f9 f7 42 07 f8 eb ec ff f8 1d 07 05 fb fb 29 f8 fd 00 fc 22 11 f8 fa fc 03 c2 04 ee c9 fb c9 f9 1c 14 e2 fd 04 fe 35 f9 02 f9 10 24 fc c2 03 08 09 fc 02 b1 32 f4 15 2d 08
01 f6 f6 06 f6 ed f8 04 f7 fb f5 f8 ef 12 03 01 f5 f5 fe fd f6 0c 02 fd fa fb 0f 01 fc f4 f7 00 24 fd e5 e0 f7 fa f3 e8 fc ed d7 06 fd eb fd ff f8 fa 18 05 0b f3 fa f8 ff 01 14 eb ea 03 f3 f8
1d 35 fb 11 f7 10 f8 f8 fb 21 f4 fa 04 bb ff f2 1f f2 f9 02 f7 0d f3 01 00 30 17 27 0d fb 02 00 02 fd f5 34 fa 2e 03 08 01 f8 06 ff f7 28 04 fa 04 fd 14 00 f6 ff d6 fb 02 f5 ee ff 1c 24 23 e2
07 d8 f8 1e fc ec f9 f4 fc 0a f4 04 dd 06 fb f9 0c f7 f6 02 f3 d9 1c ff fe f2 08 e3 02 f6 f7 fe 2a f5 24 f7 f6 04 03 36 fd 06 b7 19 f8 00 f6 f5 f7 fe df 01 dc 04 14 00 f4 05 03 e4 db 15 e1 e0
6b 5a f9 06 01 25 00 00 05 c6 f7 04 36 f1 fa fb 00 f5 06 f3 f7 5d be fe fb 45 2c 16 eb 03 f8 f4 04 06 e6 0f 77 38 f6 bc c0 14 5f ea 01 24 f9 fc 05 01 19 02 31 f6 07 10 fe fc d9 0a 2d d5 29 01
01 1e f9 e6 03 0e 06 f7 fd 30 05 f4 05 0c f5 01 37 fc f8 02 fc 2b 41 f9 ff f2 48 15 cc fc 06 f8 80 ff 02 c0 e2 1e f8 36 14 14 34 1b fe 63 f7 ef 02 fb f7 05 98 f9 43 2f fd 04 b0 14 d8 34 29 d4
07 e6 07 1a fb 2b fd 05 05 fe 04 02 e2 1c f9 03 f1 f8 fd 03 f6 04 33 fe fa 0e 0e ca e0 fb 00 ff 16 f8 e3 0c f1 15 02 0d f2 d7 e3 15 f8 fe fc f7 f2 c7 f2 f8 03 04 cb f3 01 fc b0 0c f1 18 08 d0
f5 f7 06 1e 01 e0 fd fc 03 dc fb 07 17 1c 02 fa fb f9 f7 fa f6 32 39 fe fb 32 16 de e0 f9 01 06 05 fb 24 10 30 30 ff f4 09 03 40 3d 07 e8 02 f7 02 ef e2 01 d4 fc 24 37 f7 03 1e ca 22 2f 0f f5
ec 11 f9 f9 02 07 f6 01 f7 07 01 f9 fa f6 f6 07 f2 ff fa f8 06 17 1a ff 06 04 da 2c ed f8 f5 ff cf f9 15 3b 06 ed 05 ee f2 0d e3 e3 f6 fa 01 f6 f7 3d 07 02 03 ff 3c f4 ff 02 b1 12 05 18 cf fc
f5 f2 fa 12 01 15 fa 03 07 2f ff 07 fc d9 07 fa 36 fb fa fb 04 eb ea f9 02 af 09 01 fc 04 01 fa ee 02 03 1c 0e 0f 03 e9 0f df f7 07 07 f8 04 01 fb f9 1a 04 12 fd c9 00 fe 02 f2 02 2c de 3d ed
fc 08 00 23 f8 03 04 02 fa fd ff 02 30 1d f8 f8 f2 04 03 01 f4 11 1b f7 05 d8 e5 b6 12 04 f1 fd d4 fc 04 f4 fb 1d 01 d7 0f ed 0c eb fd 13 04 f6 f5 05 3a f6 0e 03 24 18 ff fc 24 0a 3c 04 18 e1
08 12 00 fd 03 fd 00 fb fc 07 f8 fa fa fa fb f2 00 f3 f4 04 04 0d e4 fd f9 fe f6 0b ef fb f5 01 ff 03 06 ef 14 ff 04 e2 f6 08 0b 06 fb e8 fc f9 ff 06 0c 00 f4 f8 0a ef fc 04 00 e2 ff f7 f7 01
db 07 f9 0c fd 10 fa fa fe f5 fc 00 28 20 03 f8 f6 f8 fc fe 03 02 0c fa fc 06 f2 01 35 fe fe fd f6 01 11 0d f9 fb fe 0c ff 47 da 02 04 cb f5 fe fa 2f e6 03 22 f9 19 03 03 fa 08 d1 18 fd dd 09
3f 15 01 f1 02 34 fe 05 05 1c 03 fd 0a da 04 f7 e9 f7 fd f8 fc f7 eb f9 00 34 0b e9 fa 02 00 04 0a fb cf 25 4b 23 04 cd f2 b4 23 e7 f7 f9 02 03 ff b9 d0 03 22 fa ca d8 03 fe 15 b8 f4 e9 28 0d
e7 fa 04 33 fd 28 fb 05 06 1d fc fa fa e9 fe fc 41 f6 02 07 06 36 2f fa fc e4 05 1f ac fc fd f4 e3 03 15 ec cd 18 09 fa 05 00 25 03 fb 28 fa fd 04 09 37 01 2f f8 0a 1f 05 f8 c9 3b 58 e1 12 0d
e0 29 f8 14 fe 14 05 fa 05 0e fd 05 fc e3 05 02 1f ff 00 02 07 13 f1 f1 01 0e da 0f f2 04 01 f3 06 03 ef f2 e2 10 f5 fa 1b c3 fd e9 f6 f2 f2 fd fc fd 11 05 0e f5 fa fc f6 f6 eb d0 2b eb f2 02
10 f0 fa 37 fc 00 ff 01 04 c3 f4 07 4d c2 ff f8 ce fd 01 07 04 2c ac 05 f8 d8 3b d2 c8 08 fe f5 d2 03 ef 16 59 42 fc e6 e6 e7 29 dc fd 10 fe f7 ff f5 e6 03 ab 03 f0 12 02 f7 02 fb 2a 13 3c fa
da 0d 02 de fd f2 f6 08 fa d0 06 fc 0e 0e f5 f4 30 02 f9 01 fa f8 2c 05 f6 e9 d6 14 4c f5 f8 fa 01 f9 e7 2e 9b f9 f4 ee f6 fb d8 fd 06 16 ff 02 04 27 e2 03 26 fb d5 3c f7 06 d3 1a 32 ca ff 05
0a ff 08 2a f7 f0 fb ff 02 13 00 02 fe 05 00 fe 04 f7 06 ff 05 0c ec 05 fd f4 19 05 e5 f9 07 fe f8 f9 16 dc 06 01 fb 07 0a 0e 12 dd 03 ed f4 f9 03 d9 f9 f6 f9 07 27 eb fc 01 f5 9f ec df fa f7
1d 08 ff 22 f8 e7 05 f9 04 fc f3 02 26 03 f5 ff ca fb 04 06 f3 e1 02 f5 00 2b 37 05 f7 f7 fb fb 12 f6 fc 08 32 00 f3 f3 f0 0e e7 e0 04 09 fa 04 fa 04 07 f6 ec f5 fc d9 f9 f5 ea 22 04 c6 fb e3
1e ee 03 0e fb 2b 03 f7 01 e9 ff 08 04 ce fb f5 de 04 fc fc fc 11 c1 f9 f9 de 24 f0 d9 06 f6 fa f4 f7 f3 12 15 18 00 da e0 da 12 bf 03 07 f5 02 fc c0 11 f5 f2 fe 31 d6 fc fd e9 bb 0d de 06 00
1f 43 04 e9 f7 04 fc 01 f5 0a fe f6 00 ee 06 fe 12 fa 05 fa f8 f6 1b fa 00 33 1f 0a de f8 01 f3 f3 f9 2d f3 f5 14 02 2e 07 07 0a f6 00 3a f9 02 02 1f f6 f7 fe fb 12 f2 01 fd 93 dd f9 16 07 f9
03 fc fd 06 f7 f8 fe f4 f8 17 fd 03 bd 0d f6 fe 10 fa 00 fc fe f9 12 fb fa 3d ed 1a ce f4 07 fa 20 00 23 07 d2 d9 f6 1f 17 1d da 0a f9 e4 fb 02 02 e8 c9 fb 10 fa 18 ef f9 03 15 d5 e8 0a 01 09
11 f0 f5 fb f8 06 f6 fc 03 0e 02 fc 0c 0c fa f2 06 fc fb 05 fc f0 2f f6 fc fa f9 da e4 05 f5 fb 00 fb 2f 07 02 05 05 2d 13 07 0a 0a 02 1b 02 f3 02 f3 fe f7 e4 f3 13 28 00 fa cb e3 e8 cb fb f2
04 0f 01 11 05 e5 fb 01 02 01 07 01 d3 ee f6 fa 02 f7 f8 fe 02 e9 e6 f4 fd da d7 0c f2 01 04 f7 f1 f8 cd fb d6 0c fd 0b fc c6 0b e6 f8 e4 04 fa fd fb e9 04 0d 06 b2 fb fd f8 1a ca 0f ed fe e6
0a e7 fb e8 f9 05 f6 f8 f9 ff fc 04 d5 07 fd f4 e7 01 fd f9 07 1c 11 fc f2 03 db 00 09 08 fa f3 0b 02 ff f5 f3 f9 07 ed 21 08 f5 fe f7 fd 03 f7 02 d2 0e 04 da 06 f4 e6 02 03 01 e0 05 f8 0f 17
dc f6 ff cb 05 b2 02 f7 06 2c fe 01 f9 e5 fb 00 1e 03 08 f8 03 be 0f fc 01 e7 be 1c 18 fd 00 02 da f9 2c 14 cf c2 f8 0f 0f 23 cd 1a fd dc fd 01 fd 27 28 fd 3b 02 ec 30 fc 04 4c ed cf 05 e5 1a
18 14 f8 0c f8 07 fb 00 07 01 fe 07 ff c3 07 02 d5 03 f9 05 07 03 ca 02 f3 d2 fa e8 d8 fc fc 07 0e f6 dc f5 11 16 05 f2 e9 bb 1b c1 04 e8 fc f5 03 d7 f3 06 bd f9 ff d2 f4 06 f1 a8 fd d3 18 ed
f2 02 02 f5 fa 02 07 fd 06 00 f5 fb eb d2 ff 02 e4 fb fc f6 ff 0d e9 f3 f7 fe 0c 1d f7 fc fb f5 01 02 aa 28 1a 19 04 ec 08 b7 fd e0 f4 f9 01 f6 ff dc 03 f9 f0 fc c8 15 08 f8 fc ed ff e9 1c e2
f9 14 f6 14 ff 0e fd f9 08 d9 fe f6 f4 c2 ff f5 f8 fb ff 03 fe ff 0c 02 f9 ee 14 ec ab 01 ff 03 e4 04 0f 15 17 0b 02 f1 fa 9a 3c 08 ff 15 06 f9 ff f4 f7 01 df 01 ef 1a fe 06 f6 e6 48 fa 11 f1
06 fc fb 00 04 20 04 f2 fd fe f8 fb 00 08 03 04 fb f8 f4 ff fb 01 0a fd f9 f1 fe e2 f0 07 07 f9 0a f6 cd e8 f8 0c 08 ff 21 1c fd 15 fb 03 f7 fa 01 e7 fc f9 fa 05 fb ed f4 00 04 d4 ed ed e8 fa
f0 34 f9 f0 01 fc fd 03 f7 15 04 fa 40 09 01 03 1a fb fd 00 f8 d0 e7 01 02 0b f5 da 01 f5 f9 f9 e0 f8 1e 1d 17 c1 f6 e4 fc 17 bb f1 f7 f1 f9 f7 f5 4b f2 f7 e4 ff 07 29 02 03 07 e8 26 d7 e0 08
de ec 03 ed 01 f3 01 fa 00 11 01 04 fc b2 03 f8 ec 02 01 03 ff d2 f1 f8 f2 00 fb da 09 03 03 06 08 ff ce 12 0a f8 fd e5 e8 d8 ee c8 f9 09 01 03 f8 d5 2e ff 0b 03 ee ea 04 fc ef c3 fa 2a 1b fc
20 f4 f6 16 f8 0e 06 fb f6 1c f7 fd 07 11 ff 01 f8 03 fb f7 fa 31 10 07 00 05 26 d8 ef fc f5 f7 13 f9 e2 27 0a 0a f9 dc 05 d9 ca ec 03 5c 02 02 02 f0 2a 05 fa 06 fb dc 01 f9 e0 0e 1c 07 19 f9
db e9 fa 0d fc db 04 f8 fa 51 fc f6 f4 d7 01 fe 39 07 f8 06 fc 2e d7 fe ff e3 0b 58 f3 04 f9 f9 bb f6 28 bb cf c8 01 20 2e 17 03 4a f6 e5 ff fc fc d8 10 07 e0 fd 10 f1 fa f8 4f 96 13 1f 02 1c
18 1b ff 3d f6 40 f8 f8 f6 cc fb 01 29 24 f8 fe f6 04 f7 fd f7 39 07 fb f9 57 e9 02 05 f4 f7 fc 3a f9 d8 35 6a 5b 02 13 0c e2 0d 0f 05 e3 f9 fd fc dc cb fd 17 f9 f7 f9 01 fb 40 cb 22 fd dd 1f
2b 09 01 0b fc 0a f6 fe 01 e1 fd fc 03 db 04 f7 e2 f6 02 f9 02 dd e7 01 00 18 19 0c 0e fe f4 fd b4 ff dc 13 27 1f f7 09 00 fc 14 f1 f6 12 f4 03 ff 15 f3 f7 e0 ff e0 ff f6 f6 12 f0 fd 0c 00 03
de 17 f6 d8 04 20 fb fb fc 0d fd 03 27 d7 fa f5 25 04 ff f6 f8 40 d4 ff fa e0 bf 30 50 f4 04 08 d5 01 f5 3a 02 b2 fe 9b d2 3f 06 bb ff e3 fa f9 ff 3e 47 f7 59 fd f8 07 fc 01 d7 58 41 d2 69 fc
cb bc 03 0a 03 44 f6 f3 01 2e fc 03 bf 24 02 f8 19 f0 05 f7 08 ff 2f 00 f8 e1 1d ad 16 03 fd f7 c9 fb ee 43 b3 db 02 1b 02 cd 3d 2b f9 7f f9 05 fa ba 1e fc 4e 03 2c f1 f8 07 e2 e1 28 1b fa 03
e7 c8 fc 1b 01 f6 f7 f4 07 13 fb ff dc e5 05 04 12 fb f6 fb fd f9 f1 fd f7 d1 93 d6 12 03 fc 07 f6 ff e7 f2 12 f0 01 20 0d 02 24 e1 02 e8 fe 03 fe b0 02 01 32 05 fc 0a f4 f7 20 dc 01 e5 f2 ee
ea ca f9 08 f9 09 ff f6 05 0d 08 00 16 eb fa f7 3f 00 06 f8 05 10 14 03 fc e4 06 34 cd fe f8 00 e9 03 13 25 bd f8 01 e8 11 1c 07 0e f7 27 08 04 f6 40 19 ff e6 05 fa 4b 07 f8 95 e7 0e 00 22 f8
b4 e1 05 ee fe f5 06 fa fc ed fe 00 1f ef fd fa 4d 03 07 01 f6 a7 43 ff f8 ba a5 f3 fb 04 f9 f8 e9 04 10 2b f6 d5 f8 01 fc e7 a6 00 fd 27 03 00 fc 1d 4a 00 ff 03 cb 61 f9 fa 80 2c f9 31 ef 00
f8 08 01 e7 fe 05 06 04 04 cb fd fa 17 e1 f8 f6 04 fb f7 00 00 dd d7 ff fb f2 f5 b1 41 fb f6 f7 e7 fd f5 31 3c 1b 01 e9 ec f6 ea d6 fc f9 f8 03 f6 0a 19 03 df 02 06 00 ff f8 06 d1 3b db 10 f7
e9 02 00 f9 01 04 07 04 f9 f5 f9 07 21 cf fa f5 18 03 02 f9 06 d9 c1 07 fd da 00 0e f0 fe 05 06 c4 00 d5 2a 1b 14 03 1a e2 d5 ed c6 08 21 ff fb 05 40 4f fd f4 02 bb fe f6 f6 08 f9 47 b2 0d fd
13 1f 08 11 fb 10 fe f3 00 40 03 f8 04 1e fc fb f4 00 01 fc fc d0 2d f8 f6 e9 25 ba 15 f8 02 08 4e 06 13 c1 f2 11 02 13 ff 26 26 14 f7 02 01 04 fc 0d dc f6 1b 04 1b dc 06 fc ff d2 10 c9 19 cf
cb e4 06 00 fc 27 f9 fb 07 17 f1 02 d3 d5 fd f5 d6 01 03 01 00 64 0f 07 f8 fd 08 d1 08 04 fd fa bd 06 af ec ef 0a fb e1 23 cf 38 1d fd 35 04 00 fc b8 38 fd e9 07 dc d2 04 ff da 08 61 45 fe d5
d6 c7 04 ee f5 1c 01 06 f7 2c 05 07 1b ee f9 fb 1d f7 02 07 fb ff 3c f6 fc ca 0e e4 eb fd fe 02 f9 fb e5 09 0e ff 00 15 ef f3 4a dc fd 1b 04 00 04 06 c7 fd 3a fb 15 29 fd fa d6 f7 02 ed 20 f1
19 ab 02 0e 03 25 02 fe 05 03 02 00 ef 03 ff 02 1d 03 ff 04 fb 15 c5 f6 01 ef 29 d4 fa f6 f5 fb 08 f6 d5 d7 cb f9 ff 18 f2 12 46 1f ff fc 02 02 fd f6 ca fc d7 04 fe d2 f6 fc 0f db 1c f0 0d e5
bc e3 06 22 f7 e0 07 f6 04 e7 fe 05 fe c5 fb f2 03 f8 ff 09 ff e7 e0 09 f8 c3 c7 08 ff f7 f8 ff cb fa b8 25 35 f2 05 f4 15 e5 2f fc 02 05 00 f8 01 25 c3 03 18 f7 e6 f8 f5 fa 10 f0 09 fe 0d 17
b6 f5 06 e0 fc d8 f9 fa 04 db f6 fc 29 df 04 01 33 f6 01 fc 00 b5 f9 03 f8 c6 d9 df 4c fe 01 fc d4 f5 d4 7d c6 cc ff fe ec f2 cc a3 fc 47 fc fe 01 4a 21 fc 51 f4 f6 7f 00 fc cc 12 22 ec 0d ed
12 b8 07 ef fa f6 ff fe 03 21 f5 f8 d9 1f 08 02 f7 07 01 03 f7 db 02 f7 ff 8b fb e1 e3 00 03 fc 1c 03 d1 e9 ea 07 fb fd ff 13 0e f8 fa 1d 04 06 fe dc fb ff 03 04 f6 f7 f8 fe fd c8 e9 d3 f3 f0
ef d4 08 00 f9 12 fe fc fe 0a fc 04 ea e8 00 f9 1b fe fa fe fd 29 d3 f8 04 d5 0f da 0a f9 01 fd a8 04 b8 f2 0c 20 fb 0d 1e 05 2c e6 03 1d 06 02 fb d6 38 f9 1f f8 e2 e0 fe 04 c8 19 11 16 30 de
f1 e7 fe f6 f7 fc 06 f8 fb 24 f7 ff cf d8 08 f2 05 fa 05 00 f6 ea c7 f4 fb c8 eb 22 fa 00 fb ff f8 03 d3 17 00 eb 01 1d fa cf 1a db 00 ee 01 fe ff f6 16 fb db f9 da 08 f7 fc 0e ab fd da 22 e9
d7 25 02 01 fa c2 01 01 ff eb 07 01 12 ef f7 07 19 06 06 f7 00 0a af f8 ff f9 0a fd e6 fb fb fe 2d f8 0c e8 a9 4c fc e6 d5 15 f1 fe 03 c9 02 f9 f8 20 05 f8 13 f9 f9 26 08 03 df c6 e8 c0 d9 d7
e0 f9 ff dd fe d7 fb fc fa 0b fe 02 f8 16 fb ff e6 fc 06 00 03 0b 05 ff fa fe 1f 03 fb 04 05 fe e1 f6 ff 0f 3e b8 fd 22 2b 14 f9 47 fa 20 f3 ff fa be ea 03 fb f2 31 ef f9 03 21 ca e9 1e ee fe
13 f3 f7 21 f5 32 fc ff 06 e3 f3 fe fb 27 fc f6 d9 fc ff fc fe 0b 1d f8 06 23 34 fa f0 03 fa fe 0f fa 11 1a 10 ff 03 05 37 13 e3 20 fd 62 f4 00 fd df 15 fd 13 01 17 f8 00 01 c6 b5 e1 4b 35 23
ba 15 01 ec 05 0b 02 fe 00 2a 07 fb 2e f9 fe fe 21 f6 fe 03 03 12 a0 fa 00 c0 db f3 0b f9 f7 fa 05 00 e4 ef f3 be 06 10 ec 05 fe ed f7 fe fb f4 fa 35 0c fd f0 f7 f9 0a f7 f9 19 bc 32 fb ff fd
d7 e3 f6 11 fc 27 fa fc fa 30 f6 fe ff 02 00 05 fc 04 ff fe f7 e6 e8 00 02 f0 25 ed fb f9 fb 01 23 00 b7 e2 c4 1b fc 0c 31 d0 fd 13 f9 ff f9 07 fe cc 0c 01 04 fc ed 11 fd 02 16 f6 f9 f7 07 07
be 11 fc e1 02 05 05 fe 04 fc 07 f7 ff d2 04 f9 15 fd 06 f6 02 14 f7 02 07 06 ab 1c ee fa f3 f7 cd 04 00 10 00 f3 f8 ea 21 e9 c8 05 fe f1 f9 00 03 31 dc f4 1c 02 ed 19 f9 fc e9 fa 14 f2 0c fe
0d e9 03 09 02 ff 00 fa 00 1c fc f2 d2 0e f8 fc e6 02 ff 04 fe f8 ec f4 03 c3 fa 01 ee 07 01 03 11 fa c2 01 01 0b 01 f2 07 02 24 f3 f9 0c ff 02 00 c6 db 07 09 02 f7 e3 03 fe 02 c1 f3 ee 0a 04
cb d4 f9 2b 02 ff fd fb f8 1a fb 06 cf d8 f8 03 0c 02 fe 02 fc 0f 1c 06 f8 d3 46 e3 e1 f8 01 fd 0a ff e5 05 05 15 05 f7 29 c7 11 3e 05 09 09 fd fd ea 1f 02 17 07 d9 f2 03 04 24 ac 25 12 2a d9
09 cb 05 1a fa 36 06 f9 f9 21 fc 07 e3 ba fe fc ff 05 05 03 fc 0a bf 09 f4 09 f1 e7 0a 05 ff fc fe 01 f0 0c 13 07 06 0b 02 f7 22 d4 03 12 fa ff 01 2c fa f6 02 02 ef e5 05 01 e6 cc 41 c9 15 e7
d4 ee 07 f2 ff 06 f7 fc f8 1b 03 f8 0b df fa 06 32 04 00 fd 04 d4 fb 02 00 d9 ca dd 0f ff f5 05 12 ff f7 13 f0 04 08 08 0f c3 09 0f fa 19 00 06 fc 19 13 fe 1b 05 d4 11 fc 01 17 f7 fc ff 14 04
b7 0d 06 f7 02 f3 01 05 05 d1 07 06 fc ed fc fe 41 fc f6 fb f8 ed fa fe 00 f6 fd 1b 4a f6 fa f8 bc 01 12 41 de 05 ff fe e6 05 df e8 fa fc fd fa fe 1c bf fc 59 00 08 2c fc 04 f7 de 29 fb 01 04
d2 1d 02 10 01 f0 f6 00 08 d7 01 fe fc c7 06 f3 51 fb fd 06 07 1a e5 03 00 f6 d0 f8 33 05 02 f7 ee f6 a7 0c d5 0e ff 17 00 c2 db e7 07 f0 fd f9 04 15 1d ff 2c fb 91 39 03 02 0e c8 0c ea 3c d3
f3 ae 05 18 f5 39 06 fe f9 02 06 fb 91 e3 06 06 1b f7 05 07 06 06 11 f9 05 01 f8 b7 de f8 fe fe 2e ff e5 16 b8 fa 00 fb 37 d5 16 50 fb 01 03 02 f8 a4 22 fd 4c 06 db 2b fe f8 ca dd 12 50 09 e0
f2 f1 01 f8 fe 04 f6 f5 fa 2e 09 fe d2 31 f8 f7 f7 06 01 fa f7 2c 03 02 fa f6 04 0c 24 03 ed 06 eb f8 e5 e4 e6 06 05 20 18 f2 00 17 f4 f9 fa f7 06 d0 09 fc cf 04 ed 00 fd f7 25 f3 1d 24 1d fc
d2 0a 08 19 00 10 f9 f8 fc d2 01 f7 14 2b f9 f7 f3 fe fc fc 00 17 12 fb f4 03 0e dc 26 ff f3 fb d6 fe 10 ee 2f 04 08 29 33 2e 32 34 02 1f 01 03 fc 00 f6 02 3c f9 48 03 02 01 d8 0a 30 2b dc fa
f9 e7 fa 2c 01 fc 01 fc 04 1a 02 f3 06 52 01 fd 19 ff fb f6 00 c7 28 02 08 d7 34 01 f0 f5 f6 f9 07 ff 19 18 08 b5 00 18 35 2a d6 3a f8 46 f7 fd 02 fa f6 f8 1c f3 28 4f fb 04 00 fe f7 f3 e2 21
cd f0 fc f1 00 e7 fd ff 03 fd 05 f9 d1 1b fa fe 28 01 02 fd f9 27 0b f3 04 17 ee 2a 35 01 f8 f9 e6 04 04 be da d7 f5 25 1a 0a 30 29 00 04 ff ff f5 e3 dc f6 29 f2 34 e8 00 f9 ed b7 14 07 08 f2
2e 36 02 04 f5 34 01 fa 02 1b f8 fb a8 c4 02 06 24 fa f7 f8 ff 1c 92 06 fc 35 d2 16 ba fa 03 f7 f8 f6 26 8f cf 07 08 a6 05 fb ec 10 02 b1 05 07 f4 15 f1 fa e9 fa bd 10 f4 01 e1 04 0a fb d5 1c
ee 11 06 11 05 e8 fc f2 03 02 01 03 37 a8 f9 00 29 f6 fc fa fe ee d6 fb fe 4b a1 dc fa 06 01 fb f9 04 5c eb 0c c5 05 1f cb 2a f5 0c 00 f4 f7 fd fc 2f f6 f5 ec 00 f2 1d 00 04 34 d9 00 dd d7 03
10 19 03 fb 05 3c 02 00 f5 cf 00 ff 44 1c fa 05 05 f3 03 01 fa 14 6c 09 f8 21 dd dc 36 00 fc 07 02 06 f3 39 6d 18 fd 0c ee 40 47 40 fc 1d f7 fb fb 0a 0d fd 7a 02 2e fc 02 fa fc e2 01 f3 f0 d2
e4 1e f9 03 f5 f0 fe 00 fd f9 fe 05 0c 02 f5 f6 db 06 01 f9 05 f5 fa f8 03 07 eb e3 06 f8 03 ff dc fb bc f5 fb f8 04 f3 04 e4 ff ec f7 38 fd ff 02 1a 00 fa 1a 02 f2 36 f9 f7 09 c0 13 dd e8 04
f7 fe f7 1a 06 1e fd fb 05 e5 f9 fe d1 04 f6 f7 ea fa f8 f8 06 2d fd fe 00 05 01 41 10 01 f8 fc 2e 03 18 17 d0 e7 f8 eb ee 00 f8 12 f7 1b fb ff fd d9 c4 05 ff fc 0c d8 fe f9 f4 e7 fb 34 f9 37
dc 97 fa 15 fc dd fc 06 04 d4 f5 00 35 fc 04 06 2c 03 f8 01 f8 19 dd 01 fd c6 10 81 71 03 f3 06 b5 fb eb 18 2b d4 06 33 d9 b7 db ae 04 e6 fd ff f7 52 7c f7 1b 00 07 20 ff fa 2a d7 df c9 69 b2
15 12 fc 25 fe 19 ff f4 f9 1e f6 fd d8 fa f6 fc 38 03 03 ff 05 f4 f9 ff 03 1e 07 01 07 f7 06 07 c4 04 1c db 17 05 fd e5 fc 02 2a 05 fc e3 ff fd f9 fc 24 05 38 fa 03 15 f4 fc 2d 31 23 19 13 ef
d5 f8 02 23 02 31 f9 f8 fa fc f6 04 d8 c0 ff 02 14 00 04 04 f9 2d d4 f8 03 b2 dc 97 15 03 f5 07 0d 03 c8 05 08 ed 04 4d 16 cf f9 44 f7 03 f8 f6 01 ea 5a fd da 06 d4 f2 f6 f7 04 fd 98 fa ed e7
d3 ce f9 dd 00 06 fb f7 07 02 ff 05 ec 19 f6 03 28 01 f9 fb fc e5 1e 03 fa dc f0 16 22 00 0a 03 3a fb 15 14 fc 0c 00 f7 34 fd 37 29 06 28 f8 f7 05 d3 17 02 13 00 1b 35 f9 06 1e 1c 47 20 2c 0d
1b 16 fb 02 f7 34 01 fa 00 28 f8 f9 b2 da 05 04 22 f6 fb 00 f6 2f 08 fc fa 3b 02 55 de f8 fa 05 fa 03 fe da ea 25 fd e5 11 e2 3d 52 04 d5 f3 fb 07 f0 20 03 19 fe e3 01 f7 00 ea 07 e8 00 29 18
e9 22 fb 19 ff e3 f7 f9 fd d4 03 f4 03 d6 f6 fb e9 fd 00 fa fb 3c e2 00 fa 47 d8 4a e2 fb 05 02 eb 03 4a 38 11 df f9 da 19 ed 1a 18 f8 0f f9 03 05 13 c0 fa 0f 03 e5 36 fd 03 eb f6 00 04 f7 26
ec 14 02 cc 04 cd f6 02 fb f6 f8 02 3b 11 f5 f9 1d f9 05 f7 02 e6 0b f9 04 c8 f6 e9 07 f6 06 fd 09 01 d7 14 eb f7 00 19 e5 c3 dd d6 f9 3f fb fd 07 09 f7 07 31 fd f1 32 02 04 bf 24 15 e0 35 e6
31 f6 07 f9 01 15 01 f8 f6 05 03 01 bb c6 05 03 fe f8 fa 01 07 06 d4 04 f8 0b e4 0b ef fa f9 fd 14 fa 19 dd ae 09 07 f0 06 e4 0d 06 f9 ec 03 07 fe 07 f9 fe 2b 05 e9 f2 00 fe fa dd f1 e0 fb 16
a5 ec fd 06 04 1b f7 fd fe 34 03 03 f9 cb 04 05 1e 00 fc 02 f4 64 f3 01 fd fe e5 ad fd f9 01 ff c8 fb ae 3c 30 e5 04 19 e7 da 0b 0e fa 01 fc fa fc 10 25 fa f7 f4 de 25 05 02 eb 09 13 f7 2a 05
0d 17 03 18 fd ee 05 fe f9 2d 06 03 fe c1 05 f2 2d 02 ff 00 07 f7 df f6 01 09 d1 d8 fc f7 ef f8 0a 06 15 f8 05 14 06 0e e4 0a ec 1a fb de f7 f8 06 2c 01 f8 fa 03 de 03 fd f7 17 d4 e6 b6 f6 f0
f6 08 ff e8 fb c7 01 f6 f8 10 03 f7 1c 0b 01 fa 14 fc 00 ff 03 bf 2d f3 fa dd 06 c3 24 fc f6 01 b5 fc ec eb e4 fd 08 36 e3 eb f5 14 f5 10 f7 ff f5 1e 73 fc 17 f8 0a e8 fa fc 2e f2 1a 23 4a 11
0e 19 02 f2 06 05 fe 05 01 fe fd 00 e0 dc f6 f9 06 fe 05 fb fc f7 e9 02 05 1f f8 ef fc fd f9 fc 2d 04 14 db f3 00 fb b6 2c 21 c1 0d 01 b0 f8 06 fa f4 b5 f3 c3 f9 fc f1 05 03 2a fd db ee db 06
21 13 f8 e2 f7 ea f6 ff 03 c1 fa fc 18 55 ff 02 0e fe f7 fd 06 f9 47 fb f6 27 04 f8 0a 01 00 05 38 fa 2e 30 11 e1 fa 2e 07 08 04 06 f6 da 03 00 f8 f0 c7 02 4b f7 35 12 06 03 19 ed ba c4 d7 ea
fd 09 04 d4 fe 07 f7 fa 05 0e fb 07 eb f1 05 f7 1a f0 01 07 ff 1e f0 06 02 f2 e0 14 d7 06 f6 02 14 01 01 e0 0a fb f8 cc fc ed dd ef fa e9 01 04 fc 08 18 fd 2c 01 e9 2f fd fc 03 dc ff f7 db 1b
e3 d8 05 f1 fe 21 fd f3 f6 0a 07 02 e7 09 06 ff 21 f7 03 fc f7 19 f9 f9 06 fc 31 13 19 04 fe 07 0b f9 de 27 b8 fe f8 fd 18 bc 0b 23 05 4d f9 f6 01 dd 22 02 2e f8 08 0b f6 03 d3 d0 17 16 f7 10
ef 2e fd 11 f7 fd fe 01 f5 cf f6 00 04 e1 fe fb 0a 00 f8 f8 ff d6 1a 03 fb ff c3 fa 07 fb 03 fc fe fd 06 0c e6 23 f8 f7 c5 0e fb f5 05 30 04 04 f9 1b 1b fa fb 05 fd 20 f7 01 d1 2f eb bd f5 ff
18 2d f6 01 f8 14 06 ff f9 09 fc fc cf b2 fa fb 1b f7 fc fd f8 2d b5 f7 07 22 ce 21 e5 02 f3 f6 00 f7 24 de db ff 05 e2 0a d9 06 0b fd f3 fd fc 03 17 fc fe 21 fd e3 10 02 fd e9 ec ea d2 e5 25
c1 de fe 1c f5 28 02 fa 00 ca f8 ff d2 ed fe 02 03 02 fa ff fa 1a c2 fe f9 ba e9 2a 26 fe fc 01 df fb d3 54 ed 2a f8 14 02 cb 06 03 06 00 fc 07 06 d9 15 ff 1a fc ef 00 02 02 fd da bd 0f 3d 2c
1a 13 f6 ea fa d4 00 f5 fc 26 03 fe f2 f7 04 fb 23 f7 01 03 06 10 ae fa f9 39 cb 14 21 fa fc fe e2 07 16 04 33 01 02 02 03 f3 09 01 fe 02 01 05 08 e1 0f ff f9 03 38 33 01 01 ea c8 d2 c7 dd fe
f0 d6 fd ea 05 f1 fd f0 03 e2 fc fb 01 e7 ff 03 08 01 07 fb 00 ef 0b 08 08 e3 f4 fa 1a 08 02 fc 08 fe e6 07 d5 00 fd d8 f4 e9 e8 ea fb 09 06 fa 02 e4 0d fd 1a f8 0f f9 04 fb 03 1b 17 f2 31 05
00 25 f7 04 07 d0 ff 03 fb 36 05 03 e1 de fb fd ef 00 f8 06 f6 fc ef 01 f8 f4 e7 51 cb f8 f9 fd fd 05 07 b1 ee fb 04 f1 12 eb ed 14 f6 c9 f6 fb f7 f7 e9 fe f0 f7 05 18 0a 05 01 03 fe 09 ee 1f
d7 b2 f9 1b f5 0f 03 01 fa 15 04 f7 c5 f9 02 f3 2a fe fa fb 07 ba e1 03 02 c9 d8 80 69 05 ff 08 0c 05 01 e3 06 fd 02 7a cf 14 f4 fd ff f5 fb fe f8 22 7f 02 09 f9 0e 08 f8 f6 3a af 96 ca 2d 80
c0 cd fc f6 02 37 fc 00 06 1e 04 f9 d1 0a 04 00 14 02 f8 fc 07 1d 2f fe 01 f7 3c 03 19 fb fa fa c2 00 bb 58 18 f8 f8 4e 09 c1 2b 1b fc 74 f3 fe 04 80 25 04 fc ff 08 1c f7 01 e5 09 fb fb f6 2a
06 08 05 f7 07 02 04 fc f9 0d 03 01 e6 1b 00 fa ee fc f8 f6 f6 3d 18 fd 02 2a 14 22 ce 03 f1 03 ea ff fe f9 d3 f3 02 e9 1e 19 dc 12 f9 eb fe 05 f8 f1 1a fd b9 01 ed 25 ff 04 e4 0e d3 04 dd 12
27 ef f8 0e fe 3b f7 04 07 38 fc ff ff 1d 04 fc 04 02 00 ff 03 23 08 f9 fb 1f 1d 20 12 fd 03 03 da fa 1c c0 f1 ec fd 4f 0c 19 36 12 fe 09 f9 07 f7 f3 e8 fb e4 01 06 0f 04 f9 04 ee 1e 38 fa 37
09 1c f4 3b fb 25 fb 04 03 0c f5 03 08 05 ff f7 14 fc fb f7 f8 0c ec f6 04 39 fc 21 f8 f5 fd f6 00 04 1c 09 f3 16 00 ba f2 1f f9 ed fa dd f8 f7 fc 47 2d f8 04 f7 f4 22 fc ff d6 e5 ed 12 1d 07
e5 20 00 3f f8 19 fe f3 f8 19 f3 03 1e e7 fb fa 1b 00 f7 f8 f9 2b e3 fd f2 c8 ec bd ff fa fb fe e9 f7 f8 df 04 c1 f6 48 1b 13 d8 18 04 b4 03 04 f8 0e 1d fa 10 f7 0d 2e f2 f5 00 bf e1 0b e4 f7
f9 f6 fb ea f8 e7 03 fe f9 10 f5 07 bf 05 00 f7 19 00 ff 06 ff 09 13 f8 05 f8 11 1e f5 f4 04 f8 0c fc 13 18 09 f9 ff f0 07 fd 2c 2a fd 0a 06 f8 fc ee 03 04 eb fe 1a 00 f5 01 e0 f8 07 35 1a 19
0e 17 fc 0e 04 ff fa f9 02 02 f8 fb 05 e3 fd f4 13 00 fa f9 06 3c 4d 03 01 36 eb 09 e1 fc ff 03 e5 02 54 16 10 bf ff d8 40 20 fe fb fd f5 fc fc fd 02 f0 00 07 01 08 17 f6 f7 ea 13 13 23 1e 2c
ea c5 fa 2d fe 45 fb fe ff b6 fb 05 f7 2e 00 03 1d f8 f8 fa fc 14 0f ff 07 ea ff d5 5f ff f5 f8 f2 fa de c0 ee 10 06 22 fc f0 15 e6 f6 c9 ff 04 ff 08 3d fa 11 02 16 3c fb 04 08 2e 07 07 f2 ec
09 f2 f7 fb fe 13 06 00 05 38 f9 fe 03 f4 01 06 ed 02 02 fc fb f8 19 f3 03 fc f1 03 ea fe f8 fd a1 06 fa 03 e2 c5 05 f9 1c fe fa c7 fb f9 06 f8 07 09 16 fe e3 f8 d9 34 04 06 a5 c9 08 f3 31 fa
e9 02 01 39 05 17 f9 03 f8 e9 f5 07 07 10 02 06 09 f3 f8 fe 04 2b 3c ff f7 f4 f3 f8 5a 00 fa fb b1 fc 04 33 ea ce fe f8 dd 16 ea 1d 00 0a f7 fa 04 10 db f7 e5 f5 07 1f fb 05 c8 13 e0 0a fe 01
db f5 fb ee f8 2a fb 07 fc 0f f8 f5 26 e1 f9 f6 16 f5 f9 fd fd 05 1b 04 00 f9 07 f7 31 09 f9 06 09 ff d0 1e 10 f6 fa 07 dd e0 23 b9 02 27 f9 01 f9 fd ed 02 25 07 2e 13 f4 04 c4 e1 f1 ed f9 ee
19 26 fb 17 f7 fd f6 fd fe f0 01 03 26 3a 06 fb 4c f3 07 f9 fb 00 f7 fa 03 1c fe 15 f1 fa 07 02 f5 01 2d c2 26 e8 03 46 05 fa e6 f1 fe 04 f4 fc 05 f8 30 04 c8 02 0d 2e 01 04 eb d4 e6 d7 ec 18
be e6 01 1a 07 18 ff fa f9 f2 00 fb d4 f4 fb fa f5 00 fb fd f6 24 5c f9 01 30 f8 54 b8 fc 05 fd f8 fd 1d 7f 10 0d fa dd fe bf 1f 08 fd 64 00 01 fb e9 3a fe ed ff db 35 00 05 a1 34 37 79 1c 01
38 25 f9 ee f9 04 fe f7 ff fa f7 04 fc 0b fb 02 04 fe fc fe fb f6 e0 f9 03 4f 33 07 cc 03 03 06 bb 04 0c cc cf fa ff f3 0a 1f c6 22 00 08 02 07 f6 33 c9 ff c8 03 04 33 03 00 ef 33 d5 11 f5 11
01 fb f9 da f8 4d 06 f9 f8 15 f5 fe e8 0f 06 f8 f8 fd fb 01 00 19 c6 fa 00 0a 12 2c f9 fc 01 02 1a ff e8 db e3 09 02 13 02 09 ef 21 03 f1 09 fb f8 da 20 02 d8 01 01 06 ff f6 01 01 08 03 fd 16
05 18 05 10 00 d7 04 f1 07 ef 04 fc 31 ef 04 f3 0e 08 06 f9 fa 26 1c ff fa 42 e3 07 ca 02 08 02 df 06 4e fa 3c c7 06 af 30 35 df f7 03 e4 01 02 01 52 ba f5 d3 01 1e 1e fc f9 f2 f0 fc 0d ed 24
d9 49 07 06 fa bf fa 06 fd d6 05 fa 0a 16 06 fb 1c 00 f6 08 f9 bb aa 05 f8 c7 9f f0 3a f5 09 05 c7 fa 1b c7 19 f9 fd 29 af 1c cc dd fa d6 06 00 fe 24 6d 00 f4 f8 0e e1 fa 00 2e f9 b3 f9 fe de
0e f9 fa ea ff ea fc f5 01 10 f8 00 e6 e8 f6 fe 16 fc f7 02 f8 02 0a fd f9 e1 05 03 0f 04 fb 04 0f f7 11 01 d6 fe fc f3 f8 01 eb fb 06 f4 fc fc 04 1a f6 f7 f0 fc bb f2 fd 06 fb d6 e4 05 12 06
1c 1d f8 2a ff 21 02 f1 07 19 f8 07 d6 ec fc f9 0f 02 fe 00 04 0e b0 f8 ff 0e eb 0e c3 04 f7 fd 48 fd 10 af e4 0b fb b6 fe 40 f9 0c ff 8c 06 f9 05 11 b9 fa fb 01 e6 ff fd 04 dc d9 f6 ee ee 15
0a 1c fb ee fb ce f9 fd 06 0e 00 02 93 a8 f9 ff 1a f9 f7 fd fd 2c e1 00 fb 2a e0 32 ea 06 fa fd f8 06 23 d7 b0 ee fa d4 16 05 08 02 ff c9 01 f7 07 02 fb fb e7 f7 c1 ff 02 04 f0 0a dc f4 15 19
28 09 01 ef 05 ea fd 05 fc 06 04 f6 cd e4 05 06 49 04 04 05 fc ec fc 02 02 ed 0a 16 16 f3 03 02 fd fe 2d 9c 01 00 f9 13 e1 09 fe f9 03 c4 fe fd 07 16 34 04 ee f8 0d 2f f8 01 1a f4 f1 e4 eb ed
dc c5 fb fb 07 47 f8 fc fc 17 01 fb df 04 fb f9 f1 f9 ff 02 02 1c 37 fa f2 ec 03 4e 25 f5 fd fe 0c 06 96 39 f9 b5 fd 1a 00 e5 51 20 fa 38 f6 05 fc e1 11 f6 08 f9 e3 f1 0a 01 f3 db cc 57 1f 38
17 2d 02 e9 ff 0e fc 00 f5 2a 00 fa f5 ed fd f5 ed f6 fe f7 f9 04 b5 fd fa 1c ee 0e e0 f6 f4 ff f7 02 0a a7 d5 01 f7 c2 1a fc ed fa fe b1 fe f1 fe 1e f2 f4 35 f6 fd ec ff f6 00 ca f0 f3 19 0b
0f 01 fc 09 fc c3 06 f7 03 e4 f2 09 28 e4 fa f6 03 fe 07 fc fd fc 28 01 fa f7 11 11 34 03 fc 00 11 01 f9 36 15 ee ff c3 e9 d5 25 ba 02 47 01 f9 fc 17 42 ff 13 f7 dc 3b f5 f9 be 03 ed fd 47 0f
f5 d3 04 54 fc fe fe 02 06 10 f7 fd df f7 03 f4 28 fe 06 f7 fb 0c 0f f6 07 02 05 0e 16 ff 04 07 fa fe 0b f5 07 17 f8 33 b9 ec 1e 30 fa 07 03 fb fe b0 25 ff ea 09 14 e9 f6 03 1f 1a fe 1e 12 d5
d9 1c 01 0e fa c4 03 05 01 08 fd 01 08 f5 01 f5 36 f9 f6 f8 fa d8 c6 02 f6 23 24 f0 61 04 01 fe d2 fc c4 dc 15 e5 fe 65 8a 05 dd 0c 03 af 02 fe 07 fc 21 01 22 00 f8 bc 06 01 4b cc aa 90 bc c9
03 12 fe 0b 06 ff 05 f9 f7 39 01 02 e6 84 fa 03 28 fd 07 05 ff 18 f3 fe 00 02 dd 27 f0 03 fd fc 0b 04 21 ef c0 03 f9 ef f5 c3 e7 06 fa e2 f5 f8 ff f4 f3 fb ef f7 de 03 f9 02 09 f2 eb 05 19 18
2a 02 02 1c fa 53 01 f4 04 03 08 f7 dd f1 f6 f3 da 01 03 05 f5 3a e6 0b fe fa d9 1f cf fc f9 00 df fd f8 df d5 f5 fe e4 f4 ea e3 0f f6 08 01 f8 09 05 f7 fa f6 f8 dc 10 fc fd 2a 29 f8 ee 05 0a
11 20 f5 d4 ff cf f9 ff f9 0f 03 ff 0a 14 06 f7 2f fa 02 fb fd f0 18 06 03 1f 08 1a fb f8 fc f8 f8 fd 28 01 14 e6 07 d7 11 0b 08 1d fd da 03 fb fa 40 ff fe 12 fd 15 27 fe 05 f0 e7 fd df fa 16
d1 23 f6 1b f9 dc fd fb ff f2 fb ff d6 d7 06 00 2b 02 00 01 00 c6 e7 f7 fa dc cd ec 52 02 f8 01 c7 01 b8 f4 d3 dc f9 34 b8 f7 cd 13 04 e6 fc fd 04 0d 23 f7 ca 05 d7 f9 f8 fc 2d 09 e9 27 ff f4
00 3e 06 da f9 e1 01 03 ff 04 00 f9 10 f1 fc fa 3c ff fc 02 f5 03 0e fe f7 0a 07 fb 3b 00 f8 f7 cf 06 0f f5 21 27 fd dc f4 f2 f4 d8 02 f0 01 02 f5 28 3c fe fe 01 04 4f 00 fe e0 2a f1 fb 1e ef
00 e5 03 13 06 16 fc 00 fd e4 fa f7 fa df 02 f5 29 fd 01 f8 f6 01 2b 02 fc ce 07 0c 17 ff f8 f9 05 fe cb 2d 17 1a 06 07 e8 bc f6 d7 00 1e fc f7 08 f9 47 04 10 05 ee 41 fa 00 f4 c5 df f3 12 d2
f0 05 fd f7 fa 19 06 03 fa fb ff ff dc 0d fc fc 1f f3 01 f9 03 10 e6 08 01 ff 08 10 d1 f9 05 f9 eb 04 fc cf e7 08 fe bb 11 f2 ee 43 00 c8 fb f8 02 ee b4 05 0a 08 f5 23 f8 06 27 e1 cf e2 ca 14
17 c0 ff 46 06 fb 07 fa f9 db fd fd 26 fb ff f7 e1 01 fb 05 f8 0d 30 fd ff 34 38 18 1e 02 05 fd bb 03 f2 0e 12 cb f6 1f 1e cc 17 27 f6 34 fc fe ff ca 27 fe f0 03 fb 47 fe f5 1c 37 dd f7 15 14
04 dd f9 5d 02 0d 02 ff 03 b3 05 f9 31 2f fb fa 04 06 fb ff 02 15 07 03 01 14 28 f2 1a 02 ff ff ee 04 f3 fd 09 28 fb fc ff b8 ef 0f f8 2d f6 fd f9 e1 f5 f7 2c ff da 24 00 07 2b 44 1a 32 18 0d
fb 17 fa fa 03 f4 f6 00 03 2c f9 01 22 db 00 fd 00 ff ff 00 f9 f2 f7 f8 f5 1f fe 0d fd 00 fd ff 27 f6 f2 f6 13 f5 fb 15 fc fc fa 0b f2 e8 ff fb f5 f1 1e fb 17 00 f4 ee fb fe 0d f3 21 3f 17 0a
c1 f0 01 fc ff dd fe 01 fd 12 f9 fe ff 08 fb fa 0b fe f9 fd 07 d5 1d fd f2 db 1e e7 16 fa f4 f8 c1 04 83 07 08 ea f9 29 ef f0 1b 12 f9 01 f9 fe fa a7 56 f9 ee fa 26 c2 06 f5 0e eb bd 0f cf d9
a7 fa 02 12 f5 bd 00 fa 02 6c f3 fa a6 cf 03 ff 42 05 02 06 fb 1a 26 02 f4 e1 e6 36 51 00 f9 fc f2 f8 aa 1d de c1 fd 38 00 a5 34 11 03 17 04 f8 fd b0 61 08 2e 06 a1 d7 01 00 09 ea 0d 31 4c 1a
d9 b6 fb 11 00 09 04 01 03 eb fb fc d0 d9 06 06 f9 01 ff f6 07 30 4a f3 05 b3 e1 0c 12 f9 04 f8 e4 fe 18 26 db ea 01 fd 2d 0c fb 0b fd f9 fd fa 04 f7 01 f5 25 fc fc 06 f6 fe 02 42 19 2b 14 12
1a d2 fd e7 fe f9 fd 02 fb e8 fd 00 1d 20 02 f5 fc fe 01 fc 02 cd 07 04 00 2f 2f d4 22 fa 04 03 04 00 00 00 34 af 02 0e 00 32 fa d6 f4 3b 02 00 fa 03 3c fe bb fe 18 df 04 f6 f8 0b f2 ea e6 24
b5 08 04 ff fa d1 00 04 fa bb f6 fe 06 e1 f6 f5 1f ff fd fd ff 07 f9 01 fe 03 de db 06 f7 f1 05 ea f8 f6 e3 c7 d8 f9 16 fa ce e4 ff f6 f7 08 04 fb 13 10 06 24 ff f0 ff 02 ff e9 f4 18 b2 fb ea
33 34 f6 16 00 25 07 f8 f9 f3 06 03 fa 08 02 f4 e9 f8 f7 f7 fe f9 1e 05 ff 23 19 64 ef f8 05 f8 d0 ff 23 e1 e6 da f6 0e 0e 1c 25 3b 02 29 f9 f9 03 fc 35 05 c8 fd 3b 04 03 06 0f 23 af 23 21 17
04 39 03 f1 00 a0 06 f4 fb e7 f8 00 73 0a 01 f4 1b 08 03 fe f8 eb f8 f3 f8 e1 d8 23 10 ff fa f7 19 06 03 1f cd db f7 cf ee 15 e9 d6 f9 f7 fa 03 fd 61 0d f9 ff f6 f3 2f 04 f8 dc e5 17 fe 1e 0c
d2 c6 fb e7 00 ee fa 03 fb da ff 06 e7 14 00 02 d4 fa 00 f9 04 dc e2 f7 fd 0a ed 2d da f5 f5 fa 1f fd c7 d3 c0 1d f9 e5 04 ea c9 1d 03 0a f6 06 06 fd 3e fa c4 04 c9 21 fd f7 fb fa fb 66 28 18
a9 f5 03 2e 04 f8 ff f7 f5 39 f2 f3 f2 f7 04 02 30 01 f9 02 ff 31 36 01 fd c9 b0 59 e1 fc fa 06 30 00 00 15 03 d2 fe d8 1a ee f1 47 fc f9 fa ff fe 0c e7 04 23 02 0d 44 f8 05 fc 14 19 1d 0c 1a
