06 80 13 14 92 22 1b 80 09
28 80 21 2a ab 80 ab 1a ba
dd fb 00 f8 f9 12 15 02 10
d4 08 08 c1 ff 11 fb 97 a2
f9 da 11 1a f0 19 ff f8 fa
11 a7 14 13 0a 85 01 eb 80
ee e1 ff e1 fe fd eb 06 1a
11 06 f4 06 0d 01 16 06 db
f5 0a 16 f0 22 f8 21 19 10
1e 1e fb 80 1c a7 1f 08 f1
ee f6 f5 e9 18 13 de e5 e1
f7 1c 1a e4 f2 dd 01 19 0d
80 ab 1c 25 93 80 80 24 1e
8a 80 e6 4c c6 80 80 e1 45
fe 14 fe ed ec 00 e1 dc 05
1b 12 ed d9 eb eb f4 12 ea
1c 1d 80 80 15 80 0b 1a 01
1a fe 16 f7 09 ff 1e 17 f8
ff 07 0d f5 0d f8 1c 14 e8
e5 03 0e 1d f9 eb 0f e4 e1
ef 16 f1 0f e3 20 12 07 ee
26 dc 20 07 17 80 e8 f7 84
a1 d6 d7 80 22 80 c0 1e 2a
0d e7 00 11 0f 20 02 1f fd
18 ec fe 11 0a fa 08 e7 14
2b 80 23 2f f5 80 a8 a5 26
ba 84 26 ad 0e 80 87 d6 28
30 ed d7 a8 26 f9 10 02 8a
80 2e e9 29 1c 80 d3 2c f8
fb 0a fb e7 f1 f0 dc 1b ed
0e 1f 02 0f 11 02 10 12 e9
fc e8 04 f7 08 e7 e8 e4 1a
e6 b7 df 19 ea ef 26 b0 f1
01 02 1c f5 08 1c 23 14 22
59 80 80 80 ba 80 80 a8 44
9b 88 1c 23 19 80 8f 21 18
80 80 1c 26 8f 80 80 eb 1a
98 03 15 16 dd 20 1c b4 84
e3 1c db e2 ef fa 04 fc dd
96 21 be 80 0c 80 f1 0b 15
11 d3 dd 8a 0b de e4 b3 07
40 80 80 5c 80 80 80 04 48
91 da 17 9c 12 80 e6 b0 eb
23 1b 80 d0 11 80 e8 80 0b
ea 19 f4 e1 e5 1a 15 1d 10
ad 92 1b 99 16 80 c0 1c 1e
1a f5 f1 1a fd 0c f6 ff e5
1d 0d 11 e2 ed f0 fa fb e3
1f f1 db 18 e4 19 fa 0f fa
27 08 84 1f 86 80 80 51 12
ad 09 05 fa 01 c3 05 04 80
18 00 0b f4 13 0b f4 1e 00
c3 c3 e9 27 17 80 b1 1d 86
e5 00 01 0c ff de 01 16 e5
82 80 13 08 80 80 80 a0 7f
29 80 9f 80 1e 80 80 32 24
fb 10 12 f3 19 10 15 0a 1e
ee 23 e3 04 f5 f7 02 f8 f9
15 27 bc 12 da 97 ac 80 80
80 8f 07 c8 0e 80 94 09 95
87 da 10 f1 12 98 f2 08 8d
bb f8 0a e4 08 d6 f5 80 a4
ca 13 16 ca 17 ce 03 13 8e
11 06 d9 08 11 ca 02 d2 af
