f2 f6 f5 1c 14 dd e3 19 04 f3 ee f5 dc f9 ea e7 19 37 1b 0d f3 03 ef 10 ef ea 26 f0 fc d9 de 29 10 ff ef 0b 0a 01 d7 f8 26 0e d8 e3 25 01 18 15 ef 06 e0 0d 10 0f 04 e7 ef 1b f9 fb e2 fe f8 16
25 14 fd f5 0b 06 10 17 21 ee fd 1a fc 1e 07 0e fd 02 06 03 1c 08 05 f3 e9 10 f4 12 16 15 0e f7 0c fb 0d 1b 09 23 11 05 01 2f 0d 06 e3 02 1b 1b 29 00 16 08 29 e8 f2 f4 11 f4 00 19 0c e1 e3 05
ed fc fe cf 19 f7 e6 f9 f1 e7 cf ed f9 ea f6 f6 08 1a 03 eb 0a 00 0a 00 ff f2 10 fb 00 f4 01 03 04 f9 d1 fb ed f7 00 f7 dd fc 02 00 d7 10 05 f5 fc f9 15 ea fb fb af 02 e6 16 fc 15 00 00 ed 16
06 2f 12 dc 00 1b f7 f6 fa eb 0a 0a 22 1e 02 17 dd e1 1e 05 18 25 ea e6 0c 10 c2 4a 0d 25 12 af 25 07 fa 18 f3 2c 20 07 f4 3b 12 3c f7 ea 04 21 00 ff 11 db 20 fe 17 03 03 f1 b5 fc fe e8 08 ba
07 fc 0d ec 0e fe 09 f9 02 ec 0f 0e fa f5 02 f8 e8 fa 14 db 20 16 f0 f3 f2 02 02 10 1d 28 04 d4 17 e4 01 12 de 19 20 13 e3 0e 14 10 bf 03 02 12 1e ff fd fb 25 f4 d8 f5 f4 ed 01 1a 10 fd 00 00
f4 05 f2 fe f1 0d e2 dd c3 fc 11 ff 03 0e dd 11 d8 09 f7 0c 20 05 fb f3 06 05 f7 00 f4 ef f3 eb ef 04 e5 da 0a 12 d9 e0 f7 ce e8 18 ff e3 02 05 f0 ed 10 f4 ff f6 f3 d0 02 e5 ec f7 10 f0 fc 04
03 fc d6 dd 1b 16 26 26 25 04 d6 25 e8 15 15 02 37 52 28 0e e4 14 30 19 12 e3 f7 0f 12 21 07 3f 1d 02 16 13 10 f8 28 0f ff 23 2d ea f5 08 11 2f 34 d3 0d f0 1e d1 f9 ff 04 41 1d 20 f0 f9 22 53
2d 15 20 00 31 25 1f 25 33 38 00 12 05 0a 26 fc 39 28 28 f5 e7 04 08 0a f2 f1 ec 21 2d 27 18 19 3a 00 1b 28 16 f2 2b 18 05 27 1f ec fb f8 f8 2c 0b 09 fd 08 f6 16 f7 1f 14 39 0b 11 ea 1d 17 27
f3 f0 d5 e9 10 e7 fd 13 00 0f da 0f f3 0a eb f1 15 28 07 f2 e3 16 0d f7 0d f8 05 fd f4 05 ed 12 08 ef e5 e8 00 ec 00 05 fc 1c 21 0a e4 01 03 04 f2 11 05 09 02 01 c4 f4 ee 16 e5 f2 f8 1d fc 0f
24 1a 34 08 22 22 28 17 30 4a 00 07 0b 10 2a fb 3a 1b 1f f8 ef 05 17 07 dc e2 eb 38 1d 14 14 09 2e 08 1b 1a 1e f4 32 12 15 12 1e e4 eb fa e9 23 08 17 00 0c ef 25 e9 28 0d 40 1c 07 ef 20 0a 34
12 f9 04 ff 02 e3 1c 1a 0c fd e2 c0 c7 f0 01 1a 11 17 0d ff f1 f8 0e 1a f2 fa 13 eb e4 f9 f0 22 d1 07 fc ec 0e fd 16 09 2c ec ee 00 05 27 ff 0f c5 f3 c8 03 08 ec 08 fa 02 0f fd f3 e7 df e3 0c
fb f9 13 11 17 06 00 25 1c e6 08 1f 1d f3 fe 01 ff 1f 2d 10 e8 0b 00 37 0e 0c 1c 01 ca 26 07 60 15 0c 01 0a 26 19 08 28 0e fc 20 f6 02 37 02 21 06 13 17 07 21 13 0c d5 04 00 f1 f5 27 02 0a f7
ac 06 01 f6 dc bd c3 f0 ef f1 f5 fe df 02 df e5 00 30 1f e8 f2 fe 1a 1b fb fe 14 e4 fb df f1 20 e5 00 f2 dd 11 f3 cf ed 0b fb f1 16 08 2c f9 06 e1 03 19 0a 20 20 f8 cb ed de 09 c2 f4 09 dc 26
ff 01 f6 23 f8 e9 fe cb f2 f4 07 ef 00 06 d8 10 dd e8 e7 c3 f5 ff f5 de f7 eb 0d e5 cd 09 f9 da 09 18 20 18 e4 fd fc 07 f6 f8 f8 e3 ff fd 03 e2 16 08 0e 12 d4 cf 10 0f f8 05 fe db ec f0 32 dd
12 03 f4 e3 0f 15 0e e9 f6 0f 05 00 19 fc 2b 12 f1 e6 ed f6 fc fc f6 05 e4 f5 f3 0e 06 04 fc 00 f1 20 1f eb f5 f2 11 22 e6 0f d3 dc d8 0c e9 fb cd 19 17 fe 0d f9 0a 24 f5 29 fc 01 ec 16 eb f8
06 e9 cb f2 0e 04 00 06 ff f8 dc 19 e5 0c 08 02 42 40 21 07 c0 13 52 3c 14 c7 12 f2 15 12 fd 52 09 10 e7 0a fe 02 15 0a 02 08 17 f2 e1 0e 1e 00 24 cd 0d fd 04 be 08 e6 04 4d 36 08 e0 f5 00 52
fe f2 1a 14 dc f0 e8 e9 c5 11 24 f8 fa ec f8 1d fd ed da 10 22 0a fa 00 d8 e1 fd 00 01 0e f1 dc 03 16 ec ed f5 f3 f6 e7 e8 0f f2 f7 dd e5 ff e2 1a fe 0e 1e dc e4 d6 1d eb 07 21 34 f4 dc 10 f6
f6 3b 0e f7 23 07 ed 23 34 09 d9 26 fc 2a 29 c2 22 17 47 29 09 2c c1 03 ff f0 1d fe 05 12 09 1a 2f f7 1a 19 3b 26 14 06 08 13 3c 03 eb 01 1e 25 df fc 14 e1 1c fb fd 0d ec 41 de 2c 09 06 f8 14
e0 05 f8 23 0d fa e5 e8 e8 23 13 d0 e6 c6 17 fb 2e f0 fb dc 1a e1 e7 fd e2 06 11 f5 33 31 f0 ff e5 01 fe f8 fd d5 01 f5 17 dc fd 13 ee 06 d9 08 de f3 08 1e fd 0d 09 01 de f7 15 08 0b fd 24 10
e5 f2 01 fb fc eb 07 03 16 fd ff 01 ed 13 f0 09 ea f9 df c5 ff cf f7 16 e9 f0 1a d2 fd f9 d1 11 fd 33 dd ec fe c4 0d f5 02 ef ff e8 04 ff 0c e4 c3 f0 f2 10 a9 00 f5 ec ef e9 0d 07 03 f1 0b d5
01 0b 0c f3 0e 00 1d f6 11 1b fa 11 fe 07 ee 11 0c f9 00 f0 12 1c f0 0a ec f4 0d 03 ea ff 01 07 13 de ea 05 f0 fe 17 17 06 f7 01 f0 f3 fc e2 00 cd 0d e6 16 0d 06 02 f9 00 0b 17 0c f1 f2 15 24
06 0e ef ff 00 07 e8 0b 06 f6 05 ef 1a e4 1c 00 04 f9 29 05 e4 00 fc 05 ef 27 d6 04 1b fb 10 c0 01 f6 e1 00 22 f6 1e 23 24 12 25 fe e4 f8 ef ea fb 06 08 cc d9 ef b0 fe fd 22 ec d2 0a d6 1b fb
17 35 16 00 22 2e 25 21 2d 19 16 19 2e 17 2d 09 20 41 41 e5 d4 23 11 fd 0b 0f 01 21 31 27 1c 18 41 20 06 08 1b 10 14 23 41 02 27 00 ed 22 f0 23 0d fb 11 12 35 09 e7 21 07 37 15 e3 fc 17 01 14
1c 09 19 f9 1f 2f 2e 21 24 1e f6 00 13 01 2a 08 25 1e 26 00 e2 12 04 07 f3 f5 ed 22 1f 1d 12 15 2d fc 1a 25 16 f3 27 10 00 22 1f ec ed fa f9 27 02 06 09 f7 fa 08 f9 1f 0d 2e fb 0a ed 0b 0e 24
0c 0a 02 da 0b 13 dd f5 12 fb dc d9 27 d1 28 41 c6 f3 2c 0b f6 02 1b 03 e2 30 d1 17 0a 46 0b c6 ec 2f 04 09 0a f8 18 1c ee fe 38 24 ea d5 14 00 22 be 1f e2 1e df f6 ff f7 f5 f8 dd f3 e3 0f dc
e3 ea f9 24 ea f7 bf ce bf 1e fd f3 00 d4 cf e9 29 07 0e f5 ec fc 0b ea e6 df 13 ea 15 e3 f0 13 cb 03 c7 e5 12 f8 d0 d6 21 dd dd dc e7 20 f9 e8 0e 00 0e 2f e2 ff f6 f5 f4 ff 0c e1 f6 f9 f8 f6
00 04 fb f7 12 fc 24 13 21 10 fc 02 d9 1f 22 04 3d fb 1d ed 1a 29 fc 05 1e 25 fc 16 e4 2a 0a 19 2a 04 05 05 f5 13 28 27 16 2d 15 e7 27 21 f4 20 ec 06 f9 21 06 1d 04 06 0d 26 2c f5 00 fc 18 23
e5 f4 1b 0c 06 f2 ea 07 11 f5 14 e4 f1 d3 e5 ef 0a 00 e8 f9 45 15 02 00 de 06 fb d8 08 0e fc 05 d9 ee c3 fb f7 08 f2 e8 fc d0 04 f5 fd 11 0b e2 03 01 df 15 db 08 df fc f9 f4 22 03 2b df dd d2
d8 fd 00 11 e0 f7 ed eb e6 e3 e6 ef 03 c1 e4 12 ec f3 f0 e6 fe e5 12 d5 e3 f6 18 fa 00 ed d4 08 d6 0a c5 f1 ec f7 df f8 f1 d4 e0 15 f8 df f3 b5 17 f5 eb ec 00 ef f2 f0 f1 f4 0f 11 0e eb 03 fd
d6 11 e3 e7 e7 e9 de d8 d9 e6 fe ee fb ec ec 08 dc fc 1d 01 24 fe ff e9 07 fa fa e5 e5 c5 d3 05 c4 e5 e7 e7 06 0f b9 eb ee da da 11 eb db ff fc 15 ea fc f0 13 fe 04 ff fb f6 f7 dc 07 f7 dc f5
fd 19 fc 0d 0b e0 dc c3 e8 14 1c 1b 1a fa 05 13 e2 d9 fc 00 0a 11 e1 be 09 27 da 1a 0d f4 17 c8 01 f0 13 04 f6 25 04 05 e6 f4 e8 3f 09 f4 0c 00 18 12 f1 00 f2 05 1f 08 f5 ee cf ed ec eb 2b ae
1a de f6 f0 0b e4 23 07 0d e8 09 11 d4 29 1f e5 fb 0f 04 12 0c 17 0c 24 19 1e 13 00 f1 2e 33 17 1b 22 27 17 00 34 f3 08 f1 16 fa eb 13 f5 31 ec 38 ec ef cc ee ff 08 08 f9 0a fd 04 12 14 0f 12
f2 03 fd 08 ef eb f4 f3 cc 17 ec 08 f7 04 f1 ec 27 13 00 f2 f1 10 0b d3 fd e7 0a d6 f7 e3 fe 2c ee fb db ff 0c ec f8 08 00 0d ff f7 08 15 fa f5 09 00 e2 00 da 01 fb 05 07 17 14 13 fd 0c 1a 2c
03 d3 17 10 fb ff dd 0a 04 14 fb e7 01 fb f3 03 fd e5 0b f9 ea e5 e3 f1 d4 e1 ff fb 16 ed 1f dd e4 e6 d2 f4 07 14 d5 fa 1e fe ec e2 fd 21 ca c4 d1 09 06 20 06 02 e1 10 0a 0e 03 fc e4 16 ea 0c
e4 00 0d f5 e2 e3 00 0b 0c 00 fa f4 e8 04 e7 06 e7 fe 00 01 0a d7 e8 12 d9 06 fa e8 e0 ef e2 f0 04 d9 d3 04 f5 e7 f9 09 ea db ed 09 d7 e3 f7 f5 ef e3 0e d4 01 09 f7 05 f9 fa f6 05 fc 03 e1 fb
fa 05 ec 11 e4 fd e1 0e d7 ea f4 10 f9 21 f8 f7 0c 0f 14 fc 00 f3 04 f1 11 05 17 1a f6 e9 e8 08 f6 00 fd e1 12 02 da 04 24 eb f0 0b 12 2e d7 19 03 c2 17 19 0b 0a f5 09 ed 0a 0c 02 ef 05 00 fa
13 21 0a b6 00 01 07 03 ea d6 c5 00 03 18 f7 e3 ea 0f 25 12 f9 16 f1 1f 00 20 ed fa 05 dd f3 f5 f2 0f f4 f7 13 f6 e9 f9 0f 00 02 38 c2 e0 06 0e dc e0 17 be 20 b7 b0 00 f0 f2 c4 ec 02 ed de f3
fd 0f ef f8 06 f9 06 19 f5 eb f5 09 05 1e ed 07 d9 d4 e6 e8 f3 17 f4 e4 01 06 e8 fa 19 fa f1 d5 08 f9 f7 14 d5 00 d1 27 e7 ee 02 10 36 d2 ea e6 0a fa 11 ed f7 17 f3 f0 f6 dc f4 dd 2a f2 d4 dd
10 28 12 d6 f4 2e c7 09 ff ea c7 fd 26 e2 00 15 e0 f3 2f 15 e6 f8 11 16 fe fe db 01 26 1f eb 0d 11 ed f9 07 48 0c 17 1a 3b dd 01 31 de c3 0c e2 e2 1b 0c f0 28 01 0f 07 03 f3 f3 0a f7 ee c8 f9
01 2a 08 f0 0d 06 2b 34 2c 0e 01 e5 05 e1 f0 14 f8 06 03 ff db f7 25 fd 13 01 ea 22 33 fb 01 fa 11 20 17 03 19 cc 0c 01 11 25 f8 0a fd ed 22 0c fe ff f9 14 ef 10 e3 fc 00 09 06 f6 eb 11 1a e7
e1 e2 0a 00 09 f1 d3 f6 ed e0 fc 10 f1 ea ec f3 e0 02 e0 ff 05 10 f1 f6 fa fe 0f f7 ef e7 f0 03 04 e7 d6 fb ed fe 0c fd ea ee 06 14 db ef 00 08 fe 20 22 f1 fb 05 b1 f1 f5 db f5 06 10 d7 f7 fd
0b fe 1d 0b 14 13 29 e9 0c 0b 12 0a 08 30 ff 0b fd 19 fb 08 01 0a fa 04 fa 04 01 0a ff 08 17 1a f8 1a 32 03 f7 10 15 3a 03 1a 03 f8 db 06 0b 31 ed 09 16 25 e7 16 00 eb 10 e9 18 f9 05 14 1b 0b
f0 11 01 f8 e9 cb fd 04 18 eb 10 3c 04 f4 08 0a c3 d2 f2 20 40 e3 e7 05 16 32 f8 00 f1 26 ee f8 0f 10 1b 1b f2 21 16 1b e6 f5 06 25 20 f0 2c 0e f7 0f 00 fe 18 01 f1 e6 ed dd f6 15 38 f9 1d d9
de fa ed 15 f9 c6 f5 20 f8 f8 f3 00 e6 08 1b d5 25 21 0d 04 0b dc 18 0b 04 08 0f f6 cd d4 ee 11 0a 00 e6 f3 1c 01 e8 02 02 f2 fc ff f7 35 0f fd 04 fb f2 fc 00 07 01 ec 05 00 ff 15 08 0c e9 19
ca 03 fb 3d db b3 e9 cd e9 06 0b 0e b1 e9 f4 f7 29 1e ff e1 df 08 00 d7 fa fa 24 e7 e1 f8 06 3f f8 04 ed f1 16 f2 f3 17 05 ee fc d4 f5 26 0a f8 00 04 cd 18 d6 f8 ff 00 02 1c 14 1b f5 00 13 1f
ef f7 e9 ee e6 da eb f1 df 15 d9 eb 04 fe e5 f9 15 1f 15 fa c6 f8 05 00 fc fb 13 f9 02 c5 fa 24 d0 ef e6 de 38 e9 d1 fc 2e de d0 ee e8 1b fe ca f4 fb dd 00 0c f4 ea 02 eb 17 00 f1 f0 fc d6 04
13 ee f0 f0 24 fb 1e fe 12 ff e8 ed f6 00 04 e9 f7 fb e5 fb ea fa de e4 fc eb f1 ec e2 fe 17 eb 18 f6 66 fa f7 fa 11 23 05 f9 19 f9 1c 0d 0b f0 ef db 19 f0 08 e2 09 f9 17 fd 00 02 f4 f0 fb f5
0f fc 1e 34 0e 35 13 1f 08 15 30 0e 14 c5 1a d5 f6 e4 f6 d3 31 f3 18 d1 dd eb fa 00 e4 f1 e8 c0 02 de fc ff d1 16 00 c4 f0 21 f3 04 db e8 cf 24 07 35 e3 07 f2 22 f9 f6 14 e9 f7 08 0c f4 e0 f3
e1 f6 20 00 f9 e2 f2 fa d1 14 e4 e0 22 c0 dd fb 17 ed 09 ef 08 ff 06 d8 05 ff e3 c9 2c d7 fc e3 c2 e4 d1 00 0e fb bd db 02 dc c3 ea fa df e2 cd fb ec e5 f3 ff 06 12 09 e5 0e ec 11 f0 03 e0 0d
ce 07 ff e8 0c f2 10 22 16 d6 f3 1c f0 0f 15 e2 fb 21 16 14 e8 09 01 24 14 04 04 ee 0b fb 10 0b 0c 17 fb e1 f8 29 ff 19 05 12 22 19 2d 03 1b 2a eb da 24 ed 15 ef 28 ed 00 e4 d7 02 0d e1 01 05
de 09 11 1b e8 ab 00 e2 f2 f9 1e e2 ea 08 00 f4 e3 f5 f8 ec 03 ef f6 f0 f9 0d 12 db cd ee fc 05 fa ec 19 04 f8 11 ce 0a e3 02 cc f1 06 fe 2f d6 fe e9 f1 08 e0 1a f8 fe eb e0 07 e9 26 f9 17 f9
05 1e e4 25 0c b9 1d 0f 00 e6 14 07 e6 f5 1e f7 04 fc 01 04 01 e8 f5 24 fb f9 15 01 e0 02 09 18 fd f6 08 07 fe cb 0c 16 16 12 fa 20 f8 20 f8 0a 03 00 f4 01 f7 18 ea f5 d5 0b 0f 1a d8 11 26 f6
f1 e1 10 ce 0b eb 08 10 ec fa c6 e8 ef ea 04 e1 e0 f0 df ee 1a f8 00 0f f0 fa 08 fb f9 01 02 01 16 f2 d6 16 f8 10 07 e7 f3 ec 13 f9 ce 02 02 0f 28 18 fa e2 12 ef d7 0d f6 06 f5 05 19 f4 fb 24
3f 41 f5 ea 0b 3d d9 05 ef cf 14 ca 3c b9 12 24 f2 f2 38 fd f9 fa 26 ed e7 39 df 17 35 36 0b e6 fc 1d d1 f9 20 2a 00 f6 0b ef 11 3a d6 bf f9 ee ee 06 0f 0b 15 0b cd e0 f3 f2 08 e0 e5 08 16 f4
f1 ff 1c 04 fb ef fe 18 fa 28 08 d8 1e e6 19 f9 1e ff 18 cc 16 f4 ed fe fc fc 00 05 07 d5 ee e4 07 06 f8 01 03 e8 eb d4 e8 ea fb dc dc f4 f3 14 ef 08 e1 0d e8 1e d7 f9 ef fc 25 02 e8 06 0c 00
ee fc 0c f5 20 08 06 1b 3a e8 24 22 fe 14 f4 cf f3 23 fd 12 1e fb d5 f7 fa 09 1c f3 df 29 24 2e e8 ea 28 de 00 10 05 30 3b fe 25 0a 06 3f 12 30 c0 0a 32 e1 26 eb 0e ee 05 e8 df 2c 18 f4 28 ec
14 11 1c 14 f9 1d 0a 19 fc 13 11 d6 11 ed 01 09 00 ec fb fb ff 0f fc f2 ef f5 f3 ea 02 f5 e1 e4 dc 06 f0 15 e6 f4 f0 08 f5 ec e3 02 f4 0c e9 f4 12 d8 f1 fd f5 f5 0b 02 dd 04 fa 01 04 01 31 fd
1b fd ec 10 1f 38 dc f6 dd 30 c8 e5 02 dc 0a e8 3a 07 1a fc 99 f3 07 00 d6 df 0c ec 5f 04 ef 38 da 0d da d1 3f cd 1b bc 48 ff 01 cc ee 20 ec 10 b5 13 00 f5 d6 01 d7 ea ff 1f 03 f4 e9 0a 05 17
0d d3 d7 eb 09 f7 0e 17 fe ff d2 0f 06 17 0e c7 0a 2c c0 1d d3 04 02 13 0f 11 fe 04 09 e2 e7 42 1c d3 e8 0a f1 2a 16 19 e5 fb 15 20 20 f8 d4 01 3e f4 06 a9 00 f1 d4 df fb 04 db fc 11 d8 e7 f2
f1 28 00 e9 21 b9 04 e1 3f 04 00 db 08 03 fb 1d 16 25 ea de 41 d0 f3 05 11 25 f6 06 2a 4d 04 0c 00 ed 3b 12 03 f1 ec 19 06 bb 13 25 08 20 0c d6 fc 10 d8 02 02 00 11 0a 11 fc d6 e9 3f fb 17 04
1b fb ef e8 25 2e 17 2f 49 01 f7 23 32 11 29 0c ff 1c 00 f4 0e 1d f7 01 1c ee 00 fc 27 14 18 0f 1b f5 fc 13 1b 18 47 28 01 11 22 f9 0c fd f6 10 f1 fe f2 08 0c fc 18 09 00 02 f5 1f fd fc 33 22
fa 00 09 ec 04 06 09 f3 f7 01 ed fa e1 0f df 00 fa 1b 0e 12 19 f5 4b fb f4 e8 de d8 e0 27 fa 0d f1 2e 33 dd 05 ee 04 20 e5 17 03 ea ec fc 27 0b 04 cb 0c f3 e3 fa e9 1f f0 13 1c fb 0e 00 f9 36
e8 e6 00 f1 d6 ed d7 d3 bc 02 fc fa 02 da cf 0b 02 08 07 fa fd ee 06 ea f6 e4 07 e3 f5 c9 e1 00 c5 e5 d1 df 09 e2 c9 de 03 d9 d3 e9 e2 f9 ec db e1 f0 00 02 ff 00 f7 fa ee 14 07 fa e1 fb d7 01
e8 fb f7 07 0e 06 e8 eb 12 06 fe f1 08 20 ea 0e f4 e3 fd df 10 05 0f de 12 0e d2 ee fd fd f6 fe e3 ff 09 e2 fe 25 ee 03 01 ec e6 09 1e 05 f3 d3 ef 20 cf 1c 1b fc 2d 22 0a 00 de d9 fa f6 1e ea
08 21 1c 0b f6 1b f3 18 07 08 0c 0a 22 2b 12 f7 f1 06 f7 e6 16 1a 1f 07 f5 f5 f3 34 11 d3 1f e4 0a e4 ea ec ea f0 fd 34 da 16 2a 00 d3 f5 04 18 e7 ed 00 1d 3b 3c 09 1b 07 f1 2a 40 ea f4 15 0a
18 24 1d d9 e8 02 de 12 2d 1f fb e4 07 b9 19 05 1a 0c f7 0f de 1b 0c 28 fa f2 06 10 1f d7 c1 0b 1d b7 ee e8 ea ea 2a ec 01 eb 0e 03 f2 12 02 08 d8 f0 10 0d 00 05 f0 38 d1 24 f9 32 0b ed f4 23
dc 02 ff ea e8 05 f2 f3 0b e6 f4 f2 00 01 fa f7 01 00 eb 1e 00 00 e9 22 e3 05 fe d9 02 05 fc 0e 0a eb fb 00 04 fe f6 f0 07 09 13 15 0b fc 0b e8 ee e9 13 e7 15 03 ec d5 0e d6 ee 0b f5 e0 fd 03
f8 e9 12 04 e0 ed 07 0f f5 25 13 ef 16 f9 e1 f4 13 0e 12 0a dd 21 f2 2b f0 e6 15 f1 f7 e8 ec 31 db d5 eb df 00 b9 f7 fd 0b f4 df de ce e9 f2 d4 cc f1 eb 24 06 f6 33 20 f7 12 04 f4 dc 00 02 0c
05 1f ca d9 e7 fb f2 27 08 c4 f4 dc fa 14 ea f9 ea 03 15 18 e3 02 09 14 06 f3 05 f3 f9 fd db 10 0e ef fa f2 03 f2 00 ec 0c f3 17 19 f4 f7 0c 18 dc ef 10 0b 0e ee fb e8 ee ed ee ef 08 cb 0d 1c
f7 0f ad 32 06 f9 ea 00 09 c3 52 13 0d 0b 11 f5 19 09 fc e8 13 e8 0c f1 f8 ed e3 db 14 13 1d fe 07 06 13 0d 16 f8 e9 fe ea 08 ff e1 f6 e2 d4 12 00 42 f9 1c 06 ff f7 c4 15 f1 3b ea 02 e1 d5 f8
1b 00 ed 01 ef f9 fd 02 14 0d 05 e4 fd fd d7 03 fc fd 0e 03 00 ed f1 04 01 16 22 00 fe c7 e8 fa 20 0d 12 e5 0e fc 01 eb 01 f8 f4 ff fd 07 e4 0c de 0e 04 f5 fa f8 f5 fc ea ff ef f1 17 03 ef fc
11 32 10 ea f8 10 f4 1f 09 0b f3 e3 0b e6 f3 09 0d fb 15 10 06 f1 e3 36 f4 f5 00 10 26 20 f7 fe f6 1f 30 f9 19 f3 f6 fa 04 ef 09 fd fa f9 02 de e0 e9 10 ec 04 f2 0e 12 d7 fc f7 f9 09 fb 01 f5
d5 f6 e9 21 fe f5 e7 dc 00 f0 f0 f7 19 f1 00 25 e7 d9 bc df 0e e3 ed ed d6 ed fe e2 eb 0c f9 d3 05 fb f3 09 d6 ea f9 dd cd fd 0e d4 d5 e5 15 ec 0a 0b 16 f4 dd e2 ae f2 e5 e4 20 f6 06 e8 fa 07
1a 0b 01 02 ed 13 2a 09 04 fb fd ef e6 07 0b f1 23 21 0d 20 e1 fc f9 0c 30 21 06 06 0f f5 fd 1e 0f e2 0b 12 27 34 0d f4 23 fe f6 0e 0e 24 f0 14 f3 e8 0c fb 18 ea 1c 00 00 1c f7 01 0d 07 fd d8
00 19 0c f5 10 e0 f8 05 07 02 28 0c d8 32 2d ef f7 17 11 da 65 fc 0b f3 f8 1d 04 03 f9 00 0b 1a 10 1a 14 ec f9 1c 23 0d ef 09 ed 21 10 2b fa f2 e5 10 04 08 f2 21 07 05 fc f4 e3 11 1f 03 eb 0c
18 15 e1 fb e1 19 2d 06 19 de 05 d5 10 ef 0e fd e8 01 03 0e 00 db e6 11 df 01 19 f5 fc 29 0f 00 20 00 fe d9 03 f3 21 e9 fe 0c 1b fd 17 11 0f 0e e2 f1 1c fd 0b f9 04 e4 0c e8 fa e6 03 e3 13 e3
25 08 1a ec ee d1 e1 17 24 05 dc e9 02 29 44 dc f0 17 28 00 fa 10 f4 fa e9 ed dd f3 02 d8 02 fa 0f cb e5 ec 30 fd 1a f9 00 08 00 10 fb fe f6 e9 f5 e9 f3 07 fb 17 d2 0f fc 0e d9 23 f6 ec fa d5
14 f8 f7 0f 1c eb e5 13 24 19 ca 19 e4 f3 0a f0 0e 12 fa cb df f7 0d c2 1d e8 f5 f9 0f c4 1b 1e f2 11 1c fb 00 1a dd fb 14 14 d4 08 ef 23 ec ed 30 2b d9 26 dd fc f8 ff f4 0e 0d ff bf e6 f6 11
4d 0c 0d 28 27 07 ef 14 15 f5 07 0e 2a 29 03 2c ed f1 17 35 f5 08 05 0c 0c 1a fb 02 f1 ff 12 d5 dc 0a 01 fa f0 27 fb 00 1b 12 eb 14 fc 1f f5 03 ec fe 06 0d 02 10 05 0c 19 d6 07 fb ff 07 ea cb
2e 09 3a 3f 01 05 df 11 07 1e 12 14 1e e6 1a df f6 db eb e0 2a fd c9 cc 22 1e d3 fb ea de fe dd 21 00 1f 02 ec 0e 09 eb e9 10 ec e1 ec 0a d4 00 e8 21 13 18 d3 2b 0c 2d 14 e5 01 e0 0d fb f2 f9
ea e7 11 06 ec 08 f3 06 05 ff f3 e3 19 17 f4 ef f8 09 ff 0b d9 cf fd e5 fa ca f4 fa 14 1c fe 18 e6 fb f8 fb 0b 18 dd d8 00 13 0d c6 25 02 f5 c7 17 f9 de f7 bf ef f8 22 fc 10 2f 00 cd f2 ee 28
ec e5 e3 fc f7 f5 10 fd f0 c4 05 07 e4 00 0f fa e6 f2 09 26 01 0d f8 0d 07 0f 16 f1 f5 06 e6 f7 1a e9 e4 f1 09 1c f8 df 0e f9 18 03 cb fb 19 08 01 de 27 f4 ee dd d8 f7 f0 fc 15 f8 fe d8 ff f5
ee dc 00 08 21 dc 2f ed fe e5 e5 04 dd 13 0d 11 06 e3 fe f3 dc 01 0a dd fd e5 f4 f4 e6 16 1a f3 21 e7 25 1f 1d 0d 06 21 1b 1c 0f d2 13 0b 0b 2d 0f 14 f0 fe f6 06 08 f7 0a 0b 01 d5 30 02 18 b6
28 d5 fd 18 32 06 ea 1c 06 f3 2b f7 14 eb 0e b5 fb f3 fb ec f1 d9 1b e6 19 df 1c de 04 ec 05 f3 01 f2 16 fe e3 03 48 ff 16 e9 02 f8 09 26 f3 0a e9 45 f8 13 0e 46 e4 f6 0e fd f6 14 e9 f7 fb 00
0e 09 f1 d7 f0 f5 11 07 0f c8 08 bf e7 14 e1 eb d0 0c 19 07 f8 fe e0 12 07 1a 0c e4 fb eb 06 01 ff 00 ef f3 ff 05 fd d7 fc ed 08 1a 01 06 02 f7 f4 03 f5 dc 0c d7 fa e2 ea df e6 f5 05 f7 f2 f8
28 2d 11 fa f5 2a f9 1f f2 0a 1f f8 22 db ea 05 f5 08 49 f5 12 02 00 13 b6 07 12 0b 0a e8 dc ea 07 e4 f7 0f 2a e2 21 db 24 1f 1e fd d8 ed 08 06 ee e0 ef 11 0c 0b ee d1 e3 de d8 bf 12 f9 e3 da
0d cc f0 13 e8 db e9 13 00 fe 16 e7 0c e5 f1 f1 e0 d7 d2 f2 15 15 f4 dd dc f7 23 05 f2 fb 0a 00 ef 2b d9 f2 cd 14 f9 04 e5 e1 13 e3 42 2e 13 f2 0d 09 01 06 04 0d 07 e8 16 e1 1e 30 fb e7 03 ea
fd 00 dd dd 09 f9 00 2f 22 ea ea ff ca 14 1e e0 09 17 fe 00 1b 0c dc 1f d3 f3 18 fe 09 14 00 11 3a 06 34 05 16 26 19 2e 23 1a 29 f4 17 2b 1f dc 00 f4 14 de 04 fd 11 ce 20 f8 d1 1b 17 ea 09 0a
f2 09 00 f1 10 15 01 0e f7 fa 19 10 f9 e8 f6 00 f2 0a 0f fc ed 24 0b 00 14 f8 00 13 1c e3 ee 08 de fc 3b f2 0f 01 ff e4 00 f2 07 11 ed eb 08 1b e8 21 0d 30 f8 fc ff e8 03 f6 04 08 fc 07 2f 0e
13 f4 0e ff 23 ef 1e f5 27 f4 1b 0d 23 03 07 1a d4 fa ee 0b f6 ed f2 df 01 08 e5 43 f7 fb 24 e8 15 e6 06 0c 11 f4 1e 1d fa f3 17 02 0f cf 07 22 f9 e3 d4 f0 1b 00 1b 08 00 f0 e8 00 f8 fb 17 ef
11 0a 03 e7 fb 17 fd 04 0c 03 ec f5 13 1e f3 f8 da 19 31 1d f9 f3 00 2b 21 0f 06 f1 21 f2 08 1a f8 00 ca e9 32 d0 fb ec 0f 09 06 1f 12 1b 1b 16 f0 f1 12 ed 0a 03 cb fc ef 30 de 0b ff f7 ed 09
f5 f0 0b 1f e7 e0 f3 fb 1d 00 14 e9 e8 09 1c f2 ed 05 f1 0c e8 07 f0 07 0f 05 19 0f af fd 09 fe 16 eb 1b 02 e9 0c 00 0e 0a 09 2e f6 15 16 1b ed 32 f1 ce 25 ef 08 11 f5 fa ea 08 fa 17 fa 41 f9
24 e1 ba 0c 10 25 dc fe 34 fd e8 fe 19 fd 18 1f ff e6 f1 f9 0d 00 ec 00 ed 0a 29 03 25 e2 e6 07 21 fc 32 07 10 00 27 0d f8 fa 37 07 03 b9 05 de 0c 0a e8 fb 05 d6 dc d6 ed f3 0b 32 0e 12 fa dc
1e 0c f3 f8 18 09 07 f3 eb ff 0f f8 43 eb 24 44 bf ea 17 1e 1f c4 02 09 e6 01 0e 14 1c 16 0f e7 19 17 ff 24 f3 f1 13 00 e3 fc ee ef e7 d5 ef c1 0a 0e 2c f1 53 02 f9 11 15 db f4 2f fb f1 f3 ea
f8 f3 0f ee ff fa eb e7 e5 14 f6 ed 0e ec db f4 04 04 0a 0e e3 e7 00 05 e0 fa 08 d7 02 d8 f8 1b e0 e8 e7 e9 0c e8 d9 e0 ff fa c1 14 de f7 f0 df f4 04 fb f2 14 ef c4 18 e9 1f 04 0a e8 01 b4 20
0d 40 e8 09 0c 2b eb 14 da f7 0a e8 21 fb e9 ff f2 09 14 04 22 e8 00 ef 03 29 f6 11 18 00 02 db c3 e9 11 fc ff 08 de 04 05 f6 db 05 be f6 25 ce 09 06 df 15 10 09 ee f1 13 dc 0c fc 0a f2 3d e0
01 d3 19 15 20 21 0d 27 15 01 38 11 0a f4 fe f3 00 f9 dd f1 37 15 e8 e7 e1 f6 07 09 f9 1c eb ce 15 f1 d5 04 e4 e4 2d ef e9 ff 24 d9 ea f0 01 0f f1 19 0e 20 e8 1e 0a 0b 21 fa 16 e2 22 f5 fa 07
11 1c 07 ec db fe dd 29 f5 f5 fc 16 f2 1c f9 e6 e0 ff 14 f7 2d 10 13 fc cf e3 f8 11 ea d4 1f 11 f3 2d 13 e4 f5 16 08 1c f1 de f3 f4 21 24 ff 10 0a 00 e0 0e 14 f7 fe 23 fd f8 17 1d 03 d6 0d fc
ee d9 0d eb 00 ec f7 fd f6 da d5 e1 cd 01 fd f1 0c 1a fe 2b 03 dd e4 27 f1 fe 16 f3 f8 f6 13 28 fb c9 e3 00 f8 e5 e6 00 fd d0 d9 fd 22 fb 10 0f e5 e3 0f f9 02 08 16 ed 1a e8 b8 17 1a e2 fd 1b
f3 3f 21 07 0a f3 2d 05 dd 19 ee 0c 2a 14 01 10 e2 24 16 07 e4 1e 02 19 fc 22 00 ed 14 ec 04 00 0f 26 2a 0a e2 3d 01 e0 db f0 f2 04 fe fc fe 08 04 06 e8 01 3a 10 f9 0d 08 10 f7 26 17 e9 df 0c
f2 0e e5 26 f6 d7 0c 11 1d 03 f5 0b fa 0d 06 04 01 00 01 f1 29 f7 02 ff 02 0b 1a f9 f0 14 0d f0 02 09 01 1e 03 22 06 00 ee 18 1e fb 16 21 27 2a d2 0e 2c 3b ef 0c e8 f0 e9 ff 15 11 15 f0 49 28
0d fe 09 03 fa 1e f4 05 f9 0d 0f 10 21 ff f8 0e 15 cd e5 c9 1b ed 16 d7 ca e1 fb 1c 0d f7 f6 d2 ee e8 e7 2c d8 e7 f5 20 eb f3 f8 e6 e5 ef b7 1b d9 1c c8 04 ea fc 07 1c f8 15 0f e7 0a ec 0c 00
00 0d 16 d5 f9 fb 11 06 17 10 f2 db fe f6 02 e7 df f7 06 0d e3 f0 d7 1b 03 0c f6 0c fc a8 ea fd 12 fc 14 e4 fe fd fc 10 12 eb ea f7 0e f0 fd 1a de 11 09 f3 f9 f0 0a 06 f9 f4 ef 0c 00 ee d1 f8
26 02 15 e2 e6 fd f1 08 04 00 ec e0 f5 d5 e8 f6 11 12 22 0d f4 ec e4 27 ca f4 1c 18 10 04 0a 00 23 08 35 0e 18 f3 0f 0f 19 00 14 ef 14 02 0f fa e7 f7 03 e8 fc f7 b6 03 f5 18 d4 e3 01 ec f1 2b
d2 fd e7 fd fb dd 0c de e5 e5 03 ee 00 1d fb 0f f9 ee d0 ed f2 01 02 0e fc ea f4 d4 d7 fc 01 08 03 f7 e7 03 e0 ca 00 fe f5 10 ec f3 e9 f8 0f f5 03 06 f3 ee ec f2 db ef e3 e9 05 ff f7 fb f1 03
04 ee ec f6 dc ee 00 16 1c 17 09 ee 0d 00 e8 d3 0e 1a f0 13 00 0f e5 2f f3 1b 0b 0d f5 1a 06 1d 23 10 13 00 eb e4 0a 29 e3 05 30 08 07 2b 28 f8 05 00 12 fd 01 fd f1 f2 f1 fc ff fe 0d 0a 1f 0d
1f 27 f3 e6 19 26 18 23 23 c8 d9 fa 1a 14 49 17 e8 08 10 ff 23 e7 00 02 ef 19 f7 27 31 47 09 04 1f f8 09 f6 03 28 46 fc d1 35 4f 17 13 df ff 0a 31 0b 02 e2 1e 21 f5 dd fe f7 00 1d fe fc f5 f4
0c 0f 0f fa e6 10 ea 14 0a f1 e9 ed 03 e3 e8 02 e3 f2 04 3c 00 f7 e4 22 de 13 f9 f7 02 07 0f 00 0b da e6 f8 fe ec f6 09 e8 e8 ea 0a 1e 00 19 00 ed eb ed f0 0b d2 18 26 fa ea c9 39 05 dc 0a ff
0a d5 00 f2 f3 fe e5 ca ed e9 e9 13 a6 07 fb d2 0b 17 f3 ca 04 28 11 d2 e2 fe 1e 12 e7 f9 fc 10 d8 08 1b e0 f0 0b f7 08 ed e4 17 e1 fa 24 f4 d5 fe f3 06 0b e2 24 1d fb eb f1 0e 0c ef fd 0a f5
15 3d 03 00 f4 33 eb e8 14 14 f3 08 f1 f6 36 13 1c f8 24 ea 13 da ff db f4 00 f1 ec 26 bc fe 09 dc 00 64 07 0b f8 01 06 04 0d d1 f7 00 ed f1 a6 2c f6 ce f9 f8 d1 e4 f1 d7 12 04 18 12 09 e5 f9
19 19 f8 f4 46 ef e3 24 ef f7 09 06 ec 1d f9 fb ea 24 fb f1 fd 35 06 ee 13 f7 08 0e 00 08 f1 11 fa 1b 1d 09 dd 01 1b fe ee 42 27 02 05 09 dd fb e2 0b 25 0a de 29 f0 f1 0d e5 17 d6 fa 1c 09 e9
22 fe 55 03 0f e6 d0 f9 ed 24 3b ed ee f5 00 c7 ed e7 fc db ff f3 f4 ed e7 14 d9 f7 fa e0 11 df 01 c8 00 f5 03 e8 f8 d1 fd 05 1e 05 08 01 e7 fb 08 31 01 3c 21 53 f4 21 f7 f0 0a df f6 ff 17 fb
f9 07 12 28 0d f1 eb 0e fa 07 42 2c fb f9 fa f7 11 d2 df ec 11 d1 ef e5 03 04 fb ec 2c 11 eb e6 cd 06 1a f6 de 1c 08 fd f7 f7 da e9 e6 31 e5 0a e4 f9 11 22 cc 15 27 ff fe e1 05 e2 1c e7 fe c9
ea 02 e8 0f 09 f9 f9 d9 f9 d6 f6 05 0c 03 e1 24 03 07 eb 09 01 0b 01 13 0b 03 f7 ed de 0b 0c da 06 d6 11 ff d8 f4 ef dc f4 e9 24 12 f4 d8 30 ff 00 e1 16 ec f0 18 d4 dc 03 e1 11 fd 17 dd 0d ef
d1 ee f7 fc ff e5 f0 0b 06 02 1b 1b a6 16 09 f3 28 0b 15 e2 19 f7 2e dc 10 f7 03 00 fd ec eb 18 f4 07 fc 00 fc 0a fe 39 fa 17 0d 17 07 13 0b 22 ff 00 1e 00 eb ed f8 ee 00 00 06 f8 13 0b fa 04
05 01 fe 13 17 f3 cc ec 02 fc 07 fb 00 f7 14 1a c8 de 18 ca fb 12 e7 e3 01 02 f5 30 e1 25 d9 01 e1 00 fe 09 ef 0f 10 2f ff 35 44 08 1a e4 e6 f0 ee 25 09 e5 c6 f6 2c f5 00 f4 df f8 c5 e3 27 fc
02 05 d3 d4 f5 f2 03 05 05 bb 15 eb e8 00 fc dc e3 f8 1c 1b e8 ec e0 00 1b 0f f9 f9 f7 d1 00 04 0d f5 e6 f4 16 0d fb f5 0e ff ef 19 29 f3 0d 1c 00 f2 fb f3 0c e8 12 d2 ea d7 dc 0f f5 df d4 04
13 f9 04 17 e9 08 13 03 f2 d6 10 f4 02 fd f8 fc fb 0a f9 0d cf e6 12 17 fb 26 25 08 cc cf 02 f9 17 fd 1b fb f1 24 02 f8 07 fb 0f 0a 27 00 16 1e e2 01 0b 22 05 ff fd d9 04 c8 2e db fb df da ce
ea f0 24 e9 1a f5 fe fd 23 00 ee dd cf 19 fa c2 19 fc da 04 f6 05 03 1c 3e 18 e4 cf cf ed 11 09 08 f4 e3 00 e3 fe f3 e5 04 e8 f6 08 fa 33 01 0f 02 f7 25 21 fe 17 f9 0f fd 02 fb fa 15 fc 1a ef
00 42 f4 e6 f7 00 11 0d 09 0a 02 00 05 fc 16 03 ff e1 07 0b 2c f3 f4 21 0b f8 12 13 ec 03 15 15 2c 1e 0a 05 f5 28 18 21 f1 34 01 21 28 25 f3 00 fa fd 0d f1 ff 1c 36 03 12 f0 09 0b 11 05 26 ec
0b 1c 26 24 0d 0b 07 15 f0 03 43 16 1f 0a 00 f9 eb d9 e8 ef 24 e2 d7 06 05 34 e6 f9 14 d7 07 ed 14 24 0b 12 d4 31 12 e8 fd f3 1a 27 42 27 d0 f8 b9 42 ce 41 eb 3e 01 e3 30 eb fb fe 0b fb 17 e7
fd e5 e0 f3 f2 fa 05 25 00 08 09 25 14 38 10 13 02 24 f5 0e f0 fa 0b 02 fb f4 fa 03 1a 21 e1 28 01 06 d4 e9 04 0e 0f 27 14 49 28 f3 ed 1e 02 17 f4 16 0d f8 12 f9 dc e4 f1 f3 f1 ce f4 06 f6 0c
09 04 10 f2 fa fa 21 0a f7 f4 09 13 f3 1e fb ef f4 14 f2 16 db f8 f8 17 21 11 05 0a f2 ca f9 11 04 d6 e6 ff fe 09 fe f6 04 f0 d4 01 10 f8 f6 19 e8 e1 27 fe eb e6 0f fd f3 fd d8 fe 13 d8 cd fb
0e e9 06 dc 0f 1a 13 1b 1e 16 fb e8 04 0a 2b df 1c f1 11 02 09 37 f8 f7 ee 00 e7 20 1c 16 02 01 0b 11 0c ff 1a dc 2c 14 fe fb 26 0c 1f e6 f1 29 ea 0e fb d9 f0 f8 0f fa 11 19 d8 eb fb 01 e3 04
11 1b fb ff 19 10 dd 13 17 fe e0 f2 f1 ff 0e 16 f9 d5 05 07 0a f1 f6 06 fc 1a ff 2b 02 e7 f3 f8 09 09 40 eb f5 2f 13 f0 f9 10 18 0d 00 df 25 e2 21 10 e8 fd 13 06 0e e0 ec f9 07 ff 11 e7 f0 db
1f 0a f4 fd 2a 28 00 3f 00 fb 02 f4 1d 1e 0c f8 02 2c 03 03 0e 19 e2 3a 08 2a 00 f5 46 bf df 02 e4 f6 0d 14 2a f3 f5 16 28 34 06 31 f8 18 00 ff d3 ff f9 07 27 df 0b e8 15 00 13 fa 00 01 e7 04
fc 04 f7 ee dc 14 ec 02 ea 00 02 fa 1c 15 ed 15 11 f5 08 02 da dd 09 24 e0 03 11 d0 1c e4 e7 1d de f3 d1 ef 13 bf e9 f1 1f db d2 05 e4 e2 0a d4 0b e3 ec f0 28 eb d4 00 f2 f6 13 08 f9 02 d3 14
fd 0c 11 18 21 47 fa 22 16 11 15 14 20 fa ea 2b ee d8 fa f3 04 f5 11 0e 3e 11 02 09 0c fa e2 e7 f6 1d 23 f3 15 06 24 fd 09 4b 2d f6 06 00 ee 10 1c 38 fc 08 e8 f0 ef 05 10 e1 05 fc 1d e8 25 d5
bc be f2 f9 eb fe f3 24 42 f6 00 d5 f5 fe cf 0a fc 04 f6 e0 d8 1c 0b 07 c4 f6 15 bf 0b ed 00 fc 01 f8 e7 1b 04 df cd e9 fe fa 21 d9 d8 0c 3a 04 21 d7 16 11 e8 f3 ec 12 10 06 02 e9 ea 0b 00 1e
05 fc 02 f8 28 80 d9 08 f8 de ea 38 b4 f5 00 e3 f1 30 08 2b 23 29 20 0b d5 1a 1c fd a3 0d df 3a 0e ef 2d 17 fa 45 fc 0f e2 c5 0e 03 18 0a 08 d7 40 0b 1d 07 1f f3 08 f6 17 00 05 2f 1a 01 13 17
0a ea f8 f8 fc f5 12 03 12 07 f7 25 d6 05 fc e2 13 30 0b 08 19 fb ee 11 ce e6 0d 00 c1 0b 05 2f fb db fa 01 16 12 06 f8 21 05 21 03 23 0d 08 d8 e2 01 06 dc e2 08 03 00 0a 14 07 2f 41 ff fe 0b
e8 13 e0 d7 f6 2e e6 0c 09 f0 f2 ed 12 1b e9 fb fc f9 e2 fa 07 1c d7 2f f3 40 cb 05 fc c9 17 01 07 2a f3 f9 dd f2 de 0e d2 ef e4 2b 20 e7 21 31 ff ef 1a d3 23 f9 17 f2 2a f0 cc 04 11 e8 10 e9
32 0d 1d 30 22 34 e3 3d 0f 2f fd 1a f3 24 1b 03 21 02 1e 27 18 02 15 03 ea f3 fa 23 0f 23 f5 2b 1d 21 10 19 f2 f7 20 3a 01 0a 1f 05 01 07 0e 3b f9 0b 0c 10 2a 10 f4 23 06 2b ef 39 04 22 fe 20
0f 0e fe 1a 29 c9 14 fe 06 07 32 29 07 03 fd 0c eb 0c 03 2c 22 08 e2 f7 19 dd 33 ff c4 fd ed fa fb f0 3a 00 f3 e4 08 f9 04 1e 1e d9 17 48 34 06 f4 00 1e 0d ff 00 fa 00 18 ef f5 0a f2 f0 e3 e6
17 00 f6 e7 00 10 17 00 29 f9 11 ce 24 d8 fe 1c e9 c6 12 fc f1 12 f2 e0 e7 06 da 03 1f fb f6 ef 23 0e 27 e1 34 ef 07 13 18 0d de 0b 09 c6 e5 ea ec 03 ac ed 08 f1 22 f6 f9 fb fd dc 06 ee da d7
12 d1 ef 0e f1 0c 13 3a 22 23 d5 18 de 12 ff c6 12 0f 08 1f d7 17 fa 3c ee ed 39 0d eb 06 0c 39 02 f3 ff fe 10 11 22 fe 42 fc ff d4 23 41 0b 1b 05 ed fe 03 0f 00 00 f8 fa 24 16 1c fc ff f1 1a
fd ea 19 fc ef 05 fe 00 da ef fd e0 13 11 f4 fa e8 d1 e6 08 fa e3 fe f9 e6 02 f3 04 0c 0a eb f5 de 0e e0 f9 e7 cd e4 10 e0 de d0 03 08 fa dd dd d5 1a ea f5 0a ef 07 0e ed dd fd 06 f3 f1 f5 f9
ff 04 00 d8 eb ff 06 0d 0c e5 cb 02 e8 2d 0f c2 15 05 0d 1b c7 0a e3 1f 24 15 18 f3 eb dd fb 1a 19 f5 e9 0b 11 02 e8 07 00 ff e6 26 12 13 29 07 fe 08 10 ec 19 0e f8 fa fa 1e e3 0b 0f fd fe ea
1f a9 e8 01 26 17 0e e5 35 39 f4 f2 03 d4 21 f1 1e 0b fb f5 cd f3 15 eb ce 82 1c 0a 49 f8 00 fd eb d4 07 e2 0d ca 03 f2 42 0d f9 b2 bc 26 e4 23 e5 fe ff 19 be ed be 11 f5 23 25 0f 97 24 d1 f8
0d f4 f6 03 06 ec 35 07 02 24 08 30 e4 39 27 f5 0f 39 28 06 08 fa f6 08 f9 12 07 f9 e8 15 04 37 09 08 22 14 27 04 19 22 05 f1 0e 00 0f 38 11 e6 00 fd f7 ff 08 05 0e 15 08 22 fa 26 2b 08 ef 32
e6 26 fd 14 f6 eb da d6 f2 eb fc 0c 14 ef e0 2b ee e7 fd fc f3 eb fd d0 02 12 02 e4 f4 d1 dd e2 e9 ed de e5 e6 f9 dc e6 f8 f1 e5 23 f3 ef f4 e9 fa fe 0c 08 fd 01 f2 e7 d6 ea 06 e0 07 fe 09 e5
3a f9 f3 dc 1f 4d 2e 0d 1a 1c d9 ff 1c 0a 0b 07 24 2b 41 f0 fa 34 29 c9 fd f7 dd 14 42 ec e0 10 e9 f1 02 fa 28 ff 02 f9 27 0e ef 04 f2 eb e2 14 03 ed eb 10 2a e4 f1 1a 02 1b 0c df ce 10 e5 17
d3 ce f4 1c 0a 08 f7 fe fc 15 0c fd 29 01 e9 18 10 00 00 08 dc e4 09 1f 04 ff 22 ed f3 e2 07 fc e5 e0 f4 dc f2 f8 e5 01 1b ec d3 f4 14 1b 0b fc f2 08 e1 15 fd 00 15 0c 07 17 00 fd e4 0d 0d 09
11 01 0c 00 02 01 0b 04 f3 fe 03 08 09 f9 f1 f8 f6 0e 00 08 0b ec f6 ff fc ff fc 07 1d d8 f7 02 e6 01 f4 e2 00 ee ee da fd fd ed fe 04 fc db ef 00 00 fc fd 09 eb fc 00 fa 11 f2 f6 f7 fb f7 0d
fc 15 05 10 47 02 10 e7 fa 19 0e 12 14 f8 00 10 00 e6 f6 0b f8 ef fe ca fd f9 fb 26 1f f3 db dd f1 d3 27 0c 00 0d fd fd fb 08 25 12 02 f1 dd 0c 05 1f f4 ec 02 00 1a e2 fd fb 04 1c f6 10 18 f6
ec 06 ef 09 00 f9 f5 0b ee 01 e5 cc d6 15 00 21 0a f6 ff 04 f2 e3 1a 13 0b f8 f6 fe fe 2e 0e fb f4 16 fe 0e ec 00 fd 0e e7 ef ec f6 f9 f6 15 10 08 f2 0a 0f f4 e1 01 ed ed 01 ed d9 0c e6 29 e9
ec fd ef f0 14 e1 e4 fb 18 17 f4 f6 df fc 0c ee 28 12 1f fb 01 06 16 e7 08 bd f7 00 07 fb 1c 1d 07 ff 1d d6 ff ef da dd 04 f6 12 df e1 f4 fb 28 0a 01 31 06 e0 f6 00 1d ec 1b 1e d2 0f 0a cd 0e
30 da 05 e9 2d 45 2d 1b 15 1b bb fc 0b 1e 0a f6 26 2f 12 09 dc f4 1e 09 e1 d2 05 e7 4d e5 f2 3d 05 db 06 18 2a db 0f db 31 0c 3a f5 d5 1f ed 2b 06 e2 13 14 22 f4 d4 1c 0b 13 2b 1d b8 fe ea 2e
ed f0 02 d5 f5 e4 ff e4 0f 13 fd 0f f6 e9 fc 09 13 e0 ff 1a 29 fd d9 fc ef f3 f7 10 06 f1 f7 f2 1f 18 df 03 0a d8 11 08 fc f0 de f4 e2 04 18 1c 0b 03 e1 f7 21 ed 22 12 f4 12 f2 fb f3 d2 ec 07
01 0d fe 13 ff 0a e4 f0 fa 03 28 fe 0c 00 12 15 f3 e7 e7 f6 1d e0 f0 07 bb 0e 01 1c 16 0b ec e3 15 11 f0 f4 e8 19 fb 10 e5 e4 e9 17 0c f4 00 c6 e7 03 07 f7 e7 fd 09 05 0b f5 ef 10 fc ec 3b e3
f7 11 06 ef f3 15 00 07 e3 f0 da df f6 f4 f7 ec 22 f5 ed 0c eb ee d8 08 f6 00 04 fd 09 e9 fc 01 13 ed cd 00 25 eb f6 06 fd e8 d3 16 01 f6 f7 fb e7 12 d2 e4 2a 0c 0b fb ed 0d f3 14 fe 0a de 0b
22 02 fd 27 06 2e 1f 17 1c 0d f8 03 3e f5 1e 24 1c f4 0b fa 0a 02 17 fc 0e f7 f0 25 56 2b fe e8 0f 0b 19 fd 0e e3 21 26 03 22 03 1b ee e9 00 19 19 00 eb 11 dd 04 fa 18 03 2b 13 23 e4 21 40 0f
25 23 11 00 10 2a 0b 2b 11 fe fa 0a 11 0c 1f 00 dd df 00 08 2f 0e e0 2c 01 2e ea 18 f6 07 0f d4 3b 1e 17 1e 18 13 19 04 ec 26 30 22 13 dc 0d 25 0f 0f 21 ed 20 14 11 0c 11 fa ea 27 11 f3 ef e2
0c 0a f9 0e 05 e5 da ef e0 ef 15 15 f3 f4 da 0d cc 10 0c 17 e1 fe 07 f9 e7 f6 13 f6 f6 c4 00 09 d7 ec e1 d9 e9 fa e5 de f9 d8 19 f6 f1 0f 03 ed 11 27 e7 f0 10 12 fd f5 01 00 24 d6 13 fb ce 15
04 26 e4 cd 03 31 0b fb f9 0b e7 06 1a fe 03 19 0f d7 32 21 dc ef e8 07 eb fb f9 17 26 cb eb ec 0f f8 e6 eb 2c b4 f8 0a 20 da d7 13 e8 e1 b8 fb de e9 d7 b6 2e da 11 e7 fa 11 f1 2c bd ee f5 f3
f2 07 08 f6 17 e5 23 20 28 d7 d4 f0 e3 e0 12 00 ee 12 1f 12 e5 1c ee ff 0f e1 20 0d da 2a ec 1a 13 01 19 fd f6 13 30 05 eb 1e 5d ee fa f9 f7 14 1a f7 20 e2 f2 04 19 0b f5 11 f1 e3 fa 00 ef 2e
0a 2e 24 e6 00 5c f2 2e fa fe f7 15 4d e6 3e 49 02 df 0d 0d ee e9 0d 0e 12 23 e3 1d 15 14 ed e9 f5 c7 0d e4 0a 06 03 1f 1c 1c 09 1d f8 cb 04 ea 0a 0a e2 d5 41 dc 08 1a c5 f7 f0 ef f8 f4 f3 f9
f4 fb 07 f9 ea e7 e8 f2 0d 00 0f 18 00 30 f0 16 dd f3 00 d3 d1 03 07 fd e9 0d 31 0d ca c1 00 1a cc 26 1c e9 3c 06 ef e6 22 fd ce f7 15 05 06 e0 f6 05 0f 05 ed df 02 06 ee ee 00 d0 ed f9 09 dd
03 e0 e7 ef 00 2a 2b 1f e6 21 e5 d7 43 fc e8 13 29 03 14 db c7 1b f6 12 c9 e2 dc f2 58 c7 d8 ea e0 00 d9 f7 18 eb d4 ec 20 e0 89 fa f7 f6 da e7 dc d5 b7 06 00 f5 e7 db 0e 17 d7 f9 c9 05 e4 13
06 e8 ef e4 16 d7 00 19 3f f6 08 06 d6 01 12 b4 f2 39 21 08 01 10 f3 e4 05 de f9 e9 d4 ea 14 12 17 22 0e e1 f7 09 0f ef f3 f2 2e df e7 e6 10 fa 0f 1d 12 14 de 16 12 00 14 09 fa ff 04 15 f8 1d
d6 f6 01 f7 ef e5 08 e5 e0 0a 0e f4 10 f7 df 0a ee fa fa 0a 01 e7 09 07 ec f9 fc 0a eb e7 b7 f3 f5 e3 f7 fb 00 e9 fa d1 01 07 eb 13 f2 f7 fe e6 fb f6 14 00 f4 f8 05 0f e1 07 04 0e 0a 10 df 00
10 03 f5 15 12 00 0e 01 ee 00 23 13 29 f7 07 fd e5 e0 ea e3 14 26 fd eb 04 09 28 f8 fa 07 fe 0f 22 0b d6 12 dd 00 04 26 ff cf 00 09 00 1c ff fc 00 ed 01 e6 ee 04 0b ea 1c f8 03 25 16 f7 20 f8
1d 12 1e 1b 1a 17 11 16 2f 52 00 f7 f8 02 37 f6 62 43 31 df df 06 28 fb d9 d3 01 15 28 2a 14 2b 1f f1 07 1e 23 de 14 0b 14 17 26 cf e6 12 fa 1d 0d 08 ff 24 f4 0a d9 27 19 49 35 18 d9 27 24 4b
fe 2b 03 e3 07 0a 17 1f 2d 05 19 01 39 36 fc 4f da 08 f1 1b 36 ff e5 25 f3 04 f0 29 f3 1d d1 13 3a 0f 05 01 07 fe 47 22 df 1f 0d 29 09 f2 29 02 ea 22 38 e9 16 06 09 14 f5 e6 1c 37 10 01 07 eb
27 06 23 00 26 1b 34 1e 28 2b 04 1b fd f9 31 fb 27 12 1e 07 e9 07 f7 0d f6 e7 ee 26 21 07 0b 08 2d 09 12 1d 0b fa 26 17 0f 13 1e f5 fd ef 0a 1a fc 12 0a f8 12 03 dd 18 0d 23 0b 16 df 0f 0e 1f
22 07 e5 ed 14 0d 1c 18 2e 1b e6 03 f9 05 00 fd 22 13 04 db ef 08 fe fb e7 da 04 ee 2f e2 f7 10 0e de 1d de 18 e4 05 fd 2e 26 f5 e0 ba 20 b4 17 00 f5 fd f9 f5 05 f9 10 0b 0e ed e0 ef f3 ee 1e
08 e5 05 0e 2d 0b 64 2f 1d fc f1 22 02 12 10 1b 09 28 00 02 ec 0d 2a 19 06 de 01 11 0a 1a 0c 04 05 0d 11 16 ed ed 17 22 fb fb 1e dd bc f9 f3 29 2a ff fa 13 f2 fe e9 27 04 1f 23 23 db 01 f7 21
21 fe 31 1e 18 35 21 1e 18 2e eb 15 ff 01 1f fc 27 22 19 07 e6 0c 05 18 fe c6 04 09 16 29 12 03 27 f3 18 1c 0f d3 33 10 fa 26 16 e3 ed 00 f1 21 15 ff 0f 00 01 10 d8 27 09 2f 0c 00 d3 15 10 30
fd fb 00 e8 ec fc 09 f8 e8 ec f4 ee fb 16 da fb 05 16 0d ef f0 d8 fc 02 00 f3 fe 04 01 07 ec 13 05 f2 ef db 06 e7 f9 f6 f7 f5 02 ff 03 23 fb 03 f5 17 e8 05 e0 e6 01 f5 c7 f0 08 f9 03 f2 ec 24
f6 ec ff ca ee 0a 1c 04 0c 18 fd 12 fd 14 f8 02 03 f0 2a fa b8 e9 d9 0d 1a f8 e5 f5 00 d9 ed f5 1e e3 f6 fa 25 9f f4 ee 09 d4 e4 12 e2 fb e5 17 e1 ea 07 f3 02 0b 0f 0c f7 fe 1f f9 e1 e9 e6 f4
ed f4 03 10 e9 c1 d8 dd e2 02 05 fc e1 f0 dd f7 fc 0c 02 f2 ed eb 03 fa fe e9 17 fa e9 f0 e0 1b d0 f0 f1 d6 0d f8 df f5 07 da e7 ee f1 01 f8 da 01 f8 f6 0d f1 ff f9 e9 ee fa 10 e4 f4 f9 f8 07
15 fd 00 29 03 e5 0e 0d f7 0c dd 0e 0c 0d 0f d8 0d 18 fd fb dd 2a 30 f1 09 e2 2c fd d1 fb 03 2b 3a fa 1c 15 fb f9 0f 18 1a 12 25 f6 de 1a f4 eb 29 00 e3 3e fe 06 df 0a 19 fa 37 c4 fb 15 e6 2d
f6 0e 1a 01 ef 00 fc d0 d7 10 ee f1 27 e9 eb 18 fc ef 04 0b e6 df db fc e9 09 f7 08 1c c0 da 00 fb d0 f2 0e 0a dd e5 e1 f7 ec e1 27 fb d9 f3 c4 05 07 fc e5 07 f8 03 09 d2 01 00 09 e9 ed 00 f8
d3 1c f0 d2 ec d2 f6 df ed e6 1a 01 08 fa 00 23 d9 0a 02 1d 10 ea 05 00 1c 0a ea f5 d5 07 dc 22 05 e6 09 fe 01 0d 01 ff e5 ca 02 24 1d fb 2e 26 fb 03 f4 14 11 29 0d f3 ea e8 0e ee 11 e5 21 00
d3 1a f5 f7 e4 00 fb fc f5 e3 1a 0c f4 fc ee 1c cb ea f4 2a 64 fa f1 11 3b 34 e3 1c f9 00 db ae f5 35 f2 f5 e7 32 fd 0f fa fb d8 2d 28 f0 00 0c e8 f3 17 fc ed f7 12 08 00 d1 e8 02 36 e3 f4 d0
0c 0c 1c 04 0b 06 00 e1 e0 fe 12 cc 0e 02 eb 1c 0a ec f5 f3 f2 e7 10 eb 1a 0e e5 fa 18 11 e6 f9 26 16 f9 fa fc dd f0 e7 f5 10 0b 16 ed fa 00 df 27 ee f6 19 07 07 01 09 05 08 ff 0a da fe 19 f8
07 15 f6 16 e1 f2 f1 14 eb 12 1b 2a e7 fe f3 ff fa f8 05 db 31 0e e6 05 03 16 1b e8 f1 fb 1e 10 e8 1c f7 e4 04 12 f8 15 f4 db 09 10 37 26 fe 16 e7 f9 f7 f7 12 00 1d e6 1d fd 06 1e 2c f9 0b 21
ee f9 02 e9 f2 f0 13 ee 05 e3 03 ec f3 1c eb f2 df e2 01 1b 0a e2 f1 11 fa 0a fd 00 d5 0a 04 fc 0d fc f0 e8 f5 e5 01 f9 f7 ed 03 00 0e 04 fe ff db f7 0e fd 00 09 07 ee e0 e5 0c fc f8 c9 00 01
ef 0c 10 04 fc 10 ff 0f d1 12 19 27 e6 0b fc ec 1f 29 fd f1 d6 02 12 e7 18 e0 fa fe 10 0f f9 32 d1 d5 10 f0 10 06 d3 17 1a f4 01 02 f8 21 e6 04 14 00 0d 29 d0 04 0c fd ef 00 00 d4 d6 06 18 02
f5 0e 15 10 eb f9 e9 e0 d0 2a f0 ff 00 f4 ea 13 03 f6 15 06 04 ec 00 ea 0f 1a fc fb 0f e8 e9 fa f4 ed 00 f9 f2 ee d6 d4 02 00 d3 13 0e f4 db 02 10 00 00 11 1a 16 02 09 fa 0b f0 e7 11 10 f8 02
00 20 07 33 fa 0d 09 09 fc fa 00 ed 07 1f 2b 0c 36 17 36 f8 ff 01 1b e8 bf 2e e6 22 1b fe 18 ff ff 2a e7 f7 10 e6 14 0a 0c 04 17 eb ff 0a 04 e8 20 13 db 23 11 0f ec 0f 1a 1f 31 ee e3 ea 29 24
f3 15 fe 20 12 04 00 08 16 12 30 e5 00 de fc 21 19 03 09 d3 f9 d6 fb ed ba f4 e6 08 f4 15 ea f5 f6 f0 f6 fa fe c3 11 07 f7 04 01 f7 00 fc cd e4 1b fd 16 04 ff f2 f0 f5 f0 09 1b e8 f8 06 f7 f2
13 0e 2a 15 0b 27 1c 0f 25 0c f6 13 ff 0c 1b 08 2a 1a 12 fe fb 04 0b f8 eb ee 00 16 23 28 0e fd 14 03 09 11 06 07 13 19 f6 1a 10 e0 eb 04 26 0a 3f ee f8 1c f4 ff e7 1e 03 1a 23 01 f7 08 10 07
1f 10 1b 08 26 24 2c 20 27 28 03 13 0d 04 30 02 1a 1f 1c 05 f8 10 07 0a f7 f8 e8 22 12 24 1e 03 32 ff 1c 16 0b f8 2c 08 05 21 20 ee f1 00 01 1d 0c 04 ff 05 fd 05 f9 20 0a 2d 00 0d ee 0c 0f 23
22 06 fc ee 1f 28 28 13 2d 02 02 17 00 24 27 03 04 07 0c 16 f7 0b 06 17 0b ff f8 21 03 2c 1a 0a 42 1d 25 23 fe 06 23 25 f9 2e 31 f9 11 f4 18 29 1b fd 08 e8 06 fb 01 0b 08 0b 0a 1d 06 ff 24 0f
f0 34 05 16 e7 db bf fb f1 f9 05 ec 30 e1 eb 24 e6 f3 f0 11 0f 01 f9 f5 01 24 fd 1c 09 d4 e1 f3 e7 f9 f0 e8 e6 1d d6 f9 01 de f0 17 0d 01 2d d2 ef 18 ff 02 04 10 0d f6 e5 f2 0a e7 1c f5 26 cf
0a 38 18 00 3c 18 48 14 1d 09 f0 fd 06 e1 15 01 26 07 f8 12 f5 f5 14 1c 12 0f fd 20 25 31 03 0b fa fc 35 fe 00 e6 1d 1e 32 15 26 fc 1a 29 f1 2a d9 20 1d 0c da 12 ee 33 ea 0e fb 00 0e f4 1f 10
f1 00 34 04 1c d9 ed 1c 07 1d c1 00 b7 f7 02 e5 13 2f 01 fd cd 18 06 04 fb c1 f2 d4 f8 ee 0d 36 d4 bb 00 db 17 fb f6 f3 2a 08 27 be e3 2a 03 0e e7 fe 07 18 03 13 fe 01 0b 09 13 d3 c9 0a f6 f3
0a e9 01 fb 1e 1b 0f 0f 0b 0b 15 e1 d9 fb 13 e3 fd 2a f7 cd ef f9 27 ed fd e3 0c d3 2c 0d 0c 2a e5 ef 0f fb 00 d4 ea f8 0e 00 08 de 09 26 fa 02 ea fe 0d 3e ec 03 f7 f6 01 18 1f c3 d2 06 00 0d
44 06 02 f0 09 15 fb 30 04 27 b3 2d e6 20 ec 0a 32 49 07 cb b1 11 3a de fc b6 ef 13 38 11 ec 5c e8 e6 16 f3 3b e6 e4 15 0c 31 e1 c1 d9 ef 00 23 06 d7 f2 21 d9 f3 f7 ff 05 3a 3a 0d c0 0d 12 37
1e 28 e3 d4 f9 1f 15 10 d6 ec e7 15 0a 28 d6 05 f0 25 07 1d 19 17 16 0c 21 23 d9 ef 21 ee ec 1b c3 fb f5 d0 15 1d df 0f fb 27 d3 1e 19 dd 11 2e fd 0a 19 fe f7 1c fb f3 e5 0f 07 00 32 13 e9 15
02 04 f8 06 24 da f2 1b 22 f8 00 19 ed 06 f4 ef 1c 27 fb 24 ff 12 15 01 2b df eb fa e6 02 05 11 13 f0 19 07 fc f4 f0 09 e7 01 fb fd e1 f6 0a 13 20 15 fc f2 02 10 e2 e7 0f 00 12 da 07 07 0e 0a
16 33 14 cf fd ee 2b 24 01 f2 03 f4 1b 09 00 04 ed 21 f9 0f 1d 08 1a 19 04 0b 09 cd ef 27 df 07 33 12 0b 1c dc 20 11 14 e7 12 2d 16 f5 d9 3d 14 32 fa 13 d2 37 16 f8 14 03 f1 fa 45 23 f3 12 17
f7 13 00 df 0f 12 10 ff f3 21 00 ee 08 0d f9 1a fa 15 0a 21 ef f8 e1 e0 f8 12 da 08 14 ee fb 04 fc d5 f8 0b 11 e5 fd fd 02 09 05 17 f2 e7 f2 e7 fc 02 f6 e6 17 18 00 09 02 f8 de 14 07 da 1b e0
dc 06 e8 e1 0e fa f5 eb ee e4 04 01 e0 02 ea ef ce 02 17 16 fc ec fc fe 1d 04 f7 ee f2 1b d9 e4 f2 f7 ff f3 fc 08 ea ff 09 f5 0b 24 d8 d7 12 01 ee f8 17 03 09 0f df ff f1 e2 05 fb fd f8 03 f5
1b 19 1b fd df 12 ea 07 01 0c ea 29 35 28 e1 2b f0 d5 17 19 0b 14 0f d1 fa 2b e0 1b 31 11 e8 da fb e6 f4 01 00 0a f8 09 f9 ec 0b 4a fd de eb 17 07 c7 f2 e5 1e 16 f7 1e ea c3 e2 1f 04 f3 0c e3
0f 01 ef ad 2e 14 04 09 f7 d6 c7 01 03 1a fc 00 e9 07 0f 0d e4 00 d6 df 20 06 dc f4 09 f0 f3 f1 04 f1 00 ed 0d 14 ee fe 10 13 0d 2b b9 03 00 1a ca f1 16 b1 0e cc c6 ed f7 e7 9c f7 e9 fc f5 fc
01 f3 18 18 ec fd da fb ec 0f e3 00 e7 2f d9 de 1b 08 12 f5 d6 f0 00 fe 12 fb ef d0 f6 de e0 f8 d0 f7 d0 d5 25 06 dd d5 2c e5 fd 17 d7 f7 1d 1d e4 f3 07 05 f4 06 fd fd 04 12 09 e1 e6 1e f2 01
14 d8 1a ed 1a d9 e6 11 23 0c 0f f3 f9 e8 05 f3 05 28 02 10 08 1f 1a 02 0e e5 15 06 d4 ea f8 ef 26 17 fb f8 e8 26 12 17 1e 1b 15 04 02 3e df 09 f3 02 fe 15 fb 15 f9 f7 04 37 20 36 27 10 fb 15
28 03 1a 1a 30 ea 11 0f 0c 04 e6 03 d6 04 10 c0 17 0d 04 11 fc 2d ef 09 31 15 25 2b d7 fa 2b 16 0d f4 18 19 f1 07 31 1f 2d 0b 1d 17 13 3c 0c 4f f9 2c 1a f9 ff 15 07 00 12 fa f4 f7 28 13 02 03
ef ff e0 d6 eb e8 f3 f9 e9 cc ef 26 e9 0c 01 d3 c9 df eb f9 f5 f9 cf ed 05 0f 00 02 f1 d2 e7 03 f9 cb 12 05 06 04 d3 09 ea fa f6 0f ff 00 ef 15 e1 0e f8 dc 04 07 f2 f8 fe d8 e3 f4 fa dc 00 ee
1b 39 27 00 e4 24 03 01 19 2a d7 0e 0c 09 10 26 0d 0e 1d 07 e0 07 37 fb f8 0e f3 16 0f 40 24 20 f7 33 08 06 31 09 1d 0e 00 14 17 02 d1 29 01 0f 0b eb fd 11 17 12 f8 32 eb 25 06 17 03 18 fb 31
47 17 11 14 20 20 28 0f 34 15 14 11 38 e7 34 0d 00 e2 e0 0a 00 1c de 19 0d 1a 0e 3f 24 1d 0a da 0b 0e 09 01 ee fa 56 f3 11 1d 31 19 e8 f0 10 02 dc 15 f2 eb e1 1d f5 1a fc de ea 0f f5 fa 3b e2
1c ff ff 01 07 18 f9 08 f8 ef 0d 01 ef fd 04 de 05 18 15 fd f5 02 1b 00 f6 ee 0f 04 13 07 e8 fc 1a fb 08 e3 e0 03 0a 08 d4 eb 0f e4 f9 24 fb 00 00 f5 f7 2c f3 19 ea fe fc ee 23 00 11 fa 09 f1
36 0c 37 10 e4 d0 01 08 fe e9 37 1c ba 06 05 f9 d4 0a 06 ed 4d e5 0a 33 e6 22 01 e9 b4 e8 ef f1 ed d2 0b 06 df f6 e1 fe e6 1c f5 1c 28 1b 18 d9 0c fe 0d 10 11 11 d1 2e d7 e7 1d 34 4e f8 00 dd
d1 10 17 1b fc d6 21 00 f5 2d 2a 0a cd 17 e0 e8 28 01 01 d2 17 e7 06 0b 0e f5 f2 e9 f2 de f4 e3 f3 f2 07 ea fe f6 d3 fd ff ff d9 05 0e 06 df ca fb 18 d4 22 f4 2e 01 02 00 0f 1e f1 fe 15 f8 03
e6 05 05 ef 10 d8 11 e3 19 db 26 12 d4 25 0d 06 ec f1 07 11 2f 0f f8 07 30 3b 03 04 e6 28 0d fb 0a 16 35 07 f5 22 f8 f6 15 fb fe 0c 2d 12 fb f0 07 0d 01 f1 17 e0 21 ff 0e dc ef e7 43 00 09 cf
09 02 2f 3e 24 f8 36 22 f2 06 53 ce ee 28 28 fb 21 f8 03 cf 4e 16 eb 0b e6 13 fe 18 f8 01 07 ee fc f5 08 10 fa e0 23 1e 0a fc 00 01 fe 35 e1 f7 b5 24 05 3e 0e 2c d5 13 17 15 00 03 e7 32 01 17
d7 dd 06 0b f1 fa ef f1 db 0e 09 02 ea 0b e4 f3 14 f5 fe 00 fd 14 fb f9 06 fc 05 fb 08 db f3 ff f6 f1 eb e0 01 08 e4 e6 19 0a ea f2 d8 ff 02 e9 07 e6 1a 19 f8 ff 14 13 0a fe 0d e6 f5 fc d6 ff
f1 e5 f0 fc 01 e4 11 1e 0f f7 ef 1b d5 e1 fc c0 0a 35 1c 0e ea 06 0e ea ef dc 33 ec 02 ec 00 42 fa e3 02 02 09 21 ea 15 0c 19 f2 f4 07 3c fb 0a 04 01 1e 0d 02 fe fc d7 fe 0a 00 fa 1c 04 09 ec
ec 17 06 16 f7 f6 3a 03 fd ef e1 e3 e0 fa e8 11 fb f9 1a cc f1 f1 fa fd 06 f4 10 d5 09 e9 fc 1c 2e 03 21 10 f7 02 ed fa 0d 0a ef de ec 22 0c cc eb 04 c5 04 fb f2 12 de 0e 10 ff e3 e7 08 fa fc
fc 0b 22 27 06 13 27 08 40 12 04 2d 1d f9 16 1f fc ec 09 17 e0 13 23 12 0b 01 02 2b 3b 13 08 f1 31 1a 34 19 03 12 3c 2f 10 5a 46 da 16 eb f7 03 1e 06 fe 04 cf f0 f9 18 e7 07 e8 34 0d 16 0f 11
fb f5 e4 d1 03 e5 d7 0a 21 dc d9 13 de 03 fe e0 f7 f8 fd 00 fb 04 13 12 1b fa 13 d6 cb 03 ff 38 0e 0d 10 05 1a 02 fc 2b 15 1a 05 f8 d5 16 24 fc ed 13 f2 09 0b 00 f6 09 ef 05 07 1f 2c 05 f9 26
01 1b f3 0e 09 0b fe f4 fb e1 e1 f3 11 1f 00 14 d7 fc 03 1c fb fe f5 00 13 25 cf f6 1e 19 fa df 07 1f 0b ec 17 24 fb 30 1a 19 2b 2b f6 ef 24 11 22 fb 09 ff 24 fb ec e8 df f4 ed ea 0c f9 1d e4
f2 35 c9 d5 f3 00 dd 0c f4 fb fe 10 04 24 e3 f5 e3 10 13 10 04 e9 f6 e2 0d 04 10 13 ea e0 26 fa f1 27 d9 dc 01 0d e3 05 0c 00 f0 49 ee 23 fd 07 b9 01 00 01 0d 01 05 cc 00 02 e0 00 f6 f4 f9 f0
15 0f dd f9 07 2d 16 2b 19 f9 fc 0c e1 26 0b e1 2c 31 2b 33 ed 0c 23 09 17 08 09 13 44 2d 20 4a 37 da 0c 17 35 18 1a 1f 13 13 26 03 0e 30 45 12 46 f8 37 f1 18 f2 08 fb 0f 06 db ee 21 0d 23 00
1c 21 09 08 03 1d 06 1c e6 10 06 00 0b 18 ed fd 00 16 1a 1a 0b 02 12 d2 ea 04 ed 00 08 0d e8 01 d8 e8 d6 ef 04 00 fe 02 14 1c 02 08 e4 0a 06 08 f4 ec fc 00 00 11 0e f6 fe 05 df fe 1b 01 00 f7
0c 04 f3 ee fd f6 e8 01 02 de 03 ee af f7 fd d8 eb ff f6 0a 3a 00 dc 0b 00 20 fb f2 0d f2 f3 1d ed f5 f5 e2 01 2c 0a 02 06 0a fa eb 09 f9 f3 fa fa 00 0b ef 06 fc 07 03 19 e9 ed 11 47 f2 1b f7
fe 0b 1c e4 1b f8 e3 ee 00 f9 f1 4b 29 10 fd fb f6 f9 00 13 1c 04 25 01 f6 22 f4 21 10 0a ec e5 03 1d d6 f8 f8 f4 02 0e e7 00 1e 13 fb f1 11 18 09 ed 09 fe 11 fb de fb f5 18 f7 f5 ed 07 10 de
f4 03 1d 10 10 dc fb 18 05 07 1b fa e3 ae 09 fa 23 30 29 ad ef 02 1d e9 cf e1 28 da e8 ee de 17 f5 01 1a ff 0d d2 f6 0a 1d 1e f2 df 09 35 f7 b3 1e 0d f1 37 e4 0d f9 0a 0c 26 31 cf cd 0e fe 1f
15 08 e3 24 28 00 04 1c 1a f9 00 0d d4 e3 f9 ee 12 10 04 da db 01 2a 03 c6 f9 27 03 ca 15 07 f0 33 2b 14 08 f8 fc 04 28 29 17 30 fa f4 25 19 fa 51 1d 14 15 16 18 00 fb f4 26 03 16 fa 09 40 1b
09 c8 09 09 ea b8 eb 00 06 00 02 11 b2 fa 04 ba ee fa da 01 08 d9 00 23 f4 ff e5 c6 e2 ed dd 03 11 0b ee fd dd fa cf 00 f3 f0 d5 f0 2b f6 24 e3 eb e4 04 f2 b6 01 e7 09 0b e1 02 09 2c eb 30 00
f4 04 19 ec dd ef d2 dd c8 02 f2 03 f8 04 ce 0a e9 ff 0d 0e 01 03 fb ea 11 fd f1 e7 02 d0 e7 fe d8 f2 e3 ce fd 11 d8 ef fc fe e6 09 f3 f5 f3 e8 f8 e7 f3 02 09 f6 fc 0c f6 ef f2 fa ff f3 dd e9
ff e7 1c 15 26 3e 2f 06 fd 16 e7 f6 d6 1e 2b f0 07 18 33 f5 dc 38 0f fc e9 d5 07 dd 28 28 0d 0c f1 f2 2d 03 1d 28 19 03 2e 27 0e eb 02 11 fd dd 03 e8 f3 e6 e5 f2 fb 2b 17 12 0a fd e2 f4 d2 16
1c fb ed 03 fe 01 e9 28 12 d2 fa 02 eb ef f1 c7 d9 f1 ee 1b 23 e6 00 f7 00 3a cb 0d 18 f5 1e 1c 03 00 07 1a 14 25 f8 0c f3 e3 1e f4 c7 11 05 27 f5 e7 20 00 fc 16 d4 f3 f0 f0 08 25 dd f3 e7 0c
fa 19 0c e3 1d d8 1a 0c 0c d3 0c d2 b6 fa 0e c2 fe 1f ef 11 32 2d f9 04 09 fa 25 f8 eb bf eb 29 da 09 ed d6 06 35 02 0b 17 fa 2a f1 1d 08 34 1d 03 17 1a 15 21 19 30 e7 d8 fe fa f0 24 fa c1 f9
03 fd ed ed fb 00 27 00 da f4 19 d7 fa f3 d6 0c 19 eb c0 f5 08 f3 dd 0a e8 d9 0c 0d 00 19 0a d5 fc bd fe 11 cf da 0d f2 13 ea db f3 e6 f3 1f bc 13 de 1a e5 ce e8 00 d6 00 fb fd fb ff fc 0a e5
dd 21 23 fa e5 14 0a 06 e1 26 15 10 e7 c6 e5 f4 01 e9 ff 08 10 f4 fa e0 f2 0d 1f 02 30 f9 d9 ee 1b 0a ec 35 f9 fe e9 fb e7 1c f0 02 de f0 09 0b 11 ef ec 0e ca 00 ef f6 f1 0a 16 ed 14 24 e8 00
1d 30 c7 16 16 19 27 f4 07 da 44 df 1e ec 0b 35 03 eb 00 07 1f ef 49 f1 e7 14 00 15 00 30 e0 0e 06 ef 1e 1d d8 1d 08 22 27 29 19 f8 fd 03 1a e2 60 f6 29 1e f5 e9 15 fb f2 00 1d ff 2f f9 3d ec
0c fa f1 12 fb f6 f3 11 fb e2 00 cf f5 c4 ea e6 e9 f4 e8 1a 25 e5 ce 1b d5 e7 09 10 ea fe f4 f3 f7 c7 e6 00 fb 07 f7 f6 f6 02 df d9 00 06 fe 00 f7 08 04 0b ef 10 e2 d2 ee 16 e6 13 e7 e7 e2 f4
e2 de ea 1b fc 10 2a 0b f9 13 15 e7 f8 cc ee e7 e3 fc e6 17 07 f3 f0 01 12 22 f0 f4 e6 ff 0d f0 e8 e7 e2 ff da f7 dd e7 0d f2 d5 25 e9 d9 fa f3 dd 40 03 30 f8 62 de 10 0c 0e 0a eb 04 04 0a e1
0b ff e0 f7 00 f8 e4 11 f4 e7 12 e8 fe ce f5 fb 18 12 05 1a f6 0a da 1d 03 f9 00 fa 0a 16 fd 11 05 fc ed fc 13 07 fc fc 2d f1 e3 ea dc 18 11 07 f5 13 10 fe fa ed cb f2 fd ed e2 e8 12 fc 05 e8
f3 06 12 ea f5 00 db fe 0f ef 21 d5 15 dd ef 03 dc d2 eb 0e 0a d4 f5 d1 fa 01 ff 0d f2 2a 03 eb f8 e4 1a 03 e4 f5 fc 0f df fb d4 01 e5 f7 ef db 0a 0b 0b 00 04 fc 03 d5 fe d1 f6 00 e1 f5 f9 f0
10 03 01 fd 0d 11 fe fa f9 ed 02 f8 09 f3 ec f4 f7 ea f3 15 11 0c dd e0 12 0b f5 1d 0a 15 00 04 fc fd 12 ff 01 23 06 0f 32 e9 05 f2 dd 14 2c 16 18 f0 1c ea e4 bb e4 00 fa dd ee e3 f6 ed 2e ed
2d 2f 22 f6 ff 33 0c 04 0e 1a f7 1c 29 f2 3c 3b ea f9 f8 e0 1b f2 f2 1e 07 1c e9 39 26 1e f6 0e 0b 27 29 ee f6 e5 38 17 f4 3c 3e e6 00 e8 e3 14 ff 02 0f 25 ed fe 23 22 d9 f6 f1 3a 15 03 03 d8
01 d2 fe ff f7 f7 11 f3 00 d8 1c f5 f5 ed 07 0d e1 bd 01 3b 2c 01 e5 2f cd 14 41 15 e6 16 eb 20 f9 f5 fa f1 da 4a fd f7 c6 e2 e9 22 f8 fa 04 e0 14 fa 21 ff d2 13 e2 ff 10 de f6 17 f9 05 07 d5
1d 22 ee 41 03 fb 13 fd 1b d3 f4 3a 06 fe 00 ce 0e 0f fa df ed d8 d4 0b 00 e8 06 20 ec 02 11 f7 fd 2f 05 f9 e7 01 07 15 17 00 e6 f6 e7 21 10 f6 09 08 f4 fb f3 15 f8 fc fa 00 fd 25 ef f3 28 13
28 14 f6 06 fa 0b db dc e0 04 f6 f0 00 fc fe 0b 01 e4 e8 d0 21 fe f4 1f f9 1d fe 0a 2d f3 0f e4 f9 07 06 f7 fb 13 e8 04 f3 0a 04 0e 28 15 08 de 09 30 bd 0e 1e 32 0e f7 0e ec 09 f9 2a 0a 05 e6
0b 2f 0b fa 02 15 3d 3b 0a 1a 11 19 20 27 df 1c fd 11 0f 08 1b f8 19 02 1d ef ee d5 ff c5 1b fc f4 df 2a f3 29 12 d9 02 2a 2c db 15 ec 13 1a 02 fe f8 ef 05 2c 08 18 2c e8 31 00 df d2 04 e7 13
02 28 25 37 08 fc 1b 0e 12 14 35 f4 0a 00 09 fa ba ee 01 c9 38 e0 ce 0d be fd 0e 0c ec f9 ff cd fc c9 04 03 f1 be fb 0d df 05 ec 04 00 30 ac e0 aa 3d e3 53 de 63 ef 29 14 dd 14 e1 0f 28 e5 f4
fa 17 ee f8 e7 f1 b9 04 e1 07 08 f7 00 db d4 ef e8 55 16 0e 0e e4 27 f2 dc 26 00 c8 f8 e1 df 16 a9 fd d6 f2 22 fe c8 00 f8 04 da e2 1f fc da d6 f3 f3 fa fd 08 00 13 a8 08 0a f0 cc 03 04 eb e8
e6 01 e1 0c 11 58 1b 24 0a d6 f9 00 27 f8 06 01 f8 f1 e5 32 f7 e6 19 ec 08 24 1e 1c 10 0a f7 13 fc e8 1c f2 e5 1d fd 00 e8 10 ff ff ff 13 2e 01 25 04 00 1e f4 ef 05 d1 fe c1 17 c7 08 d2 24 e8
05 10 f6 f8 07 1d fe f6 fa 04 d7 00 e9 13 f4 2a f9 06 0a f1 e1 18 1e 0c 21 f9 d7 13 06 05 1f 00 25 0d 43 10 18 f8 f6 03 f7 26 f8 ee f5 00 fe df 4c df c3 06 07 d7 f7 00 f1 11 f5 dc 19 f8 07 fa
19 05 d3 12 0a f4 fe e1 18 e5 f9 35 ee 30 f9 f6 e9 26 0e e9 34 ff 0e dc ef 07 21 16 ec ea e6 08 0f f9 ee 10 17 dd 29 34 09 eb 2b 10 ff 2e e5 32 00 00 f6 02 fb eb db c4 03 07 19 04 fc 09 01 00
ec fa f3 18 f4 0b 10 fa 12 0c 02 18 fa 28 07 0e 35 f8 e1 00 fe fe 06 fa 02 00 0d 17 1e 2c fd 03 18 38 ef 0a e9 fa 26 3a 14 ee 13 ee d7 0b 25 f5 0f 0d fc 22 cb 1b f1 f2 01 15 14 1e e0 1e 0a fa
e9 d7 f1 e5 15 bf 30 fe 0f f4 d8 33 df 1b f3 00 f6 1a 29 30 f7 1b 0b 34 1e 30 16 fc c6 14 f6 1a 36 1f ed 0e 04 29 00 f2 10 01 1b 2b fd 18 56 1e 2d fb 1e f9 2e 20 d3 21 f4 0c fd f7 23 0d de fe
ff 0b f1 f1 f8 18 0f 0e ff e2 0f 02 d1 f6 fd 1c f3 ed df 01 f0 ff 06 13 0a f7 16 f4 f2 f0 ff fa 0f 1f f2 f2 bc 15 00 06 ff f3 22 f6 00 17 fe ff 05 fe 08 1b db 2b de eb 20 d5 24 18 fe f8 0f ee
f1 f2 bf 06 0e 42 e1 34 0f dd 21 2f ec ef 0f 19 0b ff c4 30 2e e8 0c 00 13 3e 00 13 1f 0d 1d 13 e4 df 1f e7 ef 36 0b fc e6 20 eb 2a e1 0d 19 f2 06 06 18 12 ee f1 0a c3 18 e1 10 f5 34 cf 1f e1
0f 03 34 47 03 e5 1f 0c ef 16 24 0e 02 d4 d9 fa e6 ee e8 d5 f1 00 06 d2 f0 19 fd 00 f2 d6 fd 00 2b c3 ef 30 ec f4 e0 d2 fe 41 fd f8 ec 08 d7 00 0c 1f c1 15 e9 05 da d6 03 f1 f5 e1 37 0c f3 ed
1e 07 f0 06 ff 16 07 e7 e4 07 fe f9 f0 32 e5 05 0d e4 e4 de 08 d0 1c d4 0d 09 16 21 21 2c 11 fd e6 20 24 eb f5 e9 01 08 0a f2 ec 06 1d 12 f0 e0 14 d2 cc 13 d5 02 0d f9 e7 0b 03 f1 14 12 23 e5
f4 da 00 ea 06 e9 df f2 ff ea ef 1e 19 0f 11 00 08 df f8 0a 06 11 fd 0b 02 1c fb 19 ee 13 03 e8 02 db d0 f3 e5 f5 fa 27 fa f2 28 26 cf f7 0f 0c 05 f1 21 07 16 f1 b6 f8 e7 ff 04 12 d2 f7 fa 07
1d 00 e0 fd f9 28 18 09 e7 f5 de d1 16 0c 09 11 ed 03 16 d7 f8 07 0f ef ed 07 00 2a 0c 15 24 f8 f2 3f 13 e4 00 f1 14 12 fc ed 20 e9 10 ef fa f4 f4 0d cf eb 04 f2 17 ea 0b 14 f5 ff eb fc 02 22
f5 e5 00 f5 2a 3a 23 ea 0b 04 ef f6 1a fa 2b fd 01 e1 db f4 df eb cf 06 28 fd 00 1e 20 31 1a fd fd 10 0a ef df f4 0e e6 fe e2 f8 26 fb 0e 01 0b 29 16 0c 36 06 47 fa 09 f4 d2 f0 e3 00 03 15 eb
14 1b 0a 04 1e 29 0a 14 f2 e4 f6 34 f2 ea e2 00 23 20 17 f9 17 02 0c fc 03 fd 11 10 0d 3f ff 44 00 fb 23 f2 17 e5 fc fc ff 0f da fa 16 20 2d 04 0b da f7 14 1d f3 fd 0c 14 11 05 21 2b 14 f4 37
0d 12 00 05 f3 11 b6 f7 d0 2e 15 f8 19 ce be 1d 0d 0c cd fb 2b e0 0c df 0b 11 f4 09 14 f6 df db cc fe f5 01 f9 0f d4 f8 de 0f d4 13 e7 f6 bf f5 e4 02 f6 04 0e f7 01 15 23 eb e4 05 03 1b 00 ed
fd 20 f5 0f 05 d8 25 10 da 36 08 02 ee f6 08 1f 4d 2e 10 fd d8 03 04 00 f2 00 02 14 14 03 00 36 f8 e8 12 fb 14 00 09 00 1a f6 d2 ef 0f 25 e3 ed fc ff 16 fc d7 08 fe 0a 02 1a f3 c5 1d fd 16 ef
ec 00 27 26 0b f0 f7 08 23 0e 35 f7 0c 1c 18 eb 14 e8 fa ea 22 1a b4 11 dd 04 eb f0 12 49 f0 d6 20 e2 05 09 fc f9 2f 0b 16 03 15 29 f6 17 fb 1c d0 f3 fd 27 06 14 e7 f3 ff de 15 11 3f e3 f9 de
12 1a ff f5 0f 02 0b 2d 25 f3 fc f9 10 c4 0d f6 13 16 c9 10 fa 0b e3 1c dc 10 09 d7 1d 2c fe 29 ec e5 f5 f8 01 26 11 cb 2e 03 13 0c ff 01 0e 29 12 12 03 d6 07 de e6 fe f4 e8 d3 0c 28 ed 20 ce
08 f8 03 07 0a f6 24 f8 ed 02 21 e3 f9 08 11 05 dd da d1 0a e6 fc fb 1d f5 09 19 ec df 39 16 d6 15 0b f2 0c de 9b 0a 1d 05 f6 23 ff 05 29 0c 02 06 f5 02 00 cc 02 f7 d7 13 db 01 d7 ff e5 14 bf
e9 ec 12 11 f3 58 f3 19 d3 f5 31 0b 19 02 d9 e2 29 d9 1b e4 da f3 18 f5 da ed 08 ea 3b 06 13 fc 05 cc dc 1c 00 cb dd ff 04 1d f5 ea f5 e3 1f 00 f5 22 f3 09 d9 e3 d5 03 11 04 03 e6 f9 ff fa 0d
06 1f c6 ef 16 0f 09 23 0b f8 ef e8 03 e7 ff 12 05 1b 0b f0 00 e6 f4 01 e6 c9 fa 0a fe 30 1e f1 1e d7 2b 00 08 c2 fc fc f7 1b f9 d5 f2 f5 10 06 fd 20 f9 ed 0f de 24 e9 12 f6 00 db fd f8 ff f2
02 1c e4 1a df b8 ff 1c fe 09 25 06 e7 03 de eb f8 29 02 ff 08 00 11 fa f4 fa 07 f0 ef 1c 0d da 0c 00 e3 cf e2 c5 fe d3 ec f6 e3 0a 00 f2 0a 17 e2 fd 08 21 fb 0a f3 d7 fb fc f9 e7 fe d9 08 06
16 14 fb 2b 00 27 25 0e 0b e5 24 0e 40 07 0e 0e d1 e1 c7 e2 fb f1 e4 1b f9 25 03 fb 18 0d 0c e2 1c f7 1e 09 e3 ff f5 d6 03 23 10 00 f4 2b 04 00 da 25 e9 07 ce 08 26 fd f5 e2 fe e5 47 f8 f0 dc
06 01 a3 14 f7 03 22 26 11 d8 19 ca 00 bc 07 16 fd f1 ec fb d8 f5 ef 09 fa 00 08 f2 ee 3d 00 fb 16 b6 3b 0a fd 08 13 ee 15 ee 16 01 e9 06 22 04 0b f5 00 f0 f9 b6 f0 b0 06 e4 f5 fe 1e e8 29 cf
06 09 e6 00 05 f9 08 01 08 f8 0f ee e3 f7 ff f2 e7 ef e7 f8 fc f0 00 20 f1 f8 ed 04 f7 27 07 f7 1b d9 fe f3 ef c8 fd fc f7 12 ec 02 ee f0 0e f2 04 00 0e f7 ea fe fb ed f2 eb f5 ef 11 dd 18 00
fc cf d4 22 fb 05 f5 0b 03 cf 1f f3 00 f1 00 1e e7 be e3 32 f9 15 1c 16 0e 00 e8 0c de 31 05 ff 0c cf 1c f7 ca 1d 15 1b e5 df 0a 01 f4 df 35 13 19 de 0b 2c f8 ec b9 cc 03 f5 24 f4 11 dd 4a e2
26 1a f6 0c 19 13 0b 28 23 f6 21 da 2a d5 31 04 01 d2 09 ec 17 e9 fc e8 de 07 f6 3c 02 28 1b f3 1d 14 04 02 f0 f8 43 05 e5 28 31 00 d0 dc e6 1f 1d fe f7 2c 00 12 eb f7 da e7 2b 00 15 07 02 f1
29 f0 e1 50 eb 2b fd dd 09 ed 3f e5 0f 16 05 0b 01 df 00 16 2f ea 01 1c fc 15 3b 0e 00 27 10 d3 1c f8 05 01 fb e4 16 17 05 e2 1c 1e 05 1c 2a f1 1b 18 00 2b fc 32 16 e1 11 f0 3c ed fd f9 13 d0
fe d0 f1 0a 0b be 23 00 09 f7 09 f8 d4 0f 1d ec 08 05 dd 00 fb e4 1a 1a 0f 24 1c e8 22 03 06 42 e2 1c ff f3 07 e8 0c fa 1a f7 1f 0f 18 57 e1 f3 23 e7 02 1c ee de 35 15 27 ee 37 ea 08 dc 32 e0
4e 0d 1e ec 2a 3c 0d 24 00 ee ff 19 05 f6 0c 21 de ef 0b e8 e4 00 1e f8 ff 16 e1 e9 ea e4 ea 03 0d 12 2b 06 10 0d 12 fc 0b 1e f5 07 f3 ff f7 10 0f 1b e8 fd f8 ef 42 10 f8 ee 00 e4 f9 ec 01 fb
15 f1 23 01 22 24 ff 13 f5 1d 40 0c 08 03 13 fb f7 18 13 57 16 26 f4 fd 1e 01 0e fd 1b d8 04 1b f6 04 33 08 28 08 f8 e9 1e df e2 1d ec 27 1b 19 cc e0 12 23 09 f9 13 09 33 f0 0b e9 12 f7 e7 ed
35 d4 4b 24 07 0a 22 07 f8 f4 15 ed 10 01 07 d2 d7 e7 0e eb 22 f4 a6 01 e9 2e e8 e9 fa ed ee e2 09 dd ff 0f fa 14 0b fb e9 ed 05 0b f4 ff d0 e6 a4 34 e3 2f f5 44 bc 1f 2f e9 1f f1 0d f9 00 e4
1f 13 f5 ff 2b 0a 0c 0d 09 ed 00 fa 05 fd 09 29 16 e4 01 e2 07 f9 10 f3 02 ef 0b fd f1 08 03 d4 24 35 f8 e1 f4 e9 00 0e 0a 28 06 0b 02 fd ec 04 0d ff b9 07 13 db 04 f0 11 ec 0f 08 e5 f6 12 f3
fe fb db 11 eb 0c 07 ec fe da 10 e3 f7 da f7 22 1f de da 2d fc c4 14 f3 0c e7 17 1f 29 31 02 1e 08 09 0e f4 0f e2 04 e2 2e 0f fb 1d fb 30 3d f9 fa fc 2a 11 d0 c8 10 d1 0f d6 2a ca 08 d4 3d d7
06 ec 00 11 11 1c f2 04 06 15 00 0a d2 07 17 fb 1c 02 1d da 0b 2c 14 d3 1a 05 fc fa f4 e5 f5 08 f6 0d 08 f1 09 06 00 01 f6 23 fe db 26 0b 09 09 0d f7 e4 ea e1 d7 11 13 e4 31 07 fa e2 fa fd ed
ff f9 1c 03 2e 0f 04 02 1e 19 e4 dd fa 12 06 25 22 d1 05 1a f7 0d fd 06 0d f0 d5 17 30 18 07 f9 12 f0 1f fa fd f6 19 e6 17 14 12 34 f2 0a 06 e9 f7 f2 e5 36 e7 0d e8 e9 0c e8 3e 11 1c f1 1f f5
f1 f2 08 e8 fb e6 de 03 e7 11 ed 05 d5 0c f9 00 23 e3 cd 0d e2 f5 00 0e 2f 11 01 fe 0d fe 0f f2 13 0a 01 13 d5 e0 0f 03 ec ee 14 ed fb 1d fe 00 08 07 23 e8 9e e8 0f eb 00 17 e6 d5 f4 15 ee ed
f5 f3 cb 0a 0b f1 f0 eb ed e0 da 1b 0c ff 09 05 f3 f6 03 f0 14 ff df 16 cb 0a 0b f2 eb 04 ea ed 17 d8 ed 1a e3 d1 fc 04 f8 0c 2a 00 cf ea f8 10 28 ee 0c ec 22 fa b3 01 00 1d e4 00 0a 02 d7 07
0d cf 18 f9 00 0a 12 ee fe 22 1b 02 f2 25 ef 00 dd e9 e9 17 f3 f0 f3 f1 16 33 08 f7 ff 09 16 f5 fe 18 e1 ed fb d1 ef fb 08 d2 05 16 e6 f5 13 12 e4 00 12 f9 d3 26 c5 d5 0b e4 02 e5 dd 0d 0e cf
06 dd da 10 01 e6 22 00 25 e5 0c ea f8 1a 13 19 f1 e3 f6 fe 06 ee 21 e7 0e 0e f4 16 05 16 11 e5 2b d3 08 19 ec f1 02 02 ff 00 3b 03 02 0a 09 fd 48 f5 0e fb ea fe 17 e4 24 f7 1c 04 0a f4 1d cd
f8 eb 0c 0c 05 dd f7 fb f7 02 fc fc 16 0d e7 f4 fb 08 f5 f9 d3 fb e7 00 04 e9 13 fe f1 fb 02 fa 40 02 00 26 15 c2 f9 fc e8 0d fe 11 0c ec e6 1d 10 1c f4 df 23 22 00 dd 21 f2 f4 fe 06 f6 f1 04
03 13 fa 1e fa f8 00 24 14 00 fc 07 e7 06 1a 00 ce 07 17 e0 fb 0e 00 f2 21 00 f1 f4 ea ed 0b f8 1c 1a 0d f4 f5 18 ec 03 fc 36 cd f4 d0 20 fe 03 28 fb e0 01 dd f8 0e f6 d6 df ff db 1d 07 15 d5
f8 13 fa 1d 0b de fe 00 0a 03 dd 15 0c fe 03 0d 2a 27 ce 08 27 fe 04 09 06 ec 0d 03 09 2b 1a 00 ef 01 d5 f5 da de f4 ec f1 ff 0c fe fc f1 2f e8 02 ff 00 f4 00 f9 aa e2 ea 2d 17 f6 e0 fa 04 17
ff e5 ea 0b 12 da e5 ed 1b fa dc e7 de 0b 22 de ed dc ec ca 19 f5 e9 b4 f7 05 0a 18 ef f7 12 ce ec ea f6 ed e7 eb 09 1d 04 d5 0b f2 f9 12 d6 f3 00 01 d5 e8 0d 1c 1b cf 09 cb e6 f2 e4 f8 19 00
19 31 c8 07 fe fd 27 12 2b 15 f5 ec 08 ec 33 15 12 1a d8 eb d9 09 f8 03 03 fa f9 10 0e f2 f5 e6 37 da 21 2e ca ea 05 f9 f6 0f 1f 03 04 f9 03 03 14 45 f0 16 d7 f5 f7 ec 0a 0b e8 fa 08 fc 1c ed
1c 2f f7 06 26 2d fb 18 0b 0d 0f 1a 06 eb 1d d6 0f 1d 12 f8 f7 11 03 d1 fa f6 f0 05 18 fd 09 29 1b f8 31 23 11 07 34 f3 07 12 ed e8 f2 c3 fa 33 0c 1b f5 fb 08 fe 04 f0 26 f2 0c fd 2a fe fa 14
0c 1c f1 ec 1b 04 f8 02 ef ee fb 0f 0d 03 04 20 0c 12 ce 0e ff e0 1e 03 0a f2 ff d7 ee 14 ff 03 fe 24 07 f8 fe f9 f5 e3 f8 10 d9 06 05 ec 03 ec 0a d0 f6 e9 07 e8 f8 0d 27 13 19 08 16 06 ee 18
0b 22 08 f8 04 0d e4 1c 06 0d 08 37 0b 23 d6 d8 07 2e fb 22 fb d6 09 ff 18 33 f2 fc 2e f5 e8 25 01 e8 26 10 17 0a da ef 34 07 f0 00 17 1a e9 17 db 05 08 06 1d 24 05 f6 1e 0e e6 ac 22 16 00 d7
fa db 45 41 1c ea f6 1b 0b 14 42 04 1c f3 11 d6 ed b5 c3 f2 41 2c ea e3 f6 12 2d 09 d3 26 12 d5 0d 08 e3 ed d2 c7 fe 02 00 f8 1b 25 e2 05 eb 1e b5 0b fd 2f d7 53 d0 d8 2f e0 18 ef 15 fa 14 da
f7 df f5 ff f6 02 00 21 00 fd 14 c5 ec f3 04 e4 0e a9 c9 fc 0e 03 d4 28 e4 fe 1d e1 fa ef ff fa f9 d3 e3 0a 16 99 01 db 01 f4 e6 f7 05 1a f7 fd f4 f8 fc fa 1b 02 fc d7 11 e6 d9 f3 0c 02 0a dc
0c c7 08 0d ff 02 0a f3 02 f0 19 0d ff 16 0d 04 f5 d6 c6 28 32 11 07 2d c2 39 fa 0b f1 2a 04 e4 f0 f8 19 df d1 e4 f8 23 02 d8 10 16 14 33 ea f9 cc d5 f9 30 e3 29 10 fb f7 cc 0a 01 1e c7 32 e8
f5 05 1b 37 ff 25 fa d3 d4 2b 11 e2 1a 1d 08 fb 06 f3 f8 de f9 fd dc 14 dd 1a 01 ef 08 1c 27 e5 03 37 c5 03 00 b2 dc 0e f8 d4 f0 01 c9 f8 0a f4 f1 0d e7 15 c8 14 cf 18 09 0d 27 c5 fd 28 f5 ef
22 f2 f3 26 fe 00 fa d9 0b f7 0d 01 09 1b 17 fa 19 e7 0e e6 1b 1e 1e 00 ff 12 16 04 ff 3c 09 d7 f4 30 19 e8 e2 de fc 35 db e3 21 fd 08 fb 08 f5 fc ed 00 32 c8 07 06 e2 05 f6 18 16 0b fc 22 09
fe eb f2 ec f6 d9 f6 06 ed f6 24 ef fa f8 19 0b f9 2a fd 10 07 36 07 ef e8 f9 04 e7 14 17 07 25 d3 19 d2 ec 00 01 f4 e2 f8 d7 01 d9 13 07 ef fd 97 f4 ca 13 1d 0f 2e d4 0a f4 f1 f8 f6 d9 10 1c
17 1f ed 09 1c 10 f9 29 24 fb 4e cd 41 fa 06 00 e1 cb 00 23 e5 dd ea 30 12 16 e3 f8 00 05 fb e4 06 fd 1f 06 f4 d0 07 f3 18 0c 18 30 fe 22 02 2b 00 2e ee e8 02 db f4 e0 e2 f8 ce d8 22 2b ef ca
ed f0 99 09 f0 f5 fe 03 16 d2 1d af 02 cc 1a 12 e4 df dd fc cb 04 00 09 e4 f6 0e d7 06 39 14 00 1f 06 2d 0d f9 c7 05 11 04 f7 0d 01 1d 07 21 14 13 fa fb ea 0b af 0e a0 00 cc fd 20 1b ee 39 04
fa 08 e0 f4 04 f1 18 04 f4 e1 10 ea f9 c6 05 09 de ea d4 e5 f2 05 e8 0a d4 06 f0 02 e7 05 11 d5 1a 00 fb fe ff dd e5 28 fd 22 ff cc d5 06 e8 f8 02 1e d8 e0 e6 00 f5 04 00 df ea 07 25 f2 06 fc
e6 d7 0f 1a fd f8 07 d6 fe d6 dc f5 d0 00 f1 0f 02 e3 df f2 01 19 f4 25 0c 19 29 0a fc 20 1f f4 1c 32 f6 f1 d6 b2 ec f0 c3 e9 20 fb 1a 19 13 0e 06 e0 17 02 c5 08 08 e7 13 ec 39 ed f3 ec 1a c4
0b fe ec 0e 03 ed 18 1b 19 10 fd e8 28 fc 1d 21 fa f1 00 f9 f1 27 f0 f5 08 0d fb 3d 2c 37 09 f3 1d 13 26 00 fd 19 2a 0c fe 00 1a 06 f5 09 04 13 06 e4 01 04 f6 e0 fb 00 fe 10 2d f8 09 09 1d fd
20 f9 f9 09 f4 1c f7 00 03 f9 19 07 1f 08 1a 2d ee 08 ef 2f 0c fd 43 28 f9 33 10 02 d6 1a 13 ff 0b dd 0c ea d5 d3 f1 0b f0 23 0e 07 28 04 08 10 ee 06 e2 15 fa 34 49 e6 ee d6 ff 07 1d f2 38 1e
2a fd f3 ef 0b 19 f1 01 14 1b d2 e4 fb 19 12 e3 01 eb fc ed eb 1e 02 15 16 fc 04 f4 46 f6 14 39 f1 14 ee fb e9 ca 3c 02 11 ca 03 c9 d6 fd 1e 26 c3 0d d9 05 f8 0b da 01 12 00 f3 ef f8 00 0e f0
21 f0 db 1a 2a 29 eb 04 0a 04 e3 ec df 00 11 0e fa 05 c5 0e e6 2a 1e e5 30 f1 f0 fc 0a e4 f6 0a 04 1f 39 f9 ef 1b 3d 04 04 db 2e f9 04 f2 0b 2f 06 1d 01 00 f7 00 1e 06 e2 f8 10 04 fa fe f0 fe
1f 0e 13 1e 1e 2f ed 30 ee ee 40 1d 1f f3 0f 0c ef 21 e3 31 07 fb 0a 05 0a 03 1d fc 0a f6 15 1a fc 0f e6 ea f9 ea 00 2c 0b 02 0d f9 05 1b 27 2f fb 10 16 1f 0e 03 29 ec 25 e1 01 e7 23 ea fb f4
12 09 2c 1d 10 dd e1 00 09 07 0e ff e9 0c fd e8 eb f7 d8 01 e1 1e e2 d9 f6 0f 27 01 d2 e0 0e f0 20 ec 12 0f ff da 1f f6 fa 31 06 1a 2a e0 ed fe e4 50 19 e7 f3 42 e8 2a 0b f8 cd 1c 08 ee d9 eb
36 01 01 fe 20 de fd 06 eb ef d6 1c fc ed 1d 44 06 35 09 15 fd 29 1f 01 07 ef 14 e8 e0 e3 fd 32 e5 13 ee ce 17 ed 08 f8 18 03 e2 0c 1e 03 ee 15 e9 fd c7 10 23 08 09 e5 0a ff e3 f5 f3 df 06 1a
fd ec b6 f9 f8 e1 06 fc f5 dd 10 1b f0 f7 fb 25 f1 d8 b1 e7 e7 0b 0c 17 f9 03 0f 06 f4 24 14 de 19 fa fc 05 e8 e1 f8 09 0e 16 0e e2 e9 01 0a db 1e e9 00 d7 db a6 df e2 0a f9 0e e2 1a cb 23 ca
f4 eb 0c d2 17 e6 07 ee 0f fe f0 17 de f7 05 ed 05 03 f7 ff 1c 19 1b ec 04 1d ea 19 d9 e7 de 19 e9 f3 3e df f4 19 23 fe 27 ec 21 0e fb 16 fe 06 f6 e1 16 f3 14 11 1a fe 0b 1d f3 03 eb e9 ea fd
1d e0 21 ed 3a dd 31 0d 04 fa 0e e3 df f1 04 df f3 03 c7 e9 0e e2 d8 db 03 01 e8 0f e3 17 1c d3 31 ff ff 15 0e dc 2c da 15 de 26 09 ce 22 db 21 f9 2b ee f2 ed 0f cc 10 14 00 db f3 28 1a f2 db
ef 09 fb 0e 00 03 e6 fa cc 07 d9 e2 f3 f6 0a 00 34 f8 d3 18 d3 05 fa f6 12 00 fe fa 07 12 01 d9 0d 01 01 0b d0 e7 09 03 0b 0b fc ed ed f1 11 0b 17 0d 1c e2 b9 eb 07 e2 00 16 ef f8 ec 07 f9 fd
00 ee 0f 22 09 f1 16 c9 f6 12 1b 10 1e 1c 06 ec f5 0b dc 00 f9 ec db 30 d8 2b 16 f2 ed 30 05 f2 08 2c e5 f5 d4 fb 00 0b 0d e9 f3 04 ec 1f 2b 0b 03 04 15 00 fb ee d1 00 08 18 08 01 fe fd f0 00
10 02 f9 fd f8 05 ec ed 05 f3 c9 fc ef f3 fe 02 1a 0d 15 da 14 ef 10 04 fc 00 fd f8 f9 36 08 c5 0f f7 f5 e7 15 f4 f2 e2 fb 11 02 e6 00 fa fb f0 ec ff f6 15 d6 0f dd 0f 00 25 e8 e7 f2 ff f6 02
ed dc ac 1e ea f6 de f1 1f df 19 ee d9 d6 00 1e 02 0d e7 1c ef fd 1e f8 03 0e 13 f5 0c 2e f8 f7 ef 1f 0b 14 e4 db 05 37 e4 c5 e3 ff 23 09 df 02 e3 f6 c0 0c df d5 34 cc fa e6 02 f6 23 de 25 fc
04 00 1f 35 fd 12 18 e6 f9 ff 35 09 1d 13 01 e2 f3 01 02 cf 32 37 e8 f0 e5 39 19 f6 00 da 0f f4 0f 10 06 ed fa d8 00 e4 f9 f1 00 1a 0d 08 cb f6 d9 f9 f6 28 f3 36 fb 02 09 f6 04 10 2c dc fa f7
15 fb 11 01 36 cc e4 fc 24 00 00 2a fb 0c 1f e5 02 32 0b 01 fd 37 f0 c2 2f f7 da 1a 32 d1 db 3a fa eb 2e e7 03 12 26 06 f9 eb 38 07 f0 0b cb 05 ce fe e0 10 13 1f 25 ea 17 e2 1a f2 e2 f1 d2 f7
ec fc 00 05 00 f6 12 ed e6 f2 0c 11 1e 05 04 27 2e f4 ab f6 f2 f6 0e f4 dd fa 00 00 eb 34 17 14 ed 0f dc f2 c8 c7 fa 01 f4 07 f6 08 d3 e5 01 f2 ec fc 04 12 fa ef e5 cb f3 1b 01 ed d3 00 0d 21
13 09 26 14 fd dc f3 02 38 0c 03 e0 01 e2 ee fa f5 f0 0c ed 3c 09 f4 f5 f1 07 00 26 01 f3 01 db ef e1 f4 e0 00 fb 21 f0 f3 f6 10 06 14 19 e1 00 d2 fa e3 0d da 1f 03 f1 e9 e9 00 e0 00 f2 e0 02
15 fc f4 14 00 02 1a 23 2a 29 53 0e 35 d5 1e ff e9 f9 e8 f7 b4 17 d8 e7 f2 00 ff fc 1c fd 02 d8 35 d4 20 2c f2 bb 0c f7 15 0d 22 37 ec fd dc 11 f5 20 01 25 f1 fa 19 0f 16 f5 e1 07 e1 34 08 f3
2e 02 08 2a 37 25 fb e8 29 f3 ff 24 14 02 17 ef 0b f4 d5 00 fa 09 fd ed 09 0a 1f 14 0e f2 13 1c 24 44 27 26 f3 d3 30 2b fe f0 33 f3 f6 ea 0c 2a 08 0e 1b 0f 0d 01 ff fd 19 ee 15 db 06 ec f7 07
0f 0d df 11 0f 02 0d 25 e2 ed f4 34 d4 1b 0a 0a 10 03 ef f1 ec e9 29 0b d7 f7 18 cf 07 16 01 12 00 37 fb f8 14 e6 03 1b fb 19 fb 04 f0 e3 01 10 11 fc ca cb 11 c5 fe d0 fd f4 e6 08 21 e2 16 06
20 27 3f da 4b e2 f7 11 15 10 ef 15 00 27 15 eb fa 13 f7 15 03 f8 e5 28 fd 3e be 07 00 00 04 fb 0d e4 1a f6 0a e7 12 00 27 e1 0a 1f 0c f1 e0 35 e3 13 0e f6 10 0a 29 f5 04 f4 f8 e5 13 f0 f0 ea
02 f0 1c 11 10 b7 00 ff f4 d6 ee e6 ed e4 0b cc f5 fc c7 e2 19 03 e9 f2 00 09 f2 fa b2 f0 08 d9 0e f5 fb e6 e4 d4 13 03 ef f3 03 00 0e ff fa 09 f0 00 11 1f f0 38 f4 e6 ff dd 12 10 e6 f0 0d f4
03 ef 06 00 fd 1c d4 e8 e8 dc db e2 f3 08 f8 f9 fe 0e 09 0a 0e f4 f9 ea ec 08 17 f9 11 03 f1 27 d8 0a e0 e2 f8 25 1e d6 13 fa ef 06 25 28 f7 ef f0 ea fe f9 ff fc 1f 0d ea f7 f8 1f 03 ed d6 1f
09 f1 cb e0 02 ea 17 00 13 f0 d5 02 d9 11 0b fc de fd 2d 0e e8 0b e2 1b d7 fa 2b 0e db 06 07 12 0c f2 0a e8 02 ea f2 00 f6 fb 00 f9 44 06 54 2f 00 06 f8 d2 de 0e 01 f4 06 ff e8 0e 05 0e 0f e3
1d 0a 11 2e 0c 38 d2 0f 23 05 fd 00 1e 18 d4 3b 0e d7 e7 e1 0c e9 00 20 ed 02 ef 11 02 27 01 d9 13 2f dc f8 e0 d0 fb 04 f7 fb f7 07 f3 e7 14 fe 1c cc 2b 1d eb 38 e9 05 01 03 1c e6 f1 13 02 fa
1d 09 fb 18 0a f0 f3 11 1c d0 c8 15 fc 28 27 12 db dc 0b f1 4c 09 24 34 ef 13 19 2d f5 32 0f fb f0 fa 02 cd c9 f0 0a 4e d8 f5 29 19 3e 07 2b e0 f3 f5 12 10 14 f3 fe f4 f9 c1 13 22 1f f4 3d 01
09 17 e4 fd ff 00 ff f6 e6 e1 f1 00 10 d4 f0 fe dc e8 cd 05 34 c2 e1 eb d4 12 01 f3 f2 e0 fa e3 01 fe f1 f6 f7 0f 06 d4 e3 ff 07 e5 23 06 0d 1f d7 29 08 00 fe 02 ea e7 f8 03 f8 fc f6 f0 f8 e7
0a 06 10 20 03 4c eb fa f6 fe 6a e8 3e de 02 ee df ec 3a e9 f8 e5 bf d9 ef f2 ee 1b d6 d9 f4 e9 fe 10 fc 1a ef c3 11 17 0a d9 ea e9 07 0a c9 e8 ea 2c e4 02 fe f7 1d 21 e1 fd fb f5 ee 12 db da
1d 21 dc ee f6 0b f3 2b 15 dd 1f da e1 01 15 ea f7 29 05 1b 07 f6 01 20 e7 18 2d 03 f0 32 06 3e 07 22 03 03 00 00 13 42 ff 31 d8 f8 32 2a f5 0c d9 03 e0 e0 0b e0 2a d9 03 fa eb 09 26 02 fc 1d
de 0f df 14 f7 ee 0c f9 f0 da 04 00 0c f9 04 1e dd f3 ab cc fb 14 eb d5 d8 fd 03 00 de dc d3 0a 10 fc 00 fa da ff e9 08 0a f5 e6 0d 0d f6 c3 e4 0a 0b db ee de f6 06 df 09 c5 02 00 10 e4 f5 ea
09 09 12 05 f5 16 e7 f1 f4 db b6 cd 06 06 01 23 0a d8 e3 f6 17 0b 17 01 e7 1d 00 11 e3 16 00 ee ff 0d fa fe d4 de 00 0f e0 06 0b 0a 12 e6 ed f8 e3 f1 0a f2 1a 1e f6 f5 06 f6 25 ff 15 ff 07 f4
1a 12 e1 fd 09 06 1f 21 26 cf e4 ff 0c fd 1d 05 ec f0 05 0c fc 04 db 08 26 0b ef 45 07 17 17 de 25 12 17 1f fa ff 33 0d f3 0a 0f 27 f6 12 23 18 28 ef 1e e4 0a ea 17 00 03 fe 00 f9 10 ef 18 f4
0e 24 dd e9 fc 04 01 0b ee d0 00 fc df 00 d3 17 e0 34 fb 0d 15 f4 00 f7 cc 0a 0b 00 12 04 11 1a 07 0c e5 0b 0b c4 fa 24 0c fb f2 fe 12 0e 0b 09 fd 0f e3 ce 12 dd 21 dc f5 d4 e6 fd 0f ec 0f fd
02 00 00 1a e5 ef c7 dc ec fe 07 1b 06 d8 ee 10 f0 04 11 11 03 ee 01 e6 1f 02 00 0d ef fc 11 10 e8 ed ff f9 0e 0c e6 cc 12 f6 04 08 f5 01 17 00 12 09 0d 16 0d 00 0e 05 1b ff f6 e6 03 fe 02 f7
15 fa 0d 21 08 28 f2 19 13 08 21 0a e9 dc 00 04 f9 fd f5 23 fd 00 fe db 51 0e ed 02 f9 e3 fd f7 f8 1f 26 fe df 54 ed d1 17 14 f9 03 21 31 fc 3a 16 0f 18 09 f6 09 14 08 00 06 eb da 11 f4 0a e9
15 ed f7 f4 1a 02 f3 01 0e 13 fa 03 d9 08 02 d4 0e 03 07 dc 12 0f ea 01 08 13 f7 f9 06 ee 19 eb 18 10 02 00 00 0d ea f4 ea ec 00 c8 f7 e9 1b 1e 00 ef f5 f4 da 04 0c 16 15 13 e7 10 ea 05 00 0c
ff 1a 28 2e 07 fe eb 0b eb 13 31 f2 f9 f6 ff f0 d2 e4 c5 f6 f1 00 e3 f3 1e 35 17 f8 fe fb 09 c6 f0 d5 21 19 df 07 00 de f4 1e 11 f9 df e5 ef 2b 00 03 fc 17 e6 2a f7 31 c8 cd 02 d5 2b fc f9 d5
f9 05 14 fe 02 0b fc 29 e2 04 e1 17 18 eb e0 eb f5 14 e4 16 05 c5 ec d8 10 f6 00 12 13 dc f4 f0 e3 cb 14 de 11 06 f5 cd f6 1b 09 e8 07 f7 f6 1e 08 24 f3 f2 17 fc 1d f0 00 09 ef 00 00 e7 e5 13
01 17 c4 f6 fa fe f6 08 ff ed e3 ea f6 df db 1c 19 20 2e d9 f4 0b ff e3 f0 e8 ed 00 fc f9 f0 19 1b 0a ff 15 10 e6 f9 1a 06 f4 0c eb f7 ed f7 df 11 0d f9 e5 0b b1 f8 f9 ec 0b 07 da 02 fb 17 04
e8 fd f4 20 0a d3 dd 06 0c 1a ea 09 da e9 09 d9 05 19 ee 18 fe 02 e1 eb 1a ff 10 e1 01 06 13 29 f2 0a fa ee e4 22 0b 0f f5 dd 00 e6 07 27 40 fc 1b 11 1f 4c e9 13 1f f4 0d 0b 0c ef 03 f8 25 1b
2a 23 df f1 24 63 ff 22 f4 d2 02 ec 19 d0 06 f2 0c f9 22 18 fa 0d 0f 21 19 08 e6 05 26 05 13 0b 27 20 3e f4 0b 28 1f 0c 0b 0f 23 f9 0a db 19 02 30 bb 26 f4 41 09 fa df fd fa 00 f3 24 0a 1e e1
da c2 eb f9 10 e6 fa f1 fc fa 0e f7 e9 de 07 f9 10 26 20 fb 0e 0d 13 05 ff 18 0a 00 f0 26 06 33 0b f5 08 08 26 02 0d ef 10 fa fc de e5 1a f5 1e 2a ff 15 06 e9 eb 22 e8 08 18 00 00 12 0b 2f 09
f7 cb 16 06 16 e4 20 e0 ec ec e2 ff d8 1a 10 f0 08 00 dd 1c 1d 08 06 37 f5 22 13 ff c0 21 02 26 ff f9 c6 f8 e3 f9 04 09 1c da 04 02 28 12 0f 0b f3 07 18 fe 03 0c 12 0e 09 06 f9 17 06 02 e2 1c
ff f6 e6 eb 03 08 f5 f4 e6 13 de fe 04 0c c6 e6 16 0c f8 e8 f1 de 0c 06 d1 0a 08 fd 0f e7 ca 00 f0 f6 ec ee 1b d4 dc fb 05 d3 dc 0a f3 f7 cb f9 c8 e9 ef fc f2 01 e0 db d9 14 ee fa e1 00 09 fa
27 20 0c 04 d9 0b e4 15 fa ff 0a 1c e9 1e fd 07 f2 26 f3 1d f8 fd fc f9 08 23 0c 12 f2 21 00 16 08 34 00 02 e3 12 fe 0d f8 05 ed 2a 11 0f fd 18 04 fb e5 f9 05 0e 26 f9 ef e7 ed d1 fe 17 ff 01
08 30 56 35 07 04 3b 1a 14 3a 2f 01 1e 00 fc c9 00 dd 0b cb 35 e9 bd 0c c1 3b ed ff 1d fe 06 b3 12 ed 03 12 02 c0 05 d8 fb e3 08 3c ef ff e9 1c 19 31 fe 68 e5 7d c0 20 01 ef d8 d1 08 01 e2 fa
fc f0 18 07 07 ff ee 16 01 0b 0d e4 0e ec 27 df 31 2d f2 f8 12 1a ed f6 18 e8 f7 0d 37 06 22 10 f6 ea fc e9 02 f4 00 f0 12 c5 08 db eb 19 3e e9 fc 00 08 0f e8 ee 10 e0 17 0e ef fd f0 e2 21 f9
f5 f8 df f1 19 00 0a fb e9 0f 10 27 f0 f6 19 f2 27 13 03 26 12 09 10 00 d3 ee 00 ec eb 11 f9 1d f5 fa e9 12 02 e6 ea e8 f2 ed f8 ed 33 2f f5 14 03 0c f9 1c 07 eb 23 15 09 25 00 f8 14 fd e6 08
d2 e6 0d 23 1b c6 0a 01 0b 0e f6 e6 f9 ea 13 cf f2 f9 c3 00 0f fd ea d6 f8 0e 0b 2a 17 20 38 f5 fa 03 17 f7 ee 1a 09 ff f8 db 1b 03 09 15 02 ff f7 11 26 17 e1 e5 19 f2 f5 d8 ec 05 e2 08 12 1b
32 da e3 0d 13 17 e6 05 05 f1 0d e0 00 e1 23 ba 01 0b 1d 01 ed ee cf f9 fd e1 cb 11 d8 ca 0c 29 08 d7 01 00 06 ea 2a e8 1c f6 ef 2e f3 02 cd 12 e1 24 31 00 e8 03 31 f7 f5 ed f9 fa cb 01 ce 0f
1a 15 04 17 05 eb d9 02 11 12 0f f4 f7 fc 00 27 0b f4 fe 13 22 35 04 f8 f6 1c 0e d7 0f f4 1b 04 12 0f ec 05 f0 f3 f2 f0 02 fb f6 fe 05 14 3a 2b fd 10 0d 02 1a 0a e3 e6 0f f9 f9 13 0e 0a 33 0d
02 07 e3 fb 0d 17 03 13 e9 e2 f5 08 05 fa f3 f9 fc e4 f0 08 20 d7 08 ea ee 20 22 f9 fe ec f3 05 ed 0f f8 f5 0b fc e3 ff 07 e3 d8 18 0d 13 03 f8 d5 dd d8 fa 36 eb 0d f5 09 0e 0d fe 06 e8 05 0b
05 42 1f 00 3e 0d dd 2f 04 17 0b e6 f4 ef 07 f0 ef 04 f2 25 14 08 f9 14 15 07 d0 05 0b 11 22 e6 0a ea 00 f6 18 01 0d ef 0e 09 20 f2 0d 00 03 3c 01 ef fd fc 0e 16 30 ea fe fc eb d1 32 07 13 ec
fb d8 fe f5 ed 0f 0a 1c d8 17 c2 e8 e9 08 08 e9 0b f7 f2 15 d6 09 01 4d ea 03 25 f7 fc f3 f9 19 03 03 ee 07 f5 e6 fa 1e 1a ea 2f d7 11 08 db 00 03 f8 0c 12 e2 1a dc 00 08 08 0c 01 b8 24 03 09
0c d2 11 09 44 f3 25 23 e7 0b d7 2d c0 f8 de d7 f3 57 2d 22 cc 0e 16 0b f7 ed 23 f3 f0 dd f3 17 08 e6 11 fd 30 d8 f7 fd 09 27 d1 df f7 19 1b 18 13 04 2d 11 e8 17 f8 1f 04 44 27 e8 ea 0b f6 f9
19 f0 12 22 22 15 31 11 18 39 0c 2b e5 29 13 d4 25 26 3f fb df 19 1e 05 f9 ea 03 0e 25 1e 0e 2f 0e f2 0a 03 22 07 24 05 13 00 3b ed 0d 1b 1a 29 03 fd f5 13 fb 0c e0 0c 13 3a 1b 17 f5 15 fd 38
f2 08 32 ee d9 2d 16 0b 0e 0d f5 21 19 0c e8 29 cc bf d8 3a 0d e1 df 19 0d 02 dc 14 0f 0f ff c3 0b e7 00 f0 f2 01 e5 cf 2e 1b 09 3e 0b d1 c5 08 ee 17 29 dd 1e e0 0c 26 16 f5 e0 21 fe 0e f1 d9
1d 1b 18 04 1f 23 0a 21 2c 32 11 0e 00 db 23 f2 1d 20 17 08 02 09 fe ff f6 e7 f8 2c 1f 32 08 13 32 28 1f 16 0d e6 2d 0f fb 33 14 db 02 19 15 2f f0 00 09 08 f2 17 f6 19 08 1f df ef e5 14 e4 27
ec 2c 05 f3 ef d7 0d de c9 00 0b 00 ec ff e6 02 c6 04 0a 0a 0c 09 f4 12 10 1d 06 fa f1 fc e8 f0 27 19 38 0f ee 03 fa ff ca 00 f2 3a fa e0 12 db fa eb 23 eb 0c fb 02 1d f4 f7 f5 f5 49 fe 08 e1
0c 0b 07 e4 16 17 15 1f 1b 02 ce 24 06 08 27 f9 2d 2a 44 18 f1 15 0e 15 11 f0 01 2a 07 37 0b 1d 23 0a 1e 17 05 f8 27 24 07 0c 2d dc 13 08 04 27 27 d2 1a e4 20 f1 fd 07 00 29 14 14 e0 00 0a 1f
ea f8 f2 fd 04 f4 14 02 02 e6 f3 f5 d0 1d 1e f6 0e 2f 49 2e 08 fa fb 19 ca fd f9 00 eb 0d 07 44 29 f4 f3 1b 26 eb 20 25 14 09 17 f4 04 00 f8 24 00 0e c8 ec 32 d9 06 ec 11 1e fb 25 f7 05 eb 2c
0e 12 08 1c 00 dc 01 03 fd cd 2e fa d4 05 e6 ed df 1a f6 e9 eb 35 f1 f2 ef 11 1f 00 be 17 0a 00 dd 12 00 fe df 13 08 13 fc 10 f4 da 06 0d 2a f4 12 19 fe 27 04 e1 09 f6 01 ee fd 0d 11 d8 f9 f7
10 04 03 cc 04 ee 04 06 ff eb e1 05 de 12 00 fa ee 1a 08 3c f7 e2 f3 11 25 08 0c 12 fb 00 fd 12 15 d4 ee e8 11 f6 f9 ff ff cf ff 00 ff 00 15 0d c3 e8 19 ca 13 08 18 e3 fd 19 f1 ed e6 f7 f3 ea
2c d9 13 ec 37 ed f2 1b 06 fe 0a 1a df ef 0f 00 1d 00 00 f9 00 f6 17 f3 f0 f9 00 0b fb ff fc 15 1a f5 16 18 1a 1e 21 ed 2b 02 26 00 ff fa e1 30 04 fd e0 03 de fe 00 11 03 fb f1 e6 f4 0e 0d ee
33 20 4c d4 07 10 da 1f 00 24 e8 0f 01 1c 08 03 0c fb 1e ff 09 e5 e1 ea fe f6 c4 1a 16 1f 0b 1a 04 ca 0d 0a 10 e7 25 0e 23 15 fd 16 3b 04 07 20 e2 f7 06 d6 0f 00 0b 22 f9 21 ec e9 f3 0f f1 30
ff ed f9 13 00 08 f8 dc d2 f9 f0 02 1b fd d2 23 ef f3 ef 0e e2 d4 06 e4 1f e3 f3 ea 07 ca d9 f8 e0 ec f8 d8 ff 00 d0 e7 07 10 e2 fa e4 eb f4 d4 18 ec 18 15 ef e1 15 f6 e7 f2 02 f1 ec f1 01 00
25 26 09 04 19 01 03 0e eb 00 f8 f6 2e da f0 24 12 00 ee 0c e6 15 ff 07 fc e5 06 13 31 f7 ed ed fe ff 11 fe f0 dd f1 f8 1f fc fc f3 f0 ee f9 f8 33 fc 01 e4 ed fa fd 04 e7 ee e0 fc f3 f5 16 de
d6 f0 f5 f2 14 c7 0a e5 eb 16 ca 16 d9 d9 d9 00 0f 0e e1 fa fe f0 18 1c 03 0b 02 01 2d fa 09 1e fd 27 fe 12 00 f7 c1 2e 1a de db 06 f3 05 f9 00 08 ef f0 ff f2 21 06 f9 1d 0b e4 f3 fc 03 ed 00
f4 13 0b 00 03 fb 16 0f e5 15 1c dc fb e1 e0 f3 fc fb f2 e7 ed 18 04 0d e8 24 0a 01 ec 03 f4 ee 0e 0e 03 f9 e7 ee 00 de 24 16 f1 03 f6 07 12 09 ea 00 ff 23 e9 04 0a 20 ec 00 ef d2 f1 08 f3 ea
ec e1 f3 de 36 fb f1 04 f6 00 fc f4 09 e5 e9 03 16 fd 08 fe f4 fb 17 cd e5 05 f3 0d 33 00 f2 2b 2a 18 34 2d 00 25 e2 fb ff dc bf f2 ff 05 09 fb 18 ff bc f1 df ee f7 ed f7 fa d2 df d6 02 ea 03
fb 0a e7 0d 08 e6 0c 07 f6 d9 19 0a f3 1f ed dd 04 02 ea f3 05 18 f2 fc fd ff 04 0b fc 02 03 00 f1 06 02 00 e7 ee ec 00 f6 ec 00 fd fb 0f 1c f7 fd f8 f4 06 14 e1 fa e4 e7 0f f9 02 00 e8 0a 02
fb e5 dc 05 f1 ca d2 e7 ea f4 0f e5 da e9 ec f2 07 1a fc f6 fc 2d 07 00 24 f5 22 be f4 ea f4 1f f9 f7 13 ff ee 20 e8 f5 24 0f 13 e3 fc 12 f4 e7 12 17 e5 10 f7 fe 16 04 01 00 00 e5 08 0f cf fd
ce 00 ed 07 e5 c2 d7 df ca fd ec ef fa f6 e1 04 ea f8 f2 00 0b f5 06 f2 fb 04 11 e5 ff fe e1 ef dc 08 df fb ea f3 d0 fd fa ec cd 00 0f fb fa d5 05 fb f9 fb 06 ed 0b e8 e2 ee fd e5 10 f0 e3 04
e8 ec 08 f7 0f db 17 f9 00 f7 09 3a ec 17 0f c7 2f 1e 0f 34 d3 1d fa 28 69 fe 12 f7 ec 09 06 2f 31 c2 2d ec 39 24 07 e0 27 fe 16 1d f6 15 21 24 16 03 36 f9 fb 1a 30 00 0b 03 ef 14 1f f7 12 ec
08 d7 08 24 1a f5 4b 03 0d 18 24 08 c7 38 17 dd 3a 1a ec 1c c7 14 2c 2f 1b f5 0a 26 10 4a 07 1f 3b 0f 25 3c fb 0f 28 1d 20 04 23 d8 fc 21 08 1f 39 13 4e 20 dd 31 03 28 09 36 eb d1 0e 05 3b 08
fa fd 0e ac 06 24 20 f4 e5 f3 ea 08 13 2f e6 0b e7 fc 10 0a e7 eb d2 ff fd 09 e3 09 0f e2 0d fa 01 a7 03 d8 2b d7 ef ee 17 f5 dc 34 f9 ed f6 fb e0 01 09 cc fc e9 0e fc d3 f1 ba 07 ce e7 d7 f9
26 06 20 05 1c 26 21 1d 30 20 01 13 16 04 24 01 24 1a 20 07 f3 12 0c 16 f0 ed ef 24 1b 27 13 07 3c 06 17 14 12 fc 2b 1c 03 29 1f fb ff fd fd 21 07 0e 05 04 fb 05 f3 13 17 2b 03 13 e9 15 10 1a
1f 04 18 e7 23 2d 40 21 2f 00 fb 19 15 2a 0e 17 fc ea 11 0a 05 14 fe 11 0f 00 ea 18 09 13 08 f7 31 12 12 16 f6 21 15 09 de 1e 1d 13 0c e1 16 23 20 ec 15 f3 f8 f4 14 fe 02 fe e7 23 ff 0b 1d fc
07 f4 09 1b 04 d8 d6 00 22 2d 01 0f fd e2 e5 f3 25 03 00 e8 d0 06 01 e3 e5 ce 1c f3 1c ce ec 15 ef f4 0d eb 14 f1 ea d2 19 f6 ef e6 ec 3b d7 fa 07 09 df 36 cb 09 cb 12 02 27 2c fa f1 15 05 17
00 f5 00 06 22 f7 18 07 1f ee 00 1e 01 21 29 c0 22 24 1d 2b 10 24 13 2b 1b 2d 1a 2c f5 1b 0a 0a 14 db f8 01 e4 1b 2d 20 24 14 12 11 17 14 24 24 f7 e9 1e 33 06 14 13 19 00 fb 1f ea 13 ff 0d f3
0c 1a d0 ec 23 de f5 12 08 c0 1c 19 fe f1 10 de e0 0c 01 fa 37 ff e8 d6 ff 0b ef 09 d6 ff 02 00 18 12 08 f3 ea 0f 16 26 e0 eb 30 1b ff eb 04 e4 14 f3 ec f2 25 fc 21 c7 09 e8 ec 0d 30 de 01 0b
ed f0 fd f5 19 f6 28 0d 28 04 e8 17 2a 0b 30 f3 f8 21 ec 0c e5 fd 13 ff f4 f7 d9 14 da 1b 25 1b 10 21 38 f8 dd 21 26 fa d6 0f 1b ec c8 f7 0b 43 1a 05 0e 05 f4 00 fc 32 e5 17 18 25 f8 2f e6 0e
dc 13 0d 15 f8 ee e8 df d3 12 15 f5 0c f4 db 17 ed cd e3 11 28 fc e6 08 08 25 f4 08 e4 02 ce e2 e7 14 e0 ea f1 14 d7 08 1f f7 d7 17 24 13 fb e4 fc 0d 11 fe 08 10 03 ee e5 e0 df eb 27 e5 f1 d9
0b 02 df dc 0e fb 00 1e 0c d2 f9 0d 0f 00 de 1a 00 15 fa 1e 2e d2 0b 28 0a 01 07 21 39 e7 07 f5 cd 38 18 fe e9 f1 cf 1c ea 33 ea f4 0f ed 17 0c 47 0b d0 1b fa 03 fb d5 f5 f2 2a 25 1f f0 25 33
e0 12 09 15 24 02 e2 06 09 09 02 e9 28 d5 0e 15 1f 0e 08 0b fa fc f6 ff 03 e2 19 14 09 14 13 0d 2a de 14 02 00 e8 0b 06 03 41 12 f3 01 04 eb 02 ff 0a 03 fe 0c 0e fd fb ed 17 0c 11 08 03 ec 1f
3b e9 d2 ca 04 22 ef ea 1a cb 15 23 07 f8 fb 12 c4 f9 ef 13 19 e3 cb ce f4 3b ae 25 2e 36 fd de f5 0e 2c da 20 12 07 fa 03 f5 e8 1a da f6 e7 dd fc 04 f0 a2 15 19 fd de 1b d1 cb 0f c6 01 0f da
fc e3 24 0b f7 24 0a fc da 0a 07 f2 2b f9 0c 17 00 0f f8 21 ea ff d4 14 00 12 ea 22 0e 08 08 e6 e8 f0 d4 02 12 07 05 f0 19 d6 0f ec f4 f6 f5 36 18 16 04 d8 0a 07 df 19 0d 12 03 09 f2 fd 13 f6
09 09 ce f1 ff 06 f1 ef e9 d2 ec 04 f0 11 f9 1f 15 f6 d4 08 f9 da f5 00 00 cf ed dc 05 f8 f1 02 fd c3 06 0c d2 e0 10 ef eb 09 05 f4 cc d9 ff f8 15 e3 00 dc cd d6 e5 fe e3 f3 06 e8 f6 f2 d7 ee
da 0e 0c ff bb f6 e0 08 f8 10 00 0a f5 09 d5 fb f9 fe 0a 10 10 ed 19 e0 1a f7 f7 0d f0 fa 14 f9 f7 ff 00 e4 0c 00 df f1 f4 fe f3 fe e8 e7 cf fe eb e5 00 f6 03 f4 ee 09 01 17 15 00 18 10 de 0e
f2 10 d5 ea 0d f7 ec 08 fe d4 e3 1a ea 0a 01 f0 fc 00 0b 07 f7 fb f7 f2 25 f0 f9 ea ef 19 0d 15 0f ef 09 f0 02 00 0a 09 08 1e 15 05 10 f6 ec 2b fd da f8 e2 1b ed e3 d1 03 cc 00 f4 fa de fc f7
de 04 e4 e7 14 df f8 e8 ff 12 06 ac 3a fd f8 05 1d cc f9 ee 0a c3 28 03 cf 04 0c 2a 0d 00 dc fa 09 dd 01 0d e8 d3 11 f2 f1 06 db 00 00 f0 ea ce 14 f9 05 11 cf ee f2 0a f0 fc 2c 05 e0 e2 ed 14
ee 0c ea 14 2e 12 f4 ef ee ff 11 fe 19 01 f6 e1 12 f0 09 fc 16 f6 f6 f8 15 f8 13 ee 37 08 00 fd f4 f7 eb e3 dc 11 1a 0c 05 f1 2e fa f0 19 f3 1a f6 10 09 f8 f4 16 b8 07 fa 0f fa 0d f1 0d 16 06
eb e7 e1 09 fd ca e0 14 eb e7 15 34 d2 ef 08 af 1d 1d ee fd fa 05 ee c5 0f 1e 08 04 f7 f6 10 15 27 d8 d7 17 ee 1b ed e7 23 f4 0c f8 e2 1d 10 20 00 1a 17 eb f4 df d1 eb f1 c5 f1 f1 2d e9 0a f9
17 1f 01 22 fd 2d 00 f4 1b 03 20 f6 14 cf 14 f9 f2 06 ed fb 20 f3 f5 03 fe 15 2d 08 e1 27 e1 08 0a 20 10 e7 ee 28 17 09 df d4 26 e9 2b 0a 2d 22 f4 34 e1 ee f9 2d fa 17 05 04 f3 07 d1 fd 1a 03
08 05 22 d1 ee f8 15 e1 f3 0e d0 25 04 cf eb 00 01 0e 13 1e f9 da f1 f2 22 fd e0 0a 0d e9 20 fe 08 dd cf 01 1e 16 e6 e1 21 f1 06 f5 fb 0a e5 1f d6 11 0e d3 0a f5 c2 1b f2 0c 04 fb f8 00 07 0d
14 44 f8 d3 1f 1f 00 14 0e 0e 14 28 64 db 2f 55 16 1d 13 27 fc e4 1f 10 05 23 ac 36 6c 45 16 bd 17 0a 00 e3 ec 1f 21 0a 03 11 58 3d e9 e2 23 0f fe 04 17 dc 20 da fd 0e ec f4 d6 f1 e7 04 4e 03
f9 00 e6 fc 08 f4 eb f1 e8 f1 ee 07 d6 f9 07 f6 13 0f f3 f6 00 01 15 fe 13 e7 fa eb e5 fc f9 01 ff df e0 ff eb d7 f3 01 e4 07 10 fa e8 d1 12 01 07 f5 fb 01 fb f7 c5 dd eb 1f 03 02 f1 ee e9 0e
33 1a 19 01 09 0d 0e 10 13 2d fc 02 f0 ed 12 d7 18 21 ff 24 df ea 1b 08 eb 03 fc 1e 1e e1 e9 00 0f fd f5 f8 15 0a 25 09 19 1b 00 f9 34 13 27 0e e4 00 21 0b f5 01 1e 58 11 23 08 16 05 e3 f3 18
26 df 03 15 ee c9 3a 28 ed fe c5 12 a7 0c fd c5 00 0d ec d9 fe 19 e5 24 e4 0c 41 fb bc b3 12 30 12 fa 0d 1f 00 04 f0 0f f5 23 f3 d8 18 26 e9 fe fd fc fc 05 d5 04 08 3a 0d 0e ff 6f 3e f9 e6 18
11 f5 ef d8 1e 2c 0c 0f 08 06 f1 0c 21 dd 19 20 00 fb 37 1d d9 19 0a f4 f7 d7 f1 ec 2c 07 08 00 f9 f0 10 07 72 f2 e3 f1 5c 24 f1 ec 0a d9 07 ca 04 fa 11 df 16 08 e2 00 22 1d f8 e6 b6 f0 e7 ec
26 ff 22 05 09 e1 0c 07 17 35 10 1f eb 23 2f f0 00 0e 35 fa 10 1e f5 08 f5 1d f4 f5 f8 e1 f2 0e 00 0f 20 1a 19 0e 0c 08 08 09 0b 37 28 0c 1f 0f f1 44 e6 1d e2 43 08 27 ef ff fd 19 1a 25 ce 10
f0 ee e8 f8 00 e2 e4 ca cb e7 23 c7 eb 0f ed dd 10 f5 07 f7 18 02 db fd f2 11 07 d0 da c9 d2 eb cb f7 e8 f2 e1 e7 e6 bd d9 ee e4 0d 10 f1 00 e5 03 f3 ea 12 db fa f1 f6 07 00 f4 0c 25 e0 dc ed
08 02 d4 f6 01 0a 28 fe 27 f7 00 18 e8 ec ff de 04 12 fd 1e ff 04 e4 00 13 dd 3d f6 d9 08 f9 17 1f d0 e2 fd 1a 0b 39 ec 03 e4 1b e9 17 2d 19 05 05 f1 ab d4 fb e4 d1 ee ec 04 f3 10 03 f2 1b 08
00 09 03 23 1e ce 2d e0 ee 06 e0 e7 e6 04 13 ff 1e 05 0a df e8 f3 01 17 23 f6 ff 2c 00 09 f3 ff 1a eb 1c 14 02 0d 09 1e 0c e7 34 f3 1a 1e 09 fb ff 12 e9 0d 13 f4 07 12 ff 12 02 ef 0c fa 0d ea
0f 07 04 f1 07 eb 0e 10 3a ff dc 0f 03 f4 0b 03 29 28 ed 03 10 ef 01 03 14 1b 03 18 04 17 ee 24 01 03 33 d5 f2 f8 3b 2d f0 2e 44 1e 31 02 0c 36 fc fb 04 fb f7 f6 f8 fc 08 f7 f8 d5 02 f0 10 f9
f5 ef fc c6 f3 04 1c ee 07 c0 e1 00 ed 01 01 f8 de 10 2d 00 02 dc c4 13 ea 00 09 0d 03 0c f5 07 07 04 0c fa 22 fe e3 2a 16 dd 15 25 fa 26 ff 0b de f3 f8 da 01 f5 f8 f5 fe eb e2 ed f0 f0 d7 0c
08 e5 0e ce fb 08 01 06 27 13 d7 2b ef 06 ed fb d1 ec 12 15 f6 f7 fb 1b 1d 1c d2 0a fb 34 fb ec f9 ea 17 f2 07 20 fb 3c 08 e4 1b 26 f5 01 f7 29 f2 f8 0a 00 14 fe c1 0b eb f5 e6 dc dd 03 fb d1
f0 f7 17 ec e3 05 eb eb ea 0c 02 f9 0a d2 f0 fd dc f2 f9 0c 1b f3 f8 ef ef 0c 03 f7 fb 0b 00 ec f7 ed e2 de 12 06 e7 fe f8 e5 04 02 17 08 ed e7 00 02 df db 0b fc fd 00 fb f2 ed 10 d4 e7 de fc
01 d4 fa 30 f6 1c 18 ec 17 ea 09 0f 22 f4 eb f8 eb e1 07 12 10 f0 20 11 0c 31 1b 36 05 27 f7 fb 0e f8 f7 e9 ff 00 f9 0f df e0 13 f5 eb f9 1f 0c 29 05 fd 25 00 07 f0 dd ef 00 1e 18 e5 ed 2e 0d
f2 f8 08 04 fc 05 e5 38 f7 14 21 19 ea 01 e8 e0 05 25 1b f7 03 00 f8 fb 17 e7 1a e1 25 c6 04 09 f5 ef 07 f2 f9 fe ea ed 11 13 e3 13 dc fd eb 0e f5 df eb 0e fd fb ef 0e f3 2c 04 2f 0f 1f 00 09
20 0b 25 fb 28 f3 49 ef 05 05 01 06 11 16 30 ed 10 18 18 ff df fc fe 01 1f 00 ce 24 12 1a 0d f1 0f 10 2a f4 04 f3 2f 0b fc 0b 22 f9 fb fa 04 fc f4 17 f0 09 21 19 22 0f dc f3 f3 07 ee 08 0b e8
f6 ce 06 14 f1 07 eb d8 e6 04 f9 0e 01 05 f3 fc 19 da ec 00 e7 fb 08 e3 e1 dd fc 0b ed ff f3 03 ef d4 df fc 06 e4 f0 ee fc ee 10 e2 ae e8 0f 0d e5 f8 ec f3 e3 f5 a7 02 dd 16 0a f6 ea 15 dd 0e
f7 15 f0 c7 1c ec 15 f8 f8 e2 04 ef 03 ec 2f f1 d4 e5 03 f1 46 1b e8 03 fa 38 e4 1e 0d 15 15 f4 ea f3 fa f3 e8 27 1f ff ed eb 25 19 f1 08 1f dc 0d 0e 0a d4 37 e8 18 01 11 d3 fb 01 31 f5 0b e2
10 28 f6 03 02 fd fe 0f ee 02 05 13 29 cc ed e9 0c f4 f3 e9 08 e1 fe 23 e2 29 1e 2e 14 02 f8 f6 d6 25 3c be 0c d7 0e 11 e0 f8 ff ee f5 34 fc 28 c2 16 1b 00 fb 09 07 ce d4 e7 fb cc 2b 00 fc 0e
11 1f 1f 0f 29 f7 0e 08 2f 0b 0b 26 14 00 e9 38 d6 cf e9 0d fe 01 1b fb f1 08 de 32 15 1b 34 cc 0c fd 27 11 fb 16 10 e7 f8 27 d1 23 36 e3 0e c5 ec 05 f6 d7 f5 29 1b 27 f5 cc 16 21 08 f9 f0 97
fb ee 12 e4 f1 c2 08 08 f3 2d f7 e2 eb 11 e5 fc 08 f9 fa f8 03 0d f1 ee 02 f0 f1 eb ee e7 f7 f2 d0 06 f5 e7 1c da e0 fb 29 00 06 08 e9 00 e1 15 db d1 13 fa 27 16 d8 2f 21 18 fa 17 f3 13 e8 fe
09 0c de ec 0e 08 ec 0c db f4 11 ca f2 fb ed 0f 07 0c fb de fb 1a 0d e7 dc f4 d4 ff e9 ff 4f f5 fa 34 19 f0 db 06 ec 1b f9 22 e3 f1 ee 29 15 e3 09 fc 04 23 d3 e7 15 df 1c f7 02 da 12 eb 13 09
10 26 fb f2 f4 e7 0f ff f7 f4 25 0f 00 bc 16 06 d0 e8 df 0b 28 f0 d0 fa 04 07 e2 f9 f1 dd fd ea 2e 02 12 12 de 0f fb fa 08 04 f8 0b 00 e2 e7 00 16 e7 db f8 05 0b e1 d8 f4 d1 ee e5 fe f3 f8 ba
08 ec 10 23 ef c6 1d e5 1a 0e 38 18 f8 fb fa ef f1 c1 ab 13 f8 0e ee f0 03 e5 17 fb c4 ee fe d3 18 db cb f4 d6 23 25 cf 0c ea f6 2b 01 fb e4 19 f3 10 10 28 de 02 c8 e4 13 c9 0e 08 e9 e5 36 cd
05 0b f0 f7 07 17 19 f6 ff db 25 ff 05 00 03 13 d4 0c fb fc f8 de f8 f2 f9 fd fe 09 e3 e0 f3 09 27 cf 06 06 d5 e2 ea eb e7 0f f6 00 eb 02 fb e3 21 06 ea dd f3 00 de d3 00 e2 fb de 19 f6 f9 eb
01 ce f0 18 eb f2 fe c4 13 fd f6 e6 fb ed ff 0a 19 ea f9 21 e3 e1 d4 f1 f9 c0 01 f9 f7 e9 09 31 1c de 27 26 f9 c4 dd f9 fa 06 f6 00 f2 00 06 f5 07 02 19 fe da e7 e4 07 2b f6 ee 08 fc e9 d5 14
04 23 e8 f0 f4 18 37 fa 0d e8 f5 dc 3a db 06 4f 0e 1c 1a f3 f7 fd fe c1 f9 a4 f5 16 cc 24 f8 fb 0f a3 3c 0d 06 dc 13 d7 fb 2f ca f5 f9 e2 17 d6 1a fe 02 09 03 c9 fc ed ec 0f f3 03 23 f1 ff 09
e6 0b 31 f2 00 db da 13 ed 31 ff f5 fa d7 ef f5 01 1b 0b da 23 f3 fd f7 f3 0c 15 f4 ca f4 ea f9 d7 0f dd dc f9 ff e9 dc 0e 01 dd 09 1e 10 e7 cf ed 21 f8 04 ff 24 f5 f5 f6 06 f6 18 cc f6 ee fb
fa 1e 5d 3d 16 ed ea f2 11 4a 2e 07 09 ea 07 c1 f3 dc 0c d6 61 20 d8 bf e6 1a 11 02 fa ff ea ca f7 ea f5 ea 10 29 14 ff 13 00 ee 0b 32 17 d6 c4 e1 25 c5 f3 f3 44 ee 02 00 0b 21 10 e4 37 13 f9
ea e2 bc 14 02 00 2a 04 f9 d0 32 00 1e f6 e7 02 fd db c1 17 05 09 19 08 2c fc eb 24 f0 05 04 f0 2e cd fc f6 be 21 f4 de fc f9 08 ef d2 e5 17 16 29 12 2e 17 01 04 c3 c7 07 ec 16 f6 06 e2 2e f8
08 df 10 28 0d de 19 e0 0b 27 28 bd 06 f2 06 f2 e4 c0 a0 19 29 e3 d2 b9 f2 23 25 fb de 06 1c c4 f1 d5 09 fa ae 1f 22 cc ce e7 00 09 16 14 e0 02 f3 1b d5 00 d6 39 ed 06 ee 00 eb fc ba 09 e1 c9
f7 e4 9f 05 fe ea 41 1a fe a3 fe 27 d7 fa fe 05 08 0e d0 f3 f8 04 09 eb 12 1a e4 f9 da f7 05 24 1c f4 f4 02 de 15 02 e6 0a ec 12 fa 00 fc 2f 17 2f d8 dc 01 f5 c0 df a5 0a d6 16 dc 18 be 2a da
0f 09 da 05 0e ff 0d 15 2d d4 0a 13 e2 02 4b df f8 24 18 0d f3 ca 23 e5 0b 07 f9 30 02 2b 0d 32 18 2f 18 1f 11 ec 44 23 01 09 35 f9 2e e4 ee 13 21 ec c7 09 0c 04 35 16 0c ff fc fa 22 f2 d3 19
09 07 ce fd 08 fd 35 fe fe ca fd 0c e4 eb 02 0b 1a fb f6 1f 0f 1f 15 10 18 f6 17 00 f9 14 0a 39 04 f2 f4 06 1c 28 f4 fd 0a 12 10 14 0e 30 21 eb 12 de 0e 16 ff c0 ef f6 04 07 25 0b 15 dd 14 d1
1d f6 06 ee 13 21 0a f8 f3 17 0d 02 f7 d9 ed 14 e0 e6 fe 0a d8 d2 05 14 e4 14 0b f3 25 29 03 f6 fd 2e d2 da 00 03 1b f0 da dc c7 1b f8 12 42 eb ff fd 08 ed f1 c3 1a ff 20 f5 1a f0 24 e3 0e e0
43 01 16 f5 1f 00 0b ef 01 0c 1a dc e1 20 fa 07 00 f9 f9 e1 09 10 19 14 12 e2 d4 fb ea f5 1b 02 e8 d4 1b f3 ee 13 05 16 18 05 e7 dd fd 0f 15 f2 eb 0a ff 11 e5 ff 1e 01 17 16 e9 bb 0f 13 22 ea
17 19 d9 04 21 12 46 0e f8 07 26 26 08 f4 22 16 06 40 1a 09 26 fd 22 21 e5 fa 03 e2 0e ef 1d 1a 0b 0b fb fa 17 16 f1 f1 f9 10 e5 07 03 fc 16 f8 ff 00 08 1c 16 ff e1 e8 00 fc 23 e2 16 fe ec 07
10 05 44 26 1e 0d 02 4f fc 33 3e db 04 07 16 e1 e0 f5 09 d0 39 f6 c1 01 d8 18 dd 0f f3 34 0e 9d f7 39 0b 14 0e 21 2e 23 00 fa 0e 00 25 0c e1 12 c0 24 f1 37 0f 63 36 16 00 da e5 01 f8 21 27 db
fa 39 00 ea 36 23 22 08 e8 03 26 eb fc 0f fc 18 ef e6 ea 03 1f 07 24 12 db 0c 11 e8 ee 05 d5 f3 09 13 10 ec d2 02 ed f4 f8 14 fa 28 46 00 f6 d7 f3 e1 05 0b 39 18 e7 d2 f4 ec 14 27 f7 fb db 12
16 f9 e4 fd 12 28 23 09 13 d9 f9 fc 25 1a 29 25 ee 07 c4 24 fb cd 28 0d 14 eb e0 11 f2 22 fd 1b e7 b4 12 e4 d3 10 1e e1 eb 07 1a 20 29 16 50 0c 1d e7 c1 29 eb e9 dd de e0 e7 0c 01 d0 de 0b c5
0f ea fd f7 2c 03 1f e8 f5 46 d2 ec e4 30 1f d2 11 ec 0c b5 de 22 f1 ef f4 fb ea 19 05 c5 fb ec fc f6 05 f4 ff e6 f6 15 fe f4 f6 f1 ff f0 eb e6 0f e7 ec f9 e4 13 f6 12 f5 0a f7 da cf 14 e4 e6
00 dc f2 f0 20 e1 29 04 26 f3 0a db ba f3 41 d4 28 0b e6 e9 09 fd 07 01 f8 0d 03 0e 19 17 04 15 37 11 f5 09 1e 06 45 08 1c cf 35 f9 4b 25 37 10 fc 09 d7 22 d4 00 01 f6 f3 e6 04 10 eb 12 23 e6
dc e0 f1 00 f4 0a f3 cc 13 fc 09 00 de 42 0c 07 fb c9 d6 0e e4 fa ff 02 22 0b fc fa 19 10 03 0f 0a 17 09 0b d4 04 0f 1b 03 ef 08 00 0d 02 3c f6 0f f3 25 02 7d ef 33 e6 05 0c f5 e5 eb 05 1e d3
d7 d7 09 f0 f6 f2 f1 fa 03 f4 f9 0b 0b f9 df 02 0f e7 03 10 fe 13 fa 0b 0e de 12 fe c0 f9 df 20 05 07 f8 0e 0a 18 00 0c f8 ef 01 e5 f7 f1 1f f9 11 ed 08 0f 0a eb f3 ea ee 28 f6 f9 0a f5 00 14
eb b5 0b 10 fd 20 fd d0 08 fd 20 f1 02 07 f2 05 f7 bd e1 12 2b f5 e9 f7 1c fc 23 03 e5 0c f9 f2 10 ec 1d f2 13 00 11 de 04 e7 1f 0a d6 0a 24 f2 0c 1c 00 fb ec 02 09 fa 1a 0e 07 1f de ec 00 e5
f7 b4 dd fb e7 14 32 fd 0b f8 1e da f1 39 e1 1e 0d cd be 1f 0a 0d f9 03 00 00 0d 0d 05 17 20 0d 07 e8 0e 00 f6 16 e9 00 33 03 f3 3e 1b 39 02 e8 0d 00 f9 18 f4 16 fc e9 1d de 12 ef fc e2 15 ea
fa 02 16 20 f0 ea 14 ea fa f7 2b 08 13 ce 00 e6 f8 ff f8 f8 0e fc e7 d3 09 e0 0d 0c f3 f1 fa f5 28 dd 13 2d d1 f9 00 02 d4 24 ea 01 fd f6 fd 0c 0a 13 18 09 f6 19 fc 0b fc 00 cf 0f 17 14 f8 00
31 ec dc 08 08 f9 2d 16 fb d3 ea 05 db 1a fa f3 d7 cc f1 14 fc 07 f8 00 09 05 0a 0b eb c4 00 00 00 f6 18 f0 05 3c 15 e8 0e 33 c2 f1 26 04 e8 f0 3a e9 e0 f7 d6 0f f1 f1 ea fb 05 c5 10 db e5 ce
eb 00 04 e9 08 0b c3 f2 08 ec f9 20 04 ff 02 05 12 ce bf fb 06 fe f8 f2 ff d2 12 07 e5 f7 fe d8 03 d5 da f3 b7 04 06 f9 d0 05 1b 1e cf f7 0a 0c f1 df 03 e6 0c c8 ee d5 f4 00 f8 25 d9 f4 ed 2b
11 d9 1c 03 0e fa eb 00 db 16 eb f8 02 fc ff f7 f8 c0 ee d9 fd 0d eb e4 fc 19 16 14 16 00 fe e6 1e 00 dc fd f6 f2 0e f4 ec 00 ed dc f8 fa 05 cd 32 01 cb e5 d7 f9 07 01 13 09 ed f4 08 f4 0b 03
01 04 28 22 28 11 fb 16 13 12 26 06 19 e8 ff 21 00 cd f1 06 f7 f4 e1 9d db 15 e7 35 01 09 1a e6 f2 09 f4 f6 15 15 20 f0 19 05 dc 01 cc 19 0f 05 e3 2e 1c 26 1a 16 c4 ec 12 f2 eb fe d5 ec 2d dd
2e 14 d4 cc 39 27 37 01 05 ec 13 16 16 f8 18 16 f7 f4 f1 0d 1f 0f 15 00 e6 1b d3 08 23 ff 23 f4 14 f0 fb f5 09 0d 19 fd d3 15 e9 12 13 fa 2b 1c 0c f1 f5 ff 01 f7 23 ea f6 e9 e4 df f5 e6 e3 f2
fa e2 09 1c 0e ed 0e f6 f1 04 2f 1e 26 fd 00 fb da cf e7 2f 38 e6 fe 26 e8 ce 13 fc d2 f1 f8 ea da ed fc e2 d3 fc f8 e3 f9 f6 f8 1e f4 f4 1a ef 05 e6 19 01 fb d1 cf 0b e6 f4 fb 1b e9 f5 00 f0
4a 06 f0 d4 19 39 18 04 dd 00 05 e5 1c 0b f3 06 03 ec fb eb fc 27 17 39 06 29 e2 11 0f 15 0a 00 e2 f3 f4 f4 f6 25 fd 07 03 07 f4 08 f1 ff 38 04 f9 f6 34 15 f8 ed 18 14 0e f6 06 f6 ff e2 e4 fe
00 e6 27 07 fa 13 14 1f 0c ea 06 e2 0a fc e8 ef e4 d1 04 01 08 fa ca 12 f1 ee eb 26 fb ee 0f ca 1e ca 23 0b ff f9 08 e2 0b f1 0b 01 e7 fd 01 1f ff 10 e9 08 fb 10 d9 fe 06 e4 e0 d9 30 e3 06 d9
09 c0 ea 41 04 15 21 ce ff 03 ec ef e5 fc 0e fd e9 ca fb f4 ac eb ce 0c e9 dd 33 04 0e fe 1a eb 24 00 ff 37 f5 05 22 dc ec 28 14 e9 e8 f3 13 04 5a 05 f8 e4 de 05 ea 11 12 c7 ed 14 12 00 07 e3
1f 22 ec de 00 11 ff 11 f8 e9 ee 2b 10 e8 fc 14 e3 03 09 f3 22 f8 12 f8 e1 18 e8 e9 e8 25 fc eb db 0c e7 de d8 df 02 ff ea 1e 05 e0 e9 f0 08 14 e3 ed d0 17 14 11 f1 dc fe d7 ff 06 00 f6 ea 02
eb f6 d8 fd fb 04 d0 e0 d2 04 f5 11 f4 0d ff fd 1a 23 00 d8 fd 00 10 d7 ec e2 e4 f7 12 10 dc 00 07 f0 e0 08 e3 19 ef e8 e8 02 10 dd ea ed 02 27 22 0b d9 0a e4 1f 14 05 04 10 23 e8 0e f9 db 00
1b f2 fd 0a f8 f6 16 14 f8 fa fa 30 12 22 12 15 ef 17 05 e8 db 08 f6 0b f7 da ee 11 db f8 02 00 0e 09 ed 07 c8 d2 fb 00 cb 34 e0 05 05 ef 06 02 58 08 dc f1 0f ff ec d7 f5 c5 f0 de 31 ee 11 05
e3 d6 bb 0a 14 03 1d ec f3 06 00 fb 07 fd ef cc fc 0a 2c f9 fc de ea 12 e2 11 12 fe 19 fc 10 f9 0e fb df 12 36 ff ee e1 04 ef f3 f9 08 fd 0c e5 18 0a 02 db 25 f9 ec c6 ed 12 d7 04 f4 04 09 08
10 e5 1a 3d 03 00 2c e7 07 27 16 e3 ff f3 01 e3 1a f1 2d e2 0f 04 d5 0b b5 ea 4a fb ec e1 16 1d 0d ff f7 0b 3d 14 01 34 20 0f f4 0a c0 05 02 11 06 3e 00 02 fe e9 f3 03 fc 12 e8 00 0f de ec 0e
e6 97 d5 27 f5 11 26 db e0 d6 00 09 0d ed e7 14 e4 b9 cb 04 d6 e6 30 04 ec c1 04 f6 fc 07 24 f9 12 e9 0a 07 d5 03 ff f2 f9 ff fe fa bc f6 29 10 2c 03 f4 04 f4 de dc f8 03 b7 07 e8 00 ed 10 d3
0d 1f ab dc f0 05 04 29 20 e5 15 06 1f e6 11 13 d2 0b 10 f6 24 09 27 f4 0e d0 bc 00 ec f0 1b 07 f1 e9 17 df d9 07 f8 e4 d7 0e 0e f2 1b f9 e7 ef 00 e7 d0 20 1e 01 0b e3 e1 d9 14 f5 f0 ff d3 fb
0b e5 df 28 ec 06 f4 e0 fc c1 dd fd 2d d5 ee 1b d8 c4 17 1e ee f4 21 f2 fb e7 20 22 e9 23 f6 e6 0f 03 28 15 11 ee 13 d3 16 10 04 fe 10 1e 20 07 1b f7 02 30 fa c2 fd f2 fa e6 06 f2 26 d6 18 cc
1c e5 d9 0b 18 1a 17 1e 1e f2 00 12 ef 1f 42 fb 00 1e 0e 11 f8 e6 2b e5 ff dd 2b 1b 13 37 15 33 22 21 00 14 0f 1c 35 13 f8 0f 21 09 00 23 10 1f 40 ea 06 f7 00 d9 0d 22 11 19 17 ef fb 05 f4 01
12 fd 03 17 f7 f1 f2 00 12 e6 05 2e f8 e4 08 0d 07 d8 ea e3 16 f2 31 02 e6 fc 20 f1 01 04 10 02 ea 22 ef 04 f4 1c 09 fd 08 23 ef e9 14 07 1d fe f0 f3 e4 20 01 eb 04 f5 11 14 37 fa fb ea 20 fd
28 eb dc 32 f9 ef 1f dd 0a 09 cf 0d e3 ff f5 cb 2d f1 0b 05 e2 08 f2 21 f8 f5 fb d1 3b c3 1d 02 27 1a d1 1c 02 d8 1d 14 04 bc 0b 0c bd e3 e9 16 40 1b 15 e8 ef 0a d8 f6 31 f5 ea 05 04 ed f3 10
2b f7 f9 33 32 fd 31 fc 06 28 f7 1c f7 46 23 db 1f f9 14 08 de 33 02 13 fd 0d 00 00 33 c9 17 17 f0 17 20 08 16 dc 14 0c 1a d1 17 f4 12 12 d0 f1 cd 1a ff 1e cf 0f fb 07 21 05 11 dd e8 12 de fc
28 b8 13 52 18 1d 13 bd 1c 0d 03 d5 10 f2 09 1b 1b ca 04 2c c1 02 c7 13 ff d5 47 06 2c a6 1c 0c 62 18 27 3d 14 e8 f0 ce fd ea e4 08 ef 0e eb 35 4b 26 10 e5 dd 17 f0 11 12 0a d5 07 3b fb ee dd
26 fd 14 01 21 06 31 0b 14 fc 20 1a f9 15 08 db f8 f3 f9 d1 0c 02 db 0b 0a fc 0d 0c 0d 11 ff f0 05 ee 14 1d 04 15 0a 05 fd 13 22 f1 10 1e 07 f9 eb 13 da 13 e8 17 f6 05 1e 05 df f9 07 e6 00 dd
08 f2 e4 ed 20 fa 8b 09 11 e1 f4 21 0b f9 ec e1 03 f5 13 f5 1e f6 f9 27 0f 30 e9 e3 e0 db 09 07 ee 31 fd 04 06 f9 eb 0a d6 ea e1 1e e7 d3 fa d9 0c f2 d0 de 3b fa 05 d3 1c f1 1a 1c 06 20 f7 11
17 cc d5 2b e8 fe ff dc 28 dd 08 ee fd 07 06 32 ee bc a6 30 1a ef 36 e6 1f f3 2f 0b f3 02 24 19 06 cf 15 08 fc f1 00 c7 10 01 e8 03 17 26 e1 04 14 fa ef 1f d6 c3 00 ec ef 07 44 b7 ff e1 fb d7
0f 2c ec bd 1b e7 1e f8 08 0a a7 08 e7 35 f6 e9 0e 36 42 f6 fb 11 00 16 ed 01 be f3 16 ae de 19 09 fd 28 f5 fa f7 23 0c f8 02 00 de f6 e6 ce 03 07 f7 07 14 02 1a e9 fb f4 1a 00 d8 1a 32 ca 16
03 f1 17 fd fd 22 16 fb 2a fd 03 e0 f0 2a 1b 00 fe e5 f8 f7 f9 02 f7 1b 00 08 f1 21 1e ec 11 02 24 fe 2d 19 17 21 02 00 fb fd 18 e9 09 0e 3a 10 db 01 ef 05 03 f9 06 fa 0f fa 1f f8 09 ff 35 e1
18 15 0b e6 f4 00 c8 02 f7 15 ff 18 bf 14 09 f5 07 3e 30 14 26 f7 32 f0 06 ea f6 ec ec 25 f2 3f e1 e8 14 ed 0e 00 00 1c 00 15 0d d3 0a fd 17 21 c9 cf 2a 19 15 0f ff e0 f5 17 33 cd 11 0e 0e 02
fe ed 0d e0 13 f7 e4 fb 0b cf 08 12 00 14 0a 03 e7 ed 07 00 fb f2 f8 0e 0f e6 ff f5 03 0d f3 e0 f9 01 f5 0d e0 e9 05 ed ea 1f 1f 0a e0 e9 f3 fb 02 f6 05 ee 0a e5 e9 00 e7 ed e7 fd 13 f2 c2 f2
18 0b 09 df 02 f2 e5 00 d2 15 1d 14 fc fe 21 0d 03 10 fb 07 fc e8 14 02 1b fb ef 00 0d 01 e9 0a e6 b9 07 f4 ec f4 f6 fb f5 23 00 fc df f1 07 09 e3 e5 02 04 1c 0a 02 ec 1b e9 fe e6 25 fd fd ec
22 e9 f9 05 e5 05 df 20 f1 0a 04 12 ec 17 16 fb d7 e4 f6 26 24 e9 39 03 ec e5 0c 0a 05 0b 22 07 0f 15 2a 0f fc d4 fd 2c 0d 14 0d 45 f5 1c 0f 29 12 0b 00 37 0b fd fc f8 17 d4 31 f9 0c 06 08 cd
e4 06 19 1b 14 04 00 00 fb 03 08 0b 0f 02 fc e8 fa ee e3 e2 05 0a cb ec ed fe 1c 0d 13 04 c6 fd 2d e5 04 fc 09 20 f7 dc ff ff 22 eb 0b fc f0 fd 06 08 02 25 ec 16 f7 2c 00 02 03 f0 2c f9 10 df
f2 2f fc c1 3d 2e 03 13 0e 0c d9 f8 f8 f8 0a 03 00 07 2b 0d 0e 22 ed e9 14 dd bf f0 0b cb f3 0c fb f7 fa 0e 29 f8 12 ce fa ef 0f f8 02 c5 ec 1f e3 e2 fb f1 0a 20 fb fd f1 0d 0f c5 15 1b db 03
18 0d 10 ea 12 2d 00 0f 00 f5 00 f0 1b e5 fd ea e7 29 08 dc 0d f9 19 f8 f7 e1 08 e8 f8 2c f6 01 dc e8 d8 e5 e8 ca fd 06 f5 eb 04 1a c4 f4 0b f3 d1 0e 0a 15 0d 35 e6 ff 04 1e 22 fe e6 07 ec 16
f5 1d 00 e3 32 08 0b 00 fe 1b ea 15 09 2f 14 f4 03 18 20 c8 f2 da 1f fe e0 ed ef ff 1e 06 15 ce 02 06 00 f8 e4 e5 0f 05 ef e9 07 da db d3 ce 00 33 11 d2 e9 08 0e fa d7 0d fb 03 00 fb 1d da 28
16 f2 ef 16 f5 2c f6 fe 06 f9 26 00 03 23 08 eb fa 02 02 00 05 f8 d4 f5 08 e2 0c 20 17 e4 42 e6 03 02 24 25 f0 ea 1c 11 00 e6 12 f9 d7 15 ee 0a f6 44 f8 02 0b 08 06 f1 19 06 06 a8 2f d7 22 ed
32 e6 f6 23 29 18 1b ec 21 f2 f7 fd fb 16 0c d9 49 13 ee 2c eb fb 19 fa 17 df 12 02 16 d7 08 1d 2b 07 41 12 ff 1f 3b ea 03 ec 05 fa fa 1a 06 22 18 0f f6 1f 09 df 11 10 12 1b f7 10 ee f1 07 1d
02 11 f5 fc 27 05 1a f8 f8 d6 21 15 05 de e6 1a e9 05 f2 0f 24 12 f9 0d 12 f0 09 ef ef ff fd ee 0f 1b f6 f7 d6 fe f5 fb ed 0c dc 08 e1 e0 1c f9 18 d4 ea fc 0e f6 f5 f3 d7 f6 11 11 e1 0c f4 18
fe e3 f1 fa 19 02 10 f5 fb e0 0d 05 f2 2d 05 11 10 06 0c 2b e5 04 07 0e e9 ff 14 1a 01 f2 28 17 2e 04 10 22 11 fe 1f eb 30 f1 0b e0 3e 15 ff f5 2d f7 1a e5 f1 d2 00 17 0f 14 fe 09 fa f8 13 1b
0d f5 04 13 00 df e0 f8 01 f9 f7 13 03 06 14 e6 ea e5 e9 23 12 e5 f2 e7 f5 07 1b 19 e4 03 fe ea f6 39 1a f2 01 fd fe 1b 18 06 02 1e 1a fc 02 28 db 1f 03 ee f8 fd f5 14 08 ec eb fc 13 fb 04 f3
2b 1d fb f6 e8 1e 12 d8 22 d3 de 0c f3 f3 ea 06 10 f9 14 df 1e f5 0c e7 d6 f8 44 02 03 0c 0e 24 f0 2e 0a e9 06 fb 06 09 03 0c 0c 1f 07 32 0b dc d8 d6 f7 f9 37 d8 f9 09 f9 21 f7 30 bc df f5 0b
f6 c8 e2 30 e6 e5 fb cc f7 e9 e1 19 e9 f9 21 e5 e9 b7 ca d8 1c ff 18 f8 cb 2e 48 00 e3 fe db ed 0e f5 0f f5 03 da 1f 16 04 d9 03 e4 dc 13 f4 f0 dd eb dc 1f fa 1a df c3 e2 0f 03 ff 0e 00 2b e4
2e 26 13 ec fb 09 e4 07 fd 07 fe e4 01 ee d6 fd 11 2a 0e fe 11 d9 11 f9 0b e6 fb f6 fb 11 dd 13 ce f8 f1 e0 f4 b5 f7 ff fb 00 06 f7 ed ff fa ff f1 10 1d 11 2d 32 e7 ff 01 28 30 0d 1e 1d 08 02
0f 10 d9 3f fe e5 ee 00 e4 fd 08 23 fd ee 16 1a 13 fc f9 18 12 e3 1b ea f8 ee 04 00 f7 02 00 05 02 14 ee 14 f8 08 02 13 fc 0e 2c 03 09 22 04 00 18 fe de 33 13 e4 f1 e9 f0 db 34 f3 06 ef 29 f4
fe bf fd 31 12 d5 f5 f0 10 f6 cc 0d 03 f7 00 f9 1e 0c 1a d0 94 f8 c0 f0 d3 d9 e6 f1 fa bf 0f 05 39 00 0c 17 ee eb fd 0f e0 24 e8 cd 00 c4 c9 eb 4a 17 cb fd d3 0b ed ef 01 fe 86 fb 12 01 15 f8
04 07 09 2d 02 18 f1 f9 f9 11 1b fc 16 e8 0b f1 cb fb 02 f5 05 f0 ef f1 ca 29 15 f9 ff 01 23 f5 19 18 07 0e 01 fe fc f9 0a e0 03 ff ea 0a fa 0d f6 38 d5 1e 03 33 cc 00 06 e0 05 f4 03 1a 16 db
18 a1 d1 1b 04 0e f8 c4 fa df 12 fb 1d 02 fa 18 e6 9b 01 fb df 00 17 24 02 15 34 01 f8 03 2b ed 03 6d 21 01 ff f2 f5 2d 1d 0f 1c 28 de 3e 12 46 0d ec 0d 19 00 d1 ae f5 f6 ea fc 16 f8 ee 16 ce
fe 01 dd f7 1b 00 da 06 f3 fa 06 0a 0a d6 26 04 e2 f5 06 05 1a e3 ff fe fc e3 d9 ec e9 e7 fd fb f2 1d 00 f0 ea 0b 0a 17 e7 06 07 c5 06 03 d6 13 fd 01 fe 13 02 f8 0d d8 15 e1 0b 04 f4 05 ef 13
17 1d eb f3 f6 08 d0 15 f9 c2 fc 22 f2 0a fd 27 e5 29 02 10 38 e4 0d f6 0a 00 02 03 f1 0a 09 1d cb ef f3 d5 0a ef 11 ef 0f 11 04 04 12 00 17 21 dd f0 07 1e 20 f1 de 0c 05 03 1d fa 18 ca 0a f9
29 fa 13 1b 1b 31 23 20 2b 0c 35 fb 3a f0 55 01 08 ec 06 20 04 fe f1 fb 27 f6 50 22 1f 17 2f 02 0f ed 05 1f 0d 31 24 0f 01 12 27 0f fe 10 1b 2b 13 f8 00 f3 12 dc 17 18 0a 03 ff f2 12 f9 d0 d2
01 c2 d4 13 f9 05 06 db 15 ee d4 08 09 f2 2b 2e ea e1 09 07 bd 08 25 09 14 11 5f 01 04 f0 06 04 1d 16 1e 02 0a c6 09 43 17 1b 0f e4 07 fd 00 13 21 0f fe 1d ed cc af 1b f4 08 d3 34 14 ee 21 eb
20 e5 ce 14 11 1b 00 03 18 00 f7 f8 ee f1 19 e9 19 ea f7 dd f2 02 06 ff f4 ed 6b 06 00 e0 0a 14 04 05 f6 36 17 3b 16 06 16 02 0a d4 0b 3e 0f f5 18 0a e8 e2 eb d5 11 ea 19 15 0e ef 10 e2 2d 10
39 06 0e 21 17 11 00 f2 0a 08 0e fa 00 02 e9 1b 36 f7 00 0c bf ee 0d fd d6 fc 0e 04 2c d9 24 e1 0e 0f 06 24 f7 ff 10 13 0f fc 09 f2 d2 fd e3 24 1d fb 02 0e fa 06 c9 fc fc fc 1d e0 05 15 00 21
01 02 00 09 20 10 0d f6 e7 f8 13 0d 03 ee fc 21 d4 23 f4 e8 ef 0d 1a f0 fd f2 f5 e4 08 00 02 11 12 f9 39 18 fe f3 e8 ee 12 28 d7 fc 11 cf 03 0d 32 0d fa 07 2c 07 28 fa 10 e8 08 0e 2b 03 e1 ef
23 15 29 24 19 d5 fd ea 1e 16 0f 0d e0 16 01 09 0a 00 f6 f3 34 1a f7 f8 21 23 14 e7 10 e4 07 e7 1a 0a f5 22 f1 26 2a 11 f5 0c 17 05 09 0c db fa 17 2f 00 f2 ec 32 00 1b 2d 18 fe 01 12 fd d8 f2
0f ab ef 11 21 db 0b d8 21 11 df 11 dc fe ff b5 26 00 35 bf e3 25 c2 de ef 11 fe f7 0f cc ea 01 2b f0 0d 11 25 30 18 e9 16 df f3 e8 0b fd dd d5 48 2b b4 e8 ed 28 2a e1 11 0d b0 17 16 14 cd 1b
19 1c c7 c7 11 05 e9 16 0a df fc 22 0b ed 0d 27 f7 1e 08 f6 00 00 28 12 06 c0 d6 fc 04 ec 11 31 cd e9 2d db ec f7 fe ee e1 25 f2 e4 f1 ce df 08 1e ed 0f 12 fb ff 06 ce 12 ed 20 bf 11 10 c1 1a
03 00 ec 08 10 f8 ea f9 30 11 ef 00 e7 f3 10 00 1e 25 49 d8 15 39 25 02 fd fe de 00 20 e4 18 f5 fc 0b 0e f3 1a 11 1b 05 2b ff fc 0b fb 0e f6 f7 06 fa 07 37 f6 07 0d fd e4 eb 4e de e4 13 00 fc
21 1b d9 d1 49 e1 23 04 16 e9 e3 fc ef bb 1d 0a 03 04 20 f6 0f f6 36 ec d2 a7 02 ea 32 ac 00 11 2c b5 28 09 ec 00 34 db 15 4c f8 fb ce ed bf d5 63 03 e8 ef 0a 00 d1 fe 15 f5 19 2a 06 01 e9 17
04 16 fb fb ee e1 f2 08 fd 11 f5 fb cb 16 fc 0a 05 2e 1d 15 06 13 28 0f 19 fd f6 04 e8 09 ee 23 e7 fb e6 f6 f3 05 04 0b f7 06 fa e3 06 28 00 fc db d7 12 2c 13 09 06 ef fa 09 2c d0 0c 0e f6 ee
1b 1a 27 f2 06 1c ff 0b 03 01 17 07 f8 ee 00 22 d5 1f 1a d3 03 d5 0d 04 f0 f6 0d d0 f2 1d ff 02 fb 0b f5 00 14 bc fe 15 f9 0d fb f8 eb eb fd e7 f9 07 f8 01 19 0c ea 0e fd f3 14 00 14 ed f5 08
f1 ff ff 01 00 00 03 12 f9 e1 eb 01 e3 02 f1 02 e3 22 06 f0 08 fe ec f5 f8 f5 e1 ed ee e7 ff d7 13 10 eb 11 e8 e8 02 1b f2 0f 14 e5 eb c7 f1 f5 03 06 06 f0 02 23 d4 0e fb 00 e9 ed 3f ed e5 fd
1a ea d6 dd fa 0a 08 2d f2 b9 04 08 14 ef 11 34 fd f3 0c 07 e1 1a 45 05 2e ed cb 13 cd 08 0e ff 09 f3 28 04 1c e8 0b 1f 05 1a 17 ef ef cd e2 22 ee ee d7 fe 05 e2 f1 d9 f2 fd 18 ff 32 f6 36 ff
00 e6 14 12 f5 d5 0c e1 2f f0 2b dc ca 03 ff ee 10 d5 e3 f1 1b fc ee f7 18 ff 17 01 e9 f6 07 dc 08 16 0c 02 ef e8 03 ea 07 df 09 11 1a 08 01 04 e9 f8 05 28 d6 f6 f3 0b ff 06 0f 16 f9 e9 00 ed
02 d7 e9 2d 11 fc da d4 f6 10 07 c9 f3 df 2e f7 0a df d6 f0 0c 2b 0e de f4 0d 29 00 ed dc 31 d5 fb 29 fb fb 04 05 07 06 22 df f0 16 f5 2e d6 12 f0 0b 15 0d d8 02 18 03 0b 00 23 db fc f9 de f4
fb 00 f7 16 05 d6 16 fb ff ea ca e8 08 02 07 ff fd f6 ad d8 ed fe e2 e9 eb d9 fd f2 f6 f1 04 da 23 fb f4 17 d9 d3 01 08 dc 10 f6 ea e5 e4 ee ef 20 13 08 dc f0 f0 e7 03 04 f6 dd e9 04 05 d6 11
14 cd fa 00 0f 48 f1 16 3e 0d f6 eb 3f e9 27 37 fb ca f6 0e 05 eb f5 da f5 fb 39 2c f8 10 24 eb f7 fd f6 0a 19 02 26 fb 0e f2 1c 0e fc f6 ff f4 dc d3 d4 d9 ee d5 18 00 f3 f9 02 f9 ea f0 19 00
1a df f7 cf 17 06 e7 0c 05 0f 03 15 37 d5 10 08 c4 cc ff ed e0 fe d5 f0 21 0e ee 1b 00 ff 41 ec 1c d3 1e 1d 28 f2 0c 0a 14 1b 3e 15 ec aa f1 3d 01 0e e5 c1 06 04 dc 00 1c ea cc e4 1d ed eb cd
40 ee ee 0a 36 f1 1d f6 17 f3 e3 14 00 0b 33 e6 e7 e4 eb 15 e6 27 f2 f1 24 04 0e 1d 03 25 18 f2 05 39 4c f1 d6 5e 46 e3 fd 00 e3 fc ef ce 25 36 1e 25 00 ec 0b ef 3c 03 12 00 ec e0 30 f6 1b e6
f7 0a ee e5 0d e3 29 eb e7 d8 fb 24 d4 f5 e2 3f d9 01 fe dc 0b ea f8 04 f8 f4 df ba c0 da 05 fb 2a 59 f9 13 db dc f9 f9 bb 07 d1 06 f3 c6 f9 16 27 e8 de ec 38 11 fd f1 00 e7 e0 13 29 13 e3 10
0e 07 01 fe 41 02 0f e8 fc 31 f5 1f 24 14 f0 f6 20 06 0d 04 f0 33 ff 23 f2 05 08 16 38 1c 0e ed 09 de 19 1a 06 28 1a f1 3c e1 e7 ea e6 1a 12 29 10 f1 06 00 ce 0d 0e 02 1d fa ed 04 d9 0a e6 09
1e e9 3a 13 09 11 ff 1b 01 01 d7 f9 00 d3 15 00 e1 ed ca f5 1a 1c dc ec fc 06 01 02 05 0c 11 c5 13 09 00 e5 ff dc 10 0b fc fb 1f ec 0c 0a ec ea 06 e5 09 ff e3 15 ec 0b 07 ed d9 f5 11 e2 f7 d3
08 ed ef 1d 0d e7 f0 00 0b ed 12 1b d5 34 f7 fa fc c8 ee eb 0e f6 05 ed ef 12 ff 0c ee f4 fa f3 f5 37 ca dd d4 03 f2 39 00 08 ef f7 1d f6 0b ee e3 ec e3 08 f0 ff 18 df e8 d5 04 3e eb e1 11 d1
ef f9 df e9 06 0e 2b f1 00 d8 db 07 f8 07 eb 0a e7 da f6 df 01 fb e6 0a 0e 20 f6 fd ff 09 fd f9 2b 14 29 01 04 21 07 23 fb d4 1d f9 1f e3 06 34 06 dd bb ec 05 e3 ff d2 ee bc fb fd 19 01 02 d3
fd 1c 17 07 e3 01 ee 16 db 00 d9 eb 0e 19 08 02 22 f8 09 d2 32 24 10 04 f1 38 f0 ee 50 f7 e1 f0 ff 2f eb fd 13 30 00 25 05 07 1f 0a de 13 d4 ed f0 f9 d7 15 ea 1b d5 15 14 f4 ec d8 f2 13 dc f7
0b cb f7 31 f9 43 f1 0a 09 15 08 0d 14 d0 26 36 f5 05 e0 03 1b 07 43 36 07 02 22 0e 15 2d f4 ff 00 1f 02 ea fb e3 01 30 e5 ee 08 f4 cd 02 1c 31 17 d0 0f 47 fe e6 be 03 00 fe 15 0b 0f ea 07 43
f7 04 0a 22 e5 df 18 fc 03 18 f5 f9 f5 e8 0f fa f6 ee f0 eb 21 e3 ff ef d0 1c f0 04 f0 cd 04 d6 08 13 09 09 04 19 f0 12 04 de e3 f2 e7 0c 0e fe cc f3 fe f8 08 f9 e5 08 02 07 0c 10 f5 e1 01 11
0f fe 15 58 0a dc 33 1c ec 26 28 07 ea 03 17 f1 0c d8 d6 e8 07 e2 f9 01 db 0e ef 0b bc 01 fc d4 04 0b 04 fc e5 ef fd f4 f8 ed f7 16 0c 13 e8 f5 f4 45 02 43 ea 39 00 fd f7 f3 f5 1f 1d e0 f8 dc
fe 8c f0 3a 00 17 19 e2 00 df 23 fa 0a 36 e9 1f f3 ba ac 04 20 e0 04 2d e3 26 3b 10 fc 19 11 f7 11 40 f8 e9 dc db fa 3a fb c8 f3 fd 19 2a 13 07 00 fc fe 29 e6 ef 0f e0 f3 e2 f1 0c ea ea 0f cd
